{
  "merges": [
    {
      "pair": [
        "h",
        "e"
      ],
      "token": "he"
    },
    {
      "pair": [
        "Ġ",
        "t"
      ],
      "token": "Ġt"
    },
    {
      "pair": [
        "Ġ",
        "a"
      ],
      "token": "Ġa"
    },
    {
      "pair": [
        "Ġ",
        "s"
      ],
      "token": "Ġs"
    },
    {
      "pair": [
        "Ġ",
        "w"
      ],
      "token": "Ġw"
    },
    {
      "pair": [
        "n",
        "d"
      ],
      "token": "nd"
    },
    {
      "pair": [
        "Ġt",
        "he"
      ],
      "token": "Ġthe"
    },
    {
      "pair": [
        "e",
        "d"
      ],
      "token": "ed"
    },
    {
      "pair": [
        "Ġa",
        "nd"
      ],
      "token": "Ġand"
    },
    {
      "pair": [
        "i",
        "n"
      ],
      "token": "in"
    },
    {
      "pair": [
        "Ġt",
        "o"
      ],
      "token": "Ġto"
    },
    {
      "pair": [
        "Ġ",
        "b"
      ],
      "token": "Ġb"
    },
    {
      "pair": [
        "Ġ",
        "h"
      ],
      "token": "Ġh"
    },
    {
      "pair": [
        "Ġw",
        "a"
      ],
      "token": "Ġwa"
    },
    {
      "pair": [
        "r",
        "e"
      ],
      "token": "re"
    },
    {
      "pair": [
        "Ġ",
        "f"
      ],
      "token": "Ġf"
    },
    {
      "pair": [
        "o",
        "u"
      ],
      "token": "ou"
    },
    {
      "pair": [
        "i",
        "t"
      ],
      "token": "it"
    },
    {
      "pair": [
        "Ġ",
        "l"
      ],
      "token": "Ġl"
    },
    {
      "pair": [
        "Ġ",
        "c"
      ],
      "token": "Ġc"
    },
    {
      "pair": [
        "e",
        "r"
      ],
      "token": "er"
    },
    {
      "pair": [
        "Ġ",
        "d"
      ],
      "token": "Ġd"
    },
    {
      "pair": [
        "Ġ",
        "he"
      ],
      "token": "Ġhe"
    },
    {
      "pair": [
        "Ġwa",
        "s"
      ],
      "token": "Ġwas"
    },
    {
      "pair": [
        "Ġ",
        "m"
      ],
      "token": "Ġm"
    },
    {
      "pair": [
        "Ġ",
        "p"
      ],
      "token": "Ġp"
    },
    {
      "pair": [
        "Ġ",
        "o"
      ],
      "token": "Ġo"
    },
    {
      "pair": [
        "Ġ",
        "T"
      ],
      "token": "ĠT"
    },
    {
      "pair": [
        "o",
        "m"
      ],
      "token": "om"
    },
    {
      "pair": [
        "a",
        "y"
      ],
      "token": "ay"
    },
    {
      "pair": [
        "a",
        "r"
      ],
      "token": "ar"
    },
    {
      "pair": [
        "in",
        "g"
      ],
      "token": "ing"
    },
    {
      "pair": [
        "i",
        "s"
      ],
      "token": "is"
    },
    {
      "pair": [
        "Ġ",
        "g"
      ],
      "token": "Ġg"
    },
    {
      "pair": [
        "e",
        "n"
      ],
      "token": "en"
    },
    {
      "pair": [
        "i",
        "d"
      ],
      "token": "id"
    },
    {
      "pair": [
        "i",
        "l"
      ],
      "token": "il"
    },
    {
      "pair": [
        "a",
        "t"
      ],
      "token": "at"
    },
    {
      "pair": [
        "Ġ",
        "n"
      ],
      "token": "Ġn"
    },
    {
      "pair": [
        "Ġh",
        "a"
      ],
      "token": "Ġha"
    },
    {
      "pair": [
        "Ġ",
        "S"
      ],
      "token": "ĠS"
    },
    {
      "pair": [
        "Ġs",
        "a"
      ],
      "token": "Ġsa"
    },
    {
      "pair": [
        "ĠT",
        "he"
      ],
      "token": "ĠThe"
    },
    {
      "pair": [
        "a",
        "n"
      ],
      "token": "an"
    },
    {
      "pair": [
        "o",
        "r"
      ],
      "token": "or"
    },
    {
      "pair": [
        "i",
        "m"
      ],
      "token": "im"
    },
    {
      "pair": [
        "o",
        "n"
      ],
      "token": "on"
    },
    {
      "pair": [
        "l",
        "l"
      ],
      "token": "ll"
    },
    {
      "pair": [
        "Ġ",
        "it"
      ],
      "token": "Ġit"
    },
    {
      "pair": [
        "Ġt",
        "h"
      ],
      "token": "Ġth"
    },
    {
      "pair": [
        "Ġ",
        "H"
      ],
      "token": "ĠH"
    },
    {
      "pair": [
        "l",
        "e"
      ],
      "token": "le"
    },
    {
      "pair": [
        "e",
        "t"
      ],
      "token": "et"
    },
    {
      "pair": [
        "ĠH",
        "e"
      ],
      "token": "ĠHe"
    },
    {
      "pair": [
        "i",
        "r"
      ],
      "token": "ir"
    },
    {
      "pair": [
        "Ġhe",
        "r"
      ],
      "token": "Ġher"
    },
    {
      "pair": [
        "o",
        "t"
      ],
      "token": "ot"
    },
    {
      "pair": [
        "ĠS",
        "he"
      ],
      "token": "ĠShe"
    },
    {
      "pair": [
        "v",
        "er"
      ],
      "token": "ver"
    },
    {
      "pair": [
        "e",
        "nd"
      ],
      "token": "end"
    },
    {
      "pair": [
        "e",
        "s"
      ],
      "token": "es"
    },
    {
      "pair": [
        "Ġ",
        "in"
      ],
      "token": "Ġin"
    },
    {
      "pair": [
        "o",
        "w"
      ],
      "token": "ow"
    },
    {
      "pair": [
        "u",
        "t"
      ],
      "token": "ut"
    },
    {
      "pair": [
        "c",
        "k"
      ],
      "token": "ck"
    },
    {
      "pair": [
        "l",
        "d"
      ],
      "token": "ld"
    },
    {
      "pair": [
        "Ġ",
        "u"
      ],
      "token": "Ġu"
    },
    {
      "pair": [
        "ĠThe",
        "y"
      ],
      "token": "ĠThey"
    },
    {
      "pair": [
        "Ġ",
        "e"
      ],
      "token": "Ġe"
    },
    {
      "pair": [
        "i",
        "g"
      ],
      "token": "ig"
    },
    {
      "pair": [
        "o",
        "o"
      ],
      "token": "oo"
    },
    {
      "pair": [
        "Ġb",
        "e"
      ],
      "token": "Ġbe"
    },
    {
      "pair": [
        "Ġ",
        "r"
      ],
      "token": "Ġr"
    },
    {
      "pair": [
        "Ġs",
        "t"
      ],
      "token": "Ġst"
    },
    {
      "pair": [
        "Ġs",
        "he"
      ],
      "token": "Ġshe"
    },
    {
      "pair": [
        "Ġ",
        "y"
      ],
      "token": "Ġy"
    },
    {
      "pair": [
        "c",
        "e"
      ],
      "token": "ce"
    },
    {
      "pair": [
        "Ġsa",
        "id"
      ],
      "token": "Ġsaid"
    },
    {
      "pair": [
        "it",
        "h"
      ],
      "token": "ith"
    },
    {
      "pair": [
        "p",
        "p"
      ],
      "token": "pp"
    },
    {
      "pair": [
        "a",
        "m"
      ],
      "token": "am"
    },
    {
      "pair": [
        "Ġw",
        "ith"
      ],
      "token": "Ġwith"
    },
    {
      "pair": [
        "k",
        "e"
      ],
      "token": "ke"
    },
    {
      "pair": [
        "Ġ",
        "I"
      ],
      "token": "ĠI"
    },
    {
      "pair": [
        "v",
        "e"
      ],
      "token": "ve"
    },
    {
      "pair": [
        "Ġs",
        "o"
      ],
      "token": "Ġso"
    },
    {
      "pair": [
        "Ġo",
        "f"
      ],
      "token": "Ġof"
    },
    {
      "pair": [
        "Ġ",
        "\""
      ],
      "token": "Ġ\""
    },
    {
      "pair": [
        "O",
        "n"
      ],
      "token": "On"
    },
    {
      "pair": [
        "ver",
        "y"
      ],
      "token": "very"
    },
    {
      "pair": [
        "Ġo",
        "n"
      ],
      "token": "Ġon"
    },
    {
      "pair": [
        "Ġh",
        "is"
      ],
      "token": "Ġhis"
    },
    {
      "pair": [
        "a",
        "d"
      ],
      "token": "ad"
    },
    {
      "pair": [
        "k",
        "ed"
      ],
      "token": "ked"
    },
    {
      "pair": [
        "f",
        "t"
      ],
      "token": "ft"
    },
    {
      "pair": [
        "Ġp",
        "l"
      ],
      "token": "Ġpl"
    },
    {
      "pair": [
        "r",
        "i"
      ],
      "token": "ri"
    },
    {
      "pair": [
        "n",
        "t"
      ],
      "token": "nt"
    },
    {
      "pair": [
        "il",
        "y"
      ],
      "token": "ily"
    },
    {
      "pair": [
        "Ġd",
        "ay"
      ],
      "token": "Ġday"
    },
    {
      "pair": [
        "Ġy",
        "ou"
      ],
      "token": "Ġyou"
    },
    {
      "pair": [
        "Ġha",
        "d"
      ],
      "token": "Ġhad"
    },
    {
      "pair": [
        "Ġu",
        "p"
      ],
      "token": "Ġup"
    },
    {
      "pair": [
        "Ġth",
        "at"
      ],
      "token": "Ġthat"
    },
    {
      "pair": [
        "e",
        "l"
      ],
      "token": "el"
    },
    {
      "pair": [
        "x",
        "t"
      ],
      "token": "xt"
    },
    {
      "pair": [
        "s",
        "t"
      ],
      "token": "st"
    },
    {
      "pair": [
        "Ġpl",
        "ay"
      ],
      "token": "Ġplay"
    },
    {
      "pair": [
        "Ġ",
        "L"
      ],
      "token": "ĠL"
    },
    {
      "pair": [
        "e",
        "xt"
      ],
      "token": "ext"
    },
    {
      "pair": [
        "ou",
        "ld"
      ],
      "token": "ould"
    },
    {
      "pair": [
        "Ġw",
        "e"
      ],
      "token": "Ġwe"
    },
    {
      "pair": [
        "Ġf",
        "or"
      ],
      "token": "Ġfor"
    },
    {
      "pair": [
        "Ġthe",
        "y"
      ],
      "token": "Ġthey"
    },
    {
      "pair": [
        "T",
        "he"
      ],
      "token": "The"
    },
    {
      "pair": [
        "u",
        "n"
      ],
      "token": "un"
    },
    {
      "pair": [
        "Ġ",
        "B"
      ],
      "token": "ĠB"
    },
    {
      "pair": [
        "Ġl",
        "i"
      ],
      "token": "Ġli"
    },
    {
      "pair": [
        "en",
        "t"
      ],
      "token": "ent"
    },
    {
      "pair": [
        "<",
        "|"
      ],
      "token": "<|"
    },
    {
      "pair": [
        "end",
        "o"
      ],
      "token": "endo"
    },
    {
      "pair": [
        "endo",
        "ft"
      ],
      "token": "endoft"
    },
    {
      "pair": [
        "endoft",
        "ext"
      ],
      "token": "endoftext"
    },
    {
      "pair": [
        "|",
        ">"
      ],
      "token": "|>"
    },
    {
      "pair": [
        "it",
        "t"
      ],
      "token": "itt"
    },
    {
      "pair": [
        "c",
        "h"
      ],
      "token": "ch"
    },
    {
      "pair": [
        "Ġha",
        "pp"
      ],
      "token": "Ġhapp"
    },
    {
      "pair": [
        "ou",
        "t"
      ],
      "token": "out"
    },
    {
      "pair": [
        "he",
        "r"
      ],
      "token": "her"
    },
    {
      "pair": [
        "Ġs",
        "h"
      ],
      "token": "Ġsh"
    },
    {
      "pair": [
        "l",
        "y"
      ],
      "token": "ly"
    },
    {
      "pair": [
        "Ġm",
        "om"
      ],
      "token": "Ġmom"
    },
    {
      "pair": [
        "Ġwa",
        "nt"
      ],
      "token": "Ġwant"
    },
    {
      "pair": [
        "ou",
        "nd"
      ],
      "token": "ound"
    },
    {
      "pair": [
        "'",
        "s"
      ],
      "token": "'s"
    },
    {
      "pair": [
        "a",
        "ll"
      ],
      "token": "all"
    },
    {
      "pair": [
        "Ġ",
        "very"
      ],
      "token": "Ġvery"
    },
    {
      "pair": [
        "itt",
        "le"
      ],
      "token": "ittle"
    },
    {
      "pair": [
        "Ġl",
        "ittle"
      ],
      "token": "Ġlittle"
    },
    {
      "pair": [
        "om",
        "e"
      ],
      "token": "ome"
    },
    {
      "pair": [
        "Ġw",
        "h"
      ],
      "token": "Ġwh"
    },
    {
      "pair": [
        "h",
        "t"
      ],
      "token": "ht"
    },
    {
      "pair": [
        "s",
        "e"
      ],
      "token": "se"
    },
    {
      "pair": [
        "Ġn",
        "ot"
      ],
      "token": "Ġnot"
    },
    {
      "pair": [
        "m",
        "y"
      ],
      "token": "my"
    },
    {
      "pair": [
        "Ġ",
        "k"
      ],
      "token": "Ġk"
    },
    {
      "pair": [
        "Ġs",
        "m"
      ],
      "token": "Ġsm"
    },
    {
      "pair": [
        "Ġd",
        "o"
      ],
      "token": "Ġdo"
    },
    {
      "pair": [
        "Ġthe",
        "re"
      ],
      "token": "Ġthere"
    },
    {
      "pair": [
        "im",
        "e"
      ],
      "token": "ime"
    },
    {
      "pair": [
        "Ġt",
        "ime"
      ],
      "token": "Ġtime"
    },
    {
      "pair": [
        ".",
        "<|"
      ],
      "token": ".<|"
    },
    {
      "pair": [
        "a",
        "l"
      ],
      "token": "al"
    },
    {
      "pair": [
        "Ġ",
        "re"
      ],
      "token": "Ġre"
    },
    {
      "pair": [
        "Ġb",
        "ig"
      ],
      "token": "Ġbig"
    },
    {
      "pair": [
        "ĠL",
        "ily"
      ],
      "token": "ĠLily"
    },
    {
      "pair": [
        "a",
        "ck"
      ],
      "token": "ack"
    },
    {
      "pair": [
        "ĠI",
        "t"
      ],
      "token": "ĠIt"
    },
    {
      "pair": [
        "Ġhapp",
        "y"
      ],
      "token": "Ġhappy"
    },
    {
      "pair": [
        "Ġa",
        "n"
      ],
      "token": "Ġan"
    },
    {
      "pair": [
        "ri",
        "end"
      ],
      "token": "riend"
    },
    {
      "pair": [
        "Ġ",
        "is"
      ],
      "token": "Ġis"
    },
    {
      "pair": [
        "Ġf",
        "riend"
      ],
      "token": "Ġfriend"
    },
    {
      "pair": [
        "Ġb",
        "ut"
      ],
      "token": "Ġbut"
    },
    {
      "pair": [
        "Ġn",
        "e"
      ],
      "token": "Ġne"
    },
    {
      "pair": [
        "Ġsa",
        "w"
      ],
      "token": "Ġsaw"
    },
    {
      "pair": [
        "r",
        "y"
      ],
      "token": "ry"
    },
    {
      "pair": [
        "Ġ",
        "M"
      ],
      "token": "ĠM"
    },
    {
      "pair": [
        "Ġl",
        "oo"
      ],
      "token": "Ġloo"
    },
    {
      "pair": [
        "u",
        "g"
      ],
      "token": "ug"
    },
    {
      "pair": [
        "r",
        "a"
      ],
      "token": "ra"
    },
    {
      "pair": [
        "e",
        "c"
      ],
      "token": "ec"
    },
    {
      "pair": [
        "Ġwe",
        "re"
      ],
      "token": "Ġwere"
    },
    {
      "pair": [
        "a",
        "ke"
      ],
      "token": "ake"
    },
    {
      "pair": [
        "On",
        "e"
      ],
      "token": "One"
    },
    {
      "pair": [
        "o",
        "re"
      ],
      "token": "ore"
    },
    {
      "pair": [
        ".",
        "\""
      ],
      "token": ".\""
    },
    {
      "pair": [
        "'",
        "t"
      ],
      "token": "'t"
    },
    {
      "pair": [
        "id",
        "e"
      ],
      "token": "ide"
    },
    {
      "pair": [
        "On",
        "ce"
      ],
      "token": "Once"
    },
    {
      "pair": [
        "Ġa",
        "s"
      ],
      "token": "Ġas"
    },
    {
      "pair": [
        "Ġb",
        "o"
      ],
      "token": "Ġbo"
    },
    {
      "pair": [
        "v",
        "ed"
      ],
      "token": "ved"
    },
    {
      "pair": [
        "Ġs",
        "e"
      ],
      "token": "Ġse"
    },
    {
      "pair": [
        "Ġh",
        "im"
      ],
      "token": "Ġhim"
    },
    {
      "pair": [
        "Ġto",
        "o"
      ],
      "token": "Ġtoo"
    },
    {
      "pair": [
        "ar",
        "d"
      ],
      "token": "ard"
    },
    {
      "pair": [
        "Ġ",
        "j"
      ],
      "token": "Ġj"
    },
    {
      "pair": [
        "Ġwant",
        "ed"
      ],
      "token": "Ġwanted"
    },
    {
      "pair": [
        "ir",
        "l"
      ],
      "token": "irl"
    },
    {
      "pair": [
        "Ġl",
        "o"
      ],
      "token": "Ġlo"
    },
    {
      "pair": [
        "Ġg",
        "irl"
      ],
      "token": "Ġgirl"
    },
    {
      "pair": [
        "f",
        "u"
      ],
      "token": "fu"
    },
    {
      "pair": [
        "Ġs",
        "p"
      ],
      "token": "Ġsp"
    },
    {
      "pair": [
        "Ġ",
        "out"
      ],
      "token": "Ġout"
    },
    {
      "pair": [
        "Ġg",
        "o"
      ],
      "token": "Ġgo"
    },
    {
      "pair": [
        "Ġup",
        "on"
      ],
      "token": "Ġupon"
    },
    {
      "pair": [
        "il",
        "l"
      ],
      "token": "ill"
    },
    {
      "pair": [
        "Ġ",
        "J"
      ],
      "token": "ĠJ"
    },
    {
      "pair": [
        "Ġa",
        "t"
      ],
      "token": "Ġat"
    },
    {
      "pair": [
        "Ġthe",
        "m"
      ],
      "token": "Ġthem"
    },
    {
      "pair": [
        "u",
        "r"
      ],
      "token": "ur"
    },
    {
      "pair": [
        "a",
        "in"
      ],
      "token": "ain"
    },
    {
      "pair": [
        "Ġc",
        "ould"
      ],
      "token": "Ġcould"
    },
    {
      "pair": [
        "Ġa",
        "re"
      ],
      "token": "Ġare"
    },
    {
      "pair": [
        "i",
        "nd"
      ],
      "token": "ind"
    },
    {
      "pair": [
        "w",
        "ay"
      ],
      "token": "way"
    },
    {
      "pair": [
        "Ġe",
        "x"
      ],
      "token": "Ġex"
    },
    {
      "pair": [
        "Ġsm",
        "il"
      ],
      "token": "Ġsmil"
    },
    {
      "pair": [
        "Ġ",
        "A"
      ],
      "token": "ĠA"
    },
    {
      "pair": [
        "he",
        "n"
      ],
      "token": "hen"
    },
    {
      "pair": [
        "Ġthe",
        "ir"
      ],
      "token": "Ġtheir"
    },
    {
      "pair": [
        "r",
        "ound"
      ],
      "token": "round"
    },
    {
      "pair": [
        "!",
        "\""
      ],
      "token": "!\""
    },
    {
      "pair": [
        "h",
        "ing"
      ],
      "token": "hing"
    },
    {
      "pair": [
        "he",
        "d"
      ],
      "token": "hed"
    },
    {
      "pair": [
        "ĠT",
        "im"
      ],
      "token": "ĠTim"
    },
    {
      "pair": [
        "Ġd",
        "id"
      ],
      "token": "Ġdid"
    },
    {
      "pair": [
        "i",
        "c"
      ],
      "token": "ic"
    },
    {
      "pair": [
        "t",
        "er"
      ],
      "token": "ter"
    },
    {
      "pair": [
        "ĠB",
        "en"
      ],
      "token": "ĠBen"
    },
    {
      "pair": [
        "ar",
        "t"
      ],
      "token": "art"
    },
    {
      "pair": [
        "fu",
        "l"
      ],
      "token": "ful"
    },
    {
      "pair": [
        "Ġha",
        "ve"
      ],
      "token": "Ġhave"
    },
    {
      "pair": [
        "Ġa",
        "ll"
      ],
      "token": "Ġall"
    },
    {
      "pair": [
        "Ġw",
        "ent"
      ],
      "token": "Ġwent"
    },
    {
      "pair": [
        "ig",
        "ht"
      ],
      "token": "ight"
    },
    {
      "pair": [
        "on",
        "e"
      ],
      "token": "one"
    },
    {
      "pair": [
        "r",
        "om"
      ],
      "token": "rom"
    },
    {
      "pair": [
        "Ġfriend",
        "s"
      ],
      "token": "Ġfriends"
    },
    {
      "pair": [
        "Ġc",
        "an"
      ],
      "token": "Ġcan"
    },
    {
      "pair": [
        "oo",
        "d"
      ],
      "token": "ood"
    },
    {
      "pair": [
        "u",
        "m"
      ],
      "token": "um"
    },
    {
      "pair": [
        "Ġb",
        "ack"
      ],
      "token": "Ġback"
    },
    {
      "pair": [
        "l",
        "p"
      ],
      "token": "lp"
    },
    {
      "pair": [
        "Ġk",
        "n"
      ],
      "token": "Ġkn"
    },
    {
      "pair": [
        "Ġc",
        "l"
      ],
      "token": "Ġcl"
    },
    {
      "pair": [
        "Ġl",
        "e"
      ],
      "token": "Ġle"
    },
    {
      "pair": [
        "a",
        "re"
      ],
      "token": "are"
    },
    {
      "pair": [
        "Ġf",
        "un"
      ],
      "token": "Ġfun"
    },
    {
      "pair": [
        "Ġhe",
        "lp"
      ],
      "token": "Ġhelp"
    },
    {
      "pair": [
        "am",
        "e"
      ],
      "token": "ame"
    },
    {
      "pair": [
        "om",
        "et"
      ],
      "token": "omet"
    },
    {
      "pair": [
        "ou",
        "g"
      ],
      "token": "oug"
    },
    {
      "pair": [
        "Ġa",
        "round"
      ],
      "token": "Ġaround"
    },
    {
      "pair": [
        "ar",
        "k"
      ],
      "token": "ark"
    },
    {
      "pair": [
        "Ġloo",
        "ked"
      ],
      "token": "Ġlooked"
    },
    {
      "pair": [
        "Ġn",
        "o"
      ],
      "token": "Ġno"
    },
    {
      "pair": [
        "el",
        "t"
      ],
      "token": "elt"
    },
    {
      "pair": [
        "Ġm",
        "an"
      ],
      "token": "Ġman"
    },
    {
      "pair": [
        "Ġf",
        "e"
      ],
      "token": "Ġfe"
    },
    {
      "pair": [
        "Ġsmil",
        "ed"
      ],
      "token": "Ġsmiled"
    },
    {
      "pair": [
        "Ġr",
        "o"
      ],
      "token": "Ġro"
    },
    {
      "pair": [
        "Y",
        "ou"
      ],
      "token": "You"
    },
    {
      "pair": [
        "Ġf",
        "elt"
      ],
      "token": "Ġfelt"
    },
    {
      "pair": [
        "Ġli",
        "ke"
      ],
      "token": "Ġlike"
    },
    {
      "pair": [
        "Ġa",
        "l"
      ],
      "token": "Ġal"
    },
    {
      "pair": [
        "am",
        "ed"
      ],
      "token": "amed"
    },
    {
      "pair": [
        "i",
        "ck"
      ],
      "token": "ick"
    },
    {
      "pair": [
        "Ġs",
        "ay"
      ],
      "token": "Ġsay"
    },
    {
      "pair": [
        "r",
        "o"
      ],
      "token": "ro"
    },
    {
      "pair": [
        "Ã",
        "¢"
      ],
      "token": "Ã¢"
    },
    {
      "pair": [
        "â",
        "Ĥ"
      ],
      "token": "âĤ"
    },
    {
      "pair": [
        "âĤ",
        "¬"
      ],
      "token": "âĤ¬"
    },
    {
      "pair": [
        "Ġse",
        "e"
      ],
      "token": "Ġsee"
    },
    {
      "pair": [
        "Ġw",
        "ould"
      ],
      "token": "Ġwould"
    },
    {
      "pair": [
        "s",
        "ide"
      ],
      "token": "side"
    },
    {
      "pair": [
        "u",
        "re"
      ],
      "token": "ure"
    },
    {
      "pair": [
        "Ġs",
        "omet"
      ],
      "token": "Ġsomet"
    },
    {
      "pair": [
        "Ġbo",
        "y"
      ],
      "token": "Ġboy"
    },
    {
      "pair": [
        "on",
        "g"
      ],
      "token": "ong"
    },
    {
      "pair": [
        "Ġs",
        "c"
      ],
      "token": "Ġsc"
    },
    {
      "pair": [
        "Ġto",
        "y"
      ],
      "token": "Ġtoy"
    },
    {
      "pair": [
        "Ġ",
        "One"
      ],
      "token": "ĠOne"
    },
    {
      "pair": [
        "a",
        "s"
      ],
      "token": "as"
    },
    {
      "pair": [
        "Ġst",
        "art"
      ],
      "token": "Ġstart"
    },
    {
      "pair": [
        "i",
        "ce"
      ],
      "token": "ice"
    },
    {
      "pair": [
        "g",
        "et"
      ],
      "token": "get"
    },
    {
      "pair": [
        "Ġs",
        "ome"
      ],
      "token": "Ġsome"
    },
    {
      "pair": [
        "Ġlo",
        "ved"
      ],
      "token": "Ġloved"
    },
    {
      "pair": [
        "Ġm",
        "e"
      ],
      "token": "Ġme"
    },
    {
      "pair": [
        "ĠT",
        "om"
      ],
      "token": "ĠTom"
    },
    {
      "pair": [
        "Ġb",
        "ir"
      ],
      "token": "Ġbir"
    },
    {
      "pair": [
        "ad",
        "e"
      ],
      "token": "ade"
    },
    {
      "pair": [
        "Ġn",
        "amed"
      ],
      "token": "Ġnamed"
    },
    {
      "pair": [
        "Ġa",
        "g"
      ],
      "token": "Ġag"
    },
    {
      "pair": [
        "o",
        "p"
      ],
      "token": "op"
    },
    {
      "pair": [
        "d",
        "d"
      ],
      "token": "dd"
    },
    {
      "pair": [
        "Ġsomet",
        "hing"
      ],
      "token": "Ġsomething"
    },
    {
      "pair": [
        "Ġw",
        "or"
      ],
      "token": "Ġwor"
    },
    {
      "pair": [
        "re",
        "e"
      ],
      "token": "ree"
    },
    {
      "pair": [
        "it",
        "ed"
      ],
      "token": "ited"
    },
    {
      "pair": [
        "Ġf",
        "a"
      ],
      "token": "Ġfa"
    },
    {
      "pair": [
        "Ġ",
        "W"
      ],
      "token": "ĠW"
    },
    {
      "pair": [
        "ing",
        "s"
      ],
      "token": "ings"
    },
    {
      "pair": [
        "Ġbir",
        "d"
      ],
      "token": "Ġbird"
    },
    {
      "pair": [
        "?",
        "\""
      ],
      "token": "?\""
    },
    {
      "pair": [
        "get",
        "her"
      ],
      "token": "gether"
    },
    {
      "pair": [
        "Ġa",
        "way"
      ],
      "token": "Ġaway"
    },
    {
      "pair": [
        "Ġex",
        "c"
      ],
      "token": "Ġexc"
    },
    {
      "pair": [
        "Ġr",
        "an"
      ],
      "token": "Ġran"
    },
    {
      "pair": [
        "Ġstart",
        "ed"
      ],
      "token": "Ġstarted"
    },
    {
      "pair": [
        "k",
        "ing"
      ],
      "token": "king"
    },
    {
      "pair": [
        "Ġwh",
        "at"
      ],
      "token": "Ġwhat"
    },
    {
      "pair": [
        "a",
        "g"
      ],
      "token": "ag"
    },
    {
      "pair": [
        "Ġas",
        "ked"
      ],
      "token": "Ġasked"
    },
    {
      "pair": [
        "Ġm",
        "ake"
      ],
      "token": "Ġmake"
    },
    {
      "pair": [
        "ow",
        "n"
      ],
      "token": "own"
    },
    {
      "pair": [
        "ou",
        "d"
      ],
      "token": "oud"
    },
    {
      "pair": [
        "Ġm",
        "ade"
      ],
      "token": "Ġmade"
    },
    {
      "pair": [
        "t",
        "her"
      ],
      "token": "ther"
    },
    {
      "pair": [
        "Ġb",
        "r"
      ],
      "token": "Ġbr"
    },
    {
      "pair": [
        "Ġc",
        "o"
      ],
      "token": "Ġco"
    },
    {
      "pair": [
        "Ġto",
        "gether"
      ],
      "token": "Ġtogether"
    },
    {
      "pair": [
        "Ġc",
        "ar"
      ],
      "token": "Ġcar"
    },
    {
      "pair": [
        "Ġag",
        "ain"
      ],
      "token": "Ġagain"
    },
    {
      "pair": [
        "Ġo",
        "ther"
      ],
      "token": "Ġother"
    },
    {
      "pair": [
        "a",
        "b"
      ],
      "token": "ab"
    },
    {
      "pair": [
        "ĠTim",
        "my"
      ],
      "token": "ĠTimmy"
    },
    {
      "pair": [
        "e",
        "ll"
      ],
      "token": "ell"
    },
    {
      "pair": [
        ",",
        "\""
      ],
      "token": ",\""
    },
    {
      "pair": [
        "ar",
        "ed"
      ],
      "token": "ared"
    },
    {
      "pair": [
        "pp",
        "ed"
      ],
      "token": "pped"
    },
    {
      "pair": [
        "Ġ",
        "E"
      ],
      "token": "ĠE"
    },
    {
      "pair": [
        "ĠB",
        "ut"
      ],
      "token": "ĠBut"
    },
    {
      "pair": [
        "Ġthe",
        "n"
      ],
      "token": "Ġthen"
    },
    {
      "pair": [
        "i",
        "e"
      ],
      "token": "ie"
    },
    {
      "pair": [
        "e",
        "p"
      ],
      "token": "ep"
    },
    {
      "pair": [
        "Ġc",
        "h"
      ],
      "token": "Ġch"
    },
    {
      "pair": [
        "Ġ",
        "You"
      ],
      "token": "ĠYou"
    },
    {
      "pair": [
        "Ġf",
        "rom"
      ],
      "token": "Ġfrom"
    },
    {
      "pair": [
        "Ġd",
        "ec"
      ],
      "token": "Ġdec"
    },
    {
      "pair": [
        "s",
        "s"
      ],
      "token": "ss"
    },
    {
      "pair": [
        "Ġl",
        "a"
      ],
      "token": "Ġla"
    },
    {
      "pair": [
        "Ġsa",
        "d"
      ],
      "token": "Ġsad"
    },
    {
      "pair": [
        "Ġw",
        "hen"
      ],
      "token": "Ġwhen"
    },
    {
      "pair": [
        "Ġp",
        "ut"
      ],
      "token": "Ġput"
    },
    {
      "pair": [
        "Ġf",
        "l"
      ],
      "token": "Ġfl"
    },
    {
      "pair": [
        "Ġne",
        "w"
      ],
      "token": "Ġnew"
    },
    {
      "pair": [
        "Ġwh",
        "o"
      ],
      "token": "Ġwho"
    },
    {
      "pair": [
        "Ġexc",
        "ited"
      ],
      "token": "Ġexcited"
    },
    {
      "pair": [
        "es",
        "t"
      ],
      "token": "est"
    },
    {
      "pair": [
        "i",
        "f"
      ],
      "token": "if"
    },
    {
      "pair": [
        "Ġh",
        "ome"
      ],
      "token": "Ġhome"
    },
    {
      "pair": [
        "Ġh",
        "ug"
      ],
      "token": "Ġhug"
    },
    {
      "pair": [
        "q",
        "u"
      ],
      "token": "qu"
    },
    {
      "pair": [
        "Ġsay",
        "s"
      ],
      "token": "Ġsays"
    },
    {
      "pair": [
        "ou",
        "s"
      ],
      "token": "ous"
    },
    {
      "pair": [
        "Ġm",
        "u"
      ],
      "token": "Ġmu"
    },
    {
      "pair": [
        "Ġf",
        "ound"
      ],
      "token": "Ġfound"
    },
    {
      "pair": [
        "Ġe",
        "very"
      ],
      "token": "Ġevery"
    },
    {
      "pair": [
        "Ġa",
        "b"
      ],
      "token": "Ġab"
    },
    {
      "pair": [
        "oug",
        "ht"
      ],
      "token": "ought"
    },
    {
      "pair": [
        "Ġg",
        "et"
      ],
      "token": "Ġget"
    },
    {
      "pair": [
        "L",
        "ily"
      ],
      "token": "Lily"
    },
    {
      "pair": [
        "a",
        "ch"
      ],
      "token": "ach"
    },
    {
      "pair": [
        "Ġg",
        "ood"
      ],
      "token": "Ġgood"
    },
    {
      "pair": [
        "Ġplay",
        "ing"
      ],
      "token": "Ġplaying"
    },
    {
      "pair": [
        "p",
        "l"
      ],
      "token": "pl"
    },
    {
      "pair": [
        "Ġp",
        "ark"
      ],
      "token": "Ġpark"
    },
    {
      "pair": [
        "Ġ",
        "v"
      ],
      "token": "Ġv"
    },
    {
      "pair": [
        "Ġwa",
        "l"
      ],
      "token": "Ġwal"
    },
    {
      "pair": [
        "Ġb",
        "l"
      ],
      "token": "Ġbl"
    },
    {
      "pair": [
        "all",
        "y"
      ],
      "token": "ally"
    },
    {
      "pair": [
        "Ġdec",
        "id"
      ],
      "token": "Ġdecid"
    },
    {
      "pair": [
        "Ġli",
        "ked"
      ],
      "token": "Ġliked"
    },
    {
      "pair": [
        "Ġdecid",
        "ed"
      ],
      "token": "Ġdecided"
    },
    {
      "pair": [
        "ri",
        "ed"
      ],
      "token": "ried"
    },
    {
      "pair": [
        "Ġth",
        "ings"
      ],
      "token": "Ġthings"
    },
    {
      "pair": [
        "a",
        "ve"
      ],
      "token": "ave"
    },
    {
      "pair": [
        "Ġ",
        "D"
      ],
      "token": "ĠD"
    },
    {
      "pair": [
        "Ġp",
        "r"
      ],
      "token": "Ġpr"
    },
    {
      "pair": [
        "oo",
        "k"
      ],
      "token": "ook"
    },
    {
      "pair": [
        "ar",
        "a"
      ],
      "token": "ara"
    },
    {
      "pair": [
        "Ġfe",
        "el"
      ],
      "token": "Ġfeel"
    },
    {
      "pair": [
        "Ġth",
        "an"
      ],
      "token": "Ġthan"
    },
    {
      "pair": [
        "Ġon",
        "e"
      ],
      "token": "Ġone"
    },
    {
      "pair": [
        "u",
        "st"
      ],
      "token": "ust"
    },
    {
      "pair": [
        "nd",
        "er"
      ],
      "token": "nder"
    },
    {
      "pair": [
        "h",
        "at"
      ],
      "token": "hat"
    },
    {
      "pair": [
        "Ġb",
        "u"
      ],
      "token": "Ġbu"
    },
    {
      "pair": [
        "Ġg",
        "ot"
      ],
      "token": "Ġgot"
    },
    {
      "pair": [
        "ou",
        "se"
      ],
      "token": "ouse"
    },
    {
      "pair": [
        "Ġd",
        "ad"
      ],
      "token": "Ġdad"
    },
    {
      "pair": [
        "u",
        "dd"
      ],
      "token": "udd"
    },
    {
      "pair": [
        "Ġc",
        "are"
      ],
      "token": "Ġcare"
    },
    {
      "pair": [
        "Ġd",
        "own"
      ],
      "token": "Ġdown"
    },
    {
      "pair": [
        "Ġdo",
        "g"
      ],
      "token": "Ġdog"
    },
    {
      "pair": [
        "Ġc",
        "ame"
      ],
      "token": "Ġcame"
    },
    {
      "pair": [
        "ou",
        "r"
      ],
      "token": "our"
    },
    {
      "pair": [
        "Ġf",
        "ind"
      ],
      "token": "Ġfind"
    },
    {
      "pair": [
        "Ġo",
        "ld"
      ],
      "token": "Ġold"
    },
    {
      "pair": [
        "Ġbe",
        "c"
      ],
      "token": "Ġbec"
    },
    {
      "pair": [
        "a",
        "p"
      ],
      "token": "ap"
    },
    {
      "pair": [
        "Ġloo",
        "k"
      ],
      "token": "Ġlook"
    },
    {
      "pair": [
        "n",
        "n"
      ],
      "token": "nn"
    },
    {
      "pair": [
        "u",
        "e"
      ],
      "token": "ue"
    },
    {
      "pair": [
        "Ġab",
        "out"
      ],
      "token": "Ġabout"
    },
    {
      "pair": [
        "Ġsc",
        "ared"
      ],
      "token": "Ġscared"
    },
    {
      "pair": [
        "es",
        "s"
      ],
      "token": "ess"
    },
    {
      "pair": [
        "it",
        "e"
      ],
      "token": "ite"
    },
    {
      "pair": [
        "Ġt",
        "ake"
      ],
      "token": "Ġtake"
    },
    {
      "pair": [
        "way",
        "s"
      ],
      "token": "ways"
    },
    {
      "pair": [
        "Ġyou",
        "r"
      ],
      "token": "Ġyour"
    },
    {
      "pair": [
        "Ġt",
        "ree"
      ],
      "token": "Ġtree"
    },
    {
      "pair": [
        "c",
        "hed"
      ],
      "token": "ched"
    },
    {
      "pair": [
        "ec",
        "i"
      ],
      "token": "eci"
    },
    {
      "pair": [
        "The",
        "y"
      ],
      "token": "They"
    },
    {
      "pair": [
        "Ġl",
        "ot"
      ],
      "token": "Ġlot"
    },
    {
      "pair": [
        "Ġh",
        "o"
      ],
      "token": "Ġho"
    },
    {
      "pair": [
        "Ġth",
        "ought"
      ],
      "token": "Ġthought"
    },
    {
      "pair": [
        "Ġm",
        "ore"
      ],
      "token": "Ġmore"
    },
    {
      "pair": [
        "Ġin",
        "t"
      ],
      "token": "Ġint"
    },
    {
      "pair": [
        "Ġal",
        "ways"
      ],
      "token": "Ġalways"
    },
    {
      "pair": [
        "Ġkn",
        "e"
      ],
      "token": "Ġkne"
    },
    {
      "pair": [
        "Ġtoo",
        "k"
      ],
      "token": "Ġtook"
    },
    {
      "pair": [
        "er",
        "s"
      ],
      "token": "ers"
    },
    {
      "pair": [
        "udd",
        "en"
      ],
      "token": "udden"
    },
    {
      "pair": [
        "Ġg",
        "ra"
      ],
      "token": "Ġgra"
    },
    {
      "pair": [
        "en",
        "ed"
      ],
      "token": "ened"
    },
    {
      "pair": [
        "eci",
        "al"
      ],
      "token": "ecial"
    },
    {
      "pair": [
        "is",
        "t"
      ],
      "token": "ist"
    },
    {
      "pair": [
        "Ġtoy",
        "s"
      ],
      "token": "Ġtoys"
    },
    {
      "pair": [
        "Ġm",
        "y"
      ],
      "token": "Ġmy"
    },
    {
      "pair": [
        "Ġsp",
        "ecial"
      ],
      "token": "Ġspecial"
    },
    {
      "pair": [
        "Ġ",
        "ke"
      ],
      "token": "Ġke"
    },
    {
      "pair": [
        "Ġdid",
        "n"
      ],
      "token": "Ġdidn"
    },
    {
      "pair": [
        "u",
        "ck"
      ],
      "token": "uck"
    },
    {
      "pair": [
        "nn",
        "a"
      ],
      "token": "nna"
    },
    {
      "pair": [
        "is",
        "e"
      ],
      "token": "ise"
    },
    {
      "pair": [
        "n",
        "ed"
      ],
      "token": "ned"
    },
    {
      "pair": [
        "Ġp",
        "o"
      ],
      "token": "Ġpo"
    },
    {
      "pair": [
        "f",
        "e"
      ],
      "token": "fe"
    },
    {
      "pair": [
        "Ġs",
        "w"
      ],
      "token": "Ġsw"
    },
    {
      "pair": [
        "udden",
        "ly"
      ],
      "token": "uddenly"
    },
    {
      "pair": [
        "n",
        "y"
      ],
      "token": "ny"
    },
    {
      "pair": [
        "Ġb",
        "all"
      ],
      "token": "Ġball"
    },
    {
      "pair": [
        "Ġm",
        "o"
      ],
      "token": "Ġmo"
    },
    {
      "pair": [
        "ĠM",
        "om"
      ],
      "token": "ĠMom"
    },
    {
      "pair": [
        "Ġla",
        "ug"
      ],
      "token": "Ġlaug"
    },
    {
      "pair": [
        "Ġle",
        "ar"
      ],
      "token": "Ġlear"
    },
    {
      "pair": [
        "ĠE",
        "very"
      ],
      "token": "ĠEvery"
    },
    {
      "pair": [
        "Ġc",
        "at"
      ],
      "token": "Ġcat"
    },
    {
      "pair": [
        "a",
        "k"
      ],
      "token": "ak"
    },
    {
      "pair": [
        "Ġp",
        "re"
      ],
      "token": "Ġpre"
    },
    {
      "pair": [
        "an",
        "t"
      ],
      "token": "ant"
    },
    {
      "pair": [
        "Ġw",
        "ill"
      ],
      "token": "Ġwill"
    },
    {
      "pair": [
        "Ġout",
        "side"
      ],
      "token": "Ġoutside"
    },
    {
      "pair": [
        "g",
        "ed"
      ],
      "token": "ged"
    },
    {
      "pair": [
        "Ġ",
        "F"
      ],
      "token": "ĠF"
    },
    {
      "pair": [
        "Ġkn",
        "ow"
      ],
      "token": "Ġknow"
    },
    {
      "pair": [
        "Ġs",
        "k"
      ],
      "token": "Ġsk"
    },
    {
      "pair": [
        "Ġp",
        "e"
      ],
      "token": "Ġpe"
    },
    {
      "pair": [
        "Ġwa",
        "ter"
      ],
      "token": "Ġwater"
    },
    {
      "pair": [
        "is",
        "h"
      ],
      "token": "ish"
    },
    {
      "pair": [
        "Ġan",
        "y"
      ],
      "token": "Ġany"
    },
    {
      "pair": [
        "ft",
        "er"
      ],
      "token": "fter"
    },
    {
      "pair": [
        "Ġs",
        "or"
      ],
      "token": "Ġsor"
    },
    {
      "pair": [
        "Ġkne",
        "w"
      ],
      "token": "Ġknew"
    },
    {
      "pair": [
        "Ġp",
        "u"
      ],
      "token": "Ġpu"
    },
    {
      "pair": [
        "Ġt",
        "r"
      ],
      "token": "Ġtr"
    },
    {
      "pair": [
        "Ġt",
        "w"
      ],
      "token": "Ġtw"
    },
    {
      "pair": [
        "Ġh",
        "ow"
      ],
      "token": "Ġhow"
    },
    {
      "pair": [
        "b",
        "b"
      ],
      "token": "bb"
    },
    {
      "pair": [
        "Ġmu",
        "ch"
      ],
      "token": "Ġmuch"
    },
    {
      "pair": [
        "Ġex",
        "pl"
      ],
      "token": "Ġexpl"
    },
    {
      "pair": [
        "B",
        "ut"
      ],
      "token": "But"
    },
    {
      "pair": [
        "Ġs",
        "un"
      ],
      "token": "Ġsun"
    },
    {
      "pair": [
        "Ġr",
        "un"
      ],
      "token": "Ġrun"
    },
    {
      "pair": [
        "Ġint",
        "o"
      ],
      "token": "Ġinto"
    },
    {
      "pair": [
        "a",
        "x"
      ],
      "token": "ax"
    },
    {
      "pair": [
        "a",
        "nd"
      ],
      "token": "and"
    },
    {
      "pair": [
        "Ġne",
        "ver"
      ],
      "token": "Ġnever"
    },
    {
      "pair": [
        "i",
        "ve"
      ],
      "token": "ive"
    },
    {
      "pair": [
        "Ġst",
        "r"
      ],
      "token": "Ġstr"
    },
    {
      "pair": [
        "o",
        "ll"
      ],
      "token": "oll"
    },
    {
      "pair": [
        "o",
        "s"
      ],
      "token": "os"
    },
    {
      "pair": [
        "an",
        "g"
      ],
      "token": "ang"
    },
    {
      "pair": [
        "ĠS",
        "am"
      ],
      "token": "ĠSam"
    },
    {
      "pair": [
        "Ġ",
        "qu"
      ],
      "token": "Ġqu"
    },
    {
      "pair": [
        "Ġro",
        "om"
      ],
      "token": "Ġroom"
    },
    {
      "pair": [
        "Ġ",
        "en"
      ],
      "token": "Ġen"
    },
    {
      "pair": [
        "Ġo",
        "ver"
      ],
      "token": "Ġover"
    },
    {
      "pair": [
        "a",
        "ce"
      ],
      "token": "ace"
    },
    {
      "pair": [
        "Ġpr",
        "oud"
      ],
      "token": "Ġproud"
    },
    {
      "pair": [
        "v",
        "en"
      ],
      "token": "ven"
    },
    {
      "pair": [
        "Ġcould",
        "n"
      ],
      "token": "Ġcouldn"
    },
    {
      "pair": [
        "ĠJ",
        "o"
      ],
      "token": "ĠJo"
    },
    {
      "pair": [
        "a",
        "u"
      ],
      "token": "au"
    },
    {
      "pair": [
        "re",
        "at"
      ],
      "token": "reat"
    },
    {
      "pair": [
        "Ġsh",
        "ow"
      ],
      "token": "Ġshow"
    },
    {
      "pair": [
        "Ġsor",
        "ry"
      ],
      "token": "Ġsorry"
    },
    {
      "pair": [
        "m",
        "a"
      ],
      "token": "ma"
    },
    {
      "pair": [
        "Ġin",
        "side"
      ],
      "token": "Ġinside"
    },
    {
      "pair": [
        "ĠJ",
        "ack"
      ],
      "token": "ĠJack"
    },
    {
      "pair": [
        "ĠS",
        "ara"
      ],
      "token": "ĠSara"
    },
    {
      "pair": [
        "Ġo",
        "p"
      ],
      "token": "Ġop"
    },
    {
      "pair": [
        "Ġ",
        "if"
      ],
      "token": "Ġif"
    },
    {
      "pair": [
        "t",
        "y"
      ],
      "token": "ty"
    },
    {
      "pair": [
        "v",
        "ent"
      ],
      "token": "vent"
    },
    {
      "pair": [
        "Ġsm",
        "all"
      ],
      "token": "Ġsmall"
    },
    {
      "pair": [
        "Ġg",
        "ave"
      ],
      "token": "Ġgave"
    },
    {
      "pair": [
        "Ġh",
        "ouse"
      ],
      "token": "Ġhouse"
    },
    {
      "pair": [
        "Ġj",
        "ust"
      ],
      "token": "Ġjust"
    },
    {
      "pair": [
        "Ġo",
        "r"
      ],
      "token": "Ġor"
    },
    {
      "pair": [
        "Ġth",
        "is"
      ],
      "token": "Ġthis"
    },
    {
      "pair": [
        "Ġha",
        "nd"
      ],
      "token": "Ġhand"
    },
    {
      "pair": [
        "u",
        "c"
      ],
      "token": "uc"
    },
    {
      "pair": [
        "Ġman",
        "y"
      ],
      "token": "Ġmany"
    },
    {
      "pair": [
        "Ġto",
        "ld"
      ],
      "token": "Ġtold"
    },
    {
      "pair": [
        "he",
        "re"
      ],
      "token": "here"
    },
    {
      "pair": [
        "Ġe",
        "ach"
      ],
      "token": "Ġeach"
    },
    {
      "pair": [
        "Ġc",
        "om"
      ],
      "token": "Ġcom"
    },
    {
      "pair": [
        "in",
        "k"
      ],
      "token": "ink"
    },
    {
      "pair": [
        "an",
        "k"
      ],
      "token": "ank"
    },
    {
      "pair": [
        "i",
        "on"
      ],
      "token": "ion"
    },
    {
      "pair": [
        "Ġhe",
        "ard"
      ],
      "token": "Ġheard"
    },
    {
      "pair": [
        "Ġmom",
        "my"
      ],
      "token": "Ġmommy"
    },
    {
      "pair": [
        "v",
        "ing"
      ],
      "token": "ving"
    },
    {
      "pair": [
        "Ġp",
        "ick"
      ],
      "token": "Ġpick"
    },
    {
      "pair": [
        "Ġa",
        "d"
      ],
      "token": "Ġad"
    },
    {
      "pair": [
        "Ġwa",
        "t"
      ],
      "token": "Ġwat"
    },
    {
      "pair": [
        "Ġof",
        "f"
      ],
      "token": "Ġoff"
    },
    {
      "pair": [
        "ot",
        "h"
      ],
      "token": "oth"
    },
    {
      "pair": [
        "a",
        "st"
      ],
      "token": "ast"
    },
    {
      "pair": [
        "oug",
        "h"
      ],
      "token": "ough"
    },
    {
      "pair": [
        "n",
        "ing"
      ],
      "token": "ning"
    },
    {
      "pair": [
        "ĠS",
        "o"
      ],
      "token": "ĠSo"
    },
    {
      "pair": [
        "e",
        "m"
      ],
      "token": "em"
    },
    {
      "pair": [
        "ar",
        "s"
      ],
      "token": "ars"
    },
    {
      "pair": [
        "Ġs",
        "l"
      ],
      "token": "Ġsl"
    },
    {
      "pair": [
        "um",
        "p"
      ],
      "token": "ump"
    },
    {
      "pair": [
        "ad",
        "y"
      ],
      "token": "ady"
    },
    {
      "pair": [
        "Ġn",
        "ice"
      ],
      "token": "Ġnice"
    },
    {
      "pair": [
        "at",
        "e"
      ],
      "token": "ate"
    },
    {
      "pair": [
        "Ġhug",
        "ged"
      ],
      "token": "Ġhugged"
    },
    {
      "pair": [
        "Ġl",
        "ong"
      ],
      "token": "Ġlong"
    },
    {
      "pair": [
        "a",
        "ut"
      ],
      "token": "aut"
    },
    {
      "pair": [
        "au",
        "se"
      ],
      "token": "ause"
    },
    {
      "pair": [
        "et",
        "ter"
      ],
      "token": "etter"
    },
    {
      "pair": [
        "il",
        "d"
      ],
      "token": "ild"
    },
    {
      "pair": [
        "Ġc",
        "all"
      ],
      "token": "Ġcall"
    },
    {
      "pair": [
        "d",
        "y"
      ],
      "token": "dy"
    },
    {
      "pair": [
        "Ġu",
        "nt"
      ],
      "token": "Ġunt"
    },
    {
      "pair": [
        "Ġt",
        "ried"
      ],
      "token": "Ġtried"
    },
    {
      "pair": [
        "Ġe",
        "at"
      ],
      "token": "Ġeat"
    },
    {
      "pair": [
        "Ġplay",
        "ed"
      ],
      "token": "Ġplayed"
    },
    {
      "pair": [
        "ot",
        "her"
      ],
      "token": "other"
    },
    {
      "pair": [
        "Ġfl",
        "ow"
      ],
      "token": "Ġflow"
    },
    {
      "pair": [
        "Ġne",
        "ed"
      ],
      "token": "Ġneed"
    },
    {
      "pair": [
        "Ġunt",
        "il"
      ],
      "token": "Ġuntil"
    },
    {
      "pair": [
        "in",
        "e"
      ],
      "token": "ine"
    },
    {
      "pair": [
        "Ġpre",
        "t"
      ],
      "token": "Ġpret"
    },
    {
      "pair": [
        "Ġw",
        "o"
      ],
      "token": "Ġwo"
    },
    {
      "pair": [
        "h",
        "n"
      ],
      "token": "hn"
    },
    {
      "pair": [
        "ĠA",
        "nna"
      ],
      "token": "ĠAnna"
    },
    {
      "pair": [
        "Ġbo",
        "x"
      ],
      "token": "Ġbox"
    },
    {
      "pair": [
        "Ġbe",
        "aut"
      ],
      "token": "Ġbeaut"
    },
    {
      "pair": [
        "p",
        "t"
      ],
      "token": "pt"
    },
    {
      "pair": [
        "Ġg",
        "ard"
      ],
      "token": "Ġgard"
    },
    {
      "pair": [
        "Ġgard",
        "en"
      ],
      "token": "Ġgarden"
    },
    {
      "pair": [
        "Ġd",
        "re"
      ],
      "token": "Ġdre"
    },
    {
      "pair": [
        "ĠM",
        "ax"
      ],
      "token": "ĠMax"
    },
    {
      "pair": [
        "Ġthan",
        "ked"
      ],
      "token": "Ġthanked"
    },
    {
      "pair": [
        "ĠW",
        "e"
      ],
      "token": "ĠWe"
    },
    {
      "pair": [
        "Ġbec",
        "ause"
      ],
      "token": "Ġbecause"
    },
    {
      "pair": [
        "ĠA",
        "nd"
      ],
      "token": "ĠAnd"
    },
    {
      "pair": [
        "b",
        "er"
      ],
      "token": "ber"
    },
    {
      "pair": [
        "Å",
        "ĵ"
      ],
      "token": "Åĵ"
    },
    {
      "pair": [
        "i",
        "a"
      ],
      "token": "ia"
    },
    {
      "pair": [
        "Ġan",
        "im"
      ],
      "token": "Ġanim"
    },
    {
      "pair": [
        "Ġanim",
        "al"
      ],
      "token": "Ġanimal"
    },
    {
      "pair": [
        "ur",
        "p"
      ],
      "token": "urp"
    },
    {
      "pair": [
        "ab",
        "le"
      ],
      "token": "able"
    },
    {
      "pair": [
        "Ġsk",
        "y"
      ],
      "token": "Ġsky"
    },
    {
      "pair": [
        "Ġj",
        "o"
      ],
      "token": "Ġjo"
    },
    {
      "pair": [
        "Ġbe",
        "ar"
      ],
      "token": "Ġbear"
    },
    {
      "pair": [
        "Ġb",
        "est"
      ],
      "token": "Ġbest"
    },
    {
      "pair": [
        "el",
        "f"
      ],
      "token": "elf"
    },
    {
      "pair": [
        "Ġc",
        "u"
      ],
      "token": "Ġcu"
    },
    {
      "pair": [
        "Ġ",
        "Ã¢"
      ],
      "token": "ĠÃ¢"
    },
    {
      "pair": [
        "v",
        "es"
      ],
      "token": "ves"
    },
    {
      "pair": [
        "i",
        "ful"
      ],
      "token": "iful"
    },
    {
      "pair": [
        "Ġfa",
        "st"
      ],
      "token": "Ġfast"
    },
    {
      "pair": [
        "Ġbeaut",
        "iful"
      ],
      "token": "Ġbeautiful"
    },
    {
      "pair": [
        "i",
        "z"
      ],
      "token": "iz"
    },
    {
      "pair": [
        "g",
        "ry"
      ],
      "token": "gry"
    },
    {
      "pair": [
        "ur",
        "t"
      ],
      "token": "urt"
    },
    {
      "pair": [
        "Ġd",
        "on"
      ],
      "token": "Ġdon"
    },
    {
      "pair": [
        "il",
        "e"
      ],
      "token": "ile"
    },
    {
      "pair": [
        "or",
        "t"
      ],
      "token": "ort"
    },
    {
      "pair": [
        "Ġlot",
        "s"
      ],
      "token": "Ġlots"
    },
    {
      "pair": [
        "Ġt",
        "ry"
      ],
      "token": "Ġtry"
    },
    {
      "pair": [
        "Ġ",
        "end"
      ],
      "token": "Ġend"
    },
    {
      "pair": [
        "Ġcare",
        "ful"
      ],
      "token": "Ġcareful"
    },
    {
      "pair": [
        "a",
        "c"
      ],
      "token": "ac"
    },
    {
      "pair": [
        "Ġb",
        "y"
      ],
      "token": "Ġby"
    },
    {
      "pair": [
        "T",
        "om"
      ],
      "token": "Tom"
    },
    {
      "pair": [
        "Ġt",
        "e"
      ],
      "token": "Ġte"
    },
    {
      "pair": [
        "Ġwa",
        "y"
      ],
      "token": "Ġway"
    },
    {
      "pair": [
        "Ġdo",
        "ll"
      ],
      "token": "Ġdoll"
    },
    {
      "pair": [
        "Ġb",
        "etter"
      ],
      "token": "Ġbetter"
    },
    {
      "pair": [
        "Ġh",
        "ard"
      ],
      "token": "Ġhard"
    },
    {
      "pair": [
        "ec",
        "t"
      ],
      "token": "ect"
    },
    {
      "pair": [
        "uc",
        "y"
      ],
      "token": "ucy"
    },
    {
      "pair": [
        "Ġcl",
        "os"
      ],
      "token": "Ġclos"
    },
    {
      "pair": [
        "Ġg",
        "r"
      ],
      "token": "Ġgr"
    },
    {
      "pair": [
        "Ġlear",
        "ned"
      ],
      "token": "Ġlearned"
    },
    {
      "pair": [
        "in",
        "y"
      ],
      "token": "iny"
    },
    {
      "pair": [
        "Ġe",
        "ven"
      ],
      "token": "Ġeven"
    },
    {
      "pair": [
        "Ġk",
        "ind"
      ],
      "token": "Ġkind"
    },
    {
      "pair": [
        "Ġ",
        "C"
      ],
      "token": "ĠC"
    },
    {
      "pair": [
        "Ġcall",
        "ed"
      ],
      "token": "Ġcalled"
    },
    {
      "pair": [
        "Ġlaug",
        "hed"
      ],
      "token": "Ġlaughed"
    },
    {
      "pair": [
        "Ġj",
        "ump"
      ],
      "token": "Ġjump"
    },
    {
      "pair": [
        "s",
        "ed"
      ],
      "token": "sed"
    },
    {
      "pair": [
        "Ġg",
        "l"
      ],
      "token": "Ġgl"
    },
    {
      "pair": [
        "Ġst",
        "ay"
      ],
      "token": "Ġstay"
    },
    {
      "pair": [
        "M",
        "om"
      ],
      "token": "Mom"
    },
    {
      "pair": [
        "Ġf",
        "am"
      ],
      "token": "Ġfam"
    },
    {
      "pair": [
        "Ġc",
        "le"
      ],
      "token": "Ġcle"
    },
    {
      "pair": [
        "s",
        "elf"
      ],
      "token": "self"
    },
    {
      "pair": [
        "Ġu",
        "nder"
      ],
      "token": "Ġunder"
    },
    {
      "pair": [
        "Ġ",
        "im"
      ],
      "token": "Ġim"
    },
    {
      "pair": [
        "Ġc",
        "ome"
      ],
      "token": "Ġcome"
    },
    {
      "pair": [
        "r",
        "m"
      ],
      "token": "rm"
    },
    {
      "pair": [
        "le",
        "w"
      ],
      "token": "lew"
    },
    {
      "pair": [
        "Ġc",
        "he"
      ],
      "token": "Ġche"
    },
    {
      "pair": [
        "H",
        "e"
      ],
      "token": "He"
    },
    {
      "pair": [
        "Ġtw",
        "o"
      ],
      "token": "Ġtwo"
    },
    {
      "pair": [
        "!",
        "<|"
      ],
      "token": "!<|"
    },
    {
      "pair": [
        "s",
        "h"
      ],
      "token": "sh"
    },
    {
      "pair": [
        "'",
        "m"
      ],
      "token": "'m"
    },
    {
      "pair": [
        "âĤ¬",
        "â"
      ],
      "token": "âĤ¬â"
    },
    {
      "pair": [
        "Ġb",
        "ra"
      ],
      "token": "Ġbra"
    },
    {
      "pair": [
        "Ġad",
        "vent"
      ],
      "token": "Ġadvent"
    },
    {
      "pair": [
        "I",
        "t"
      ],
      "token": "It"
    },
    {
      "pair": [
        "Ġf",
        "i"
      ],
      "token": "Ġfi"
    },
    {
      "pair": [
        "Ġst",
        "ill"
      ],
      "token": "Ġstill"
    },
    {
      "pair": [
        "an",
        "e"
      ],
      "token": "ane"
    },
    {
      "pair": [
        "Ġre",
        "m"
      ],
      "token": "Ġrem"
    },
    {
      "pair": [
        "Ġlo",
        "ve"
      ],
      "token": "Ġlove"
    },
    {
      "pair": [
        "Ġco",
        "l"
      ],
      "token": "Ġcol"
    },
    {
      "pair": [
        "ĠM",
        "ia"
      ],
      "token": "ĠMia"
    },
    {
      "pair": [
        "i",
        "es"
      ],
      "token": "ies"
    },
    {
      "pair": [
        "Ġli",
        "ved"
      ],
      "token": "Ġlived"
    },
    {
      "pair": [
        "is",
        "hed"
      ],
      "token": "ished"
    },
    {
      "pair": [
        "Ġs",
        "n"
      ],
      "token": "Ġsn"
    },
    {
      "pair": [
        "ĠH",
        "is"
      ],
      "token": "ĠHis"
    },
    {
      "pair": [
        "f",
        "ore"
      ],
      "token": "fore"
    },
    {
      "pair": [
        "Ġl",
        "oud"
      ],
      "token": "Ġloud"
    },
    {
      "pair": [
        "Ġfam",
        "ily"
      ],
      "token": "Ġfamily"
    },
    {
      "pair": [
        "o",
        "ck"
      ],
      "token": "ock"
    },
    {
      "pair": [
        "W",
        "hen"
      ],
      "token": "When"
    },
    {
      "pair": [
        "Ġb",
        "oth"
      ],
      "token": "Ġboth"
    },
    {
      "pair": [
        "ar",
        "y"
      ],
      "token": "ary"
    },
    {
      "pair": [
        "Ġanimal",
        "s"
      ],
      "token": "Ġanimals"
    },
    {
      "pair": [
        "Ġh",
        "urt"
      ],
      "token": "Ġhurt"
    },
    {
      "pair": [
        "Ġso",
        "on"
      ],
      "token": "Ġsoon"
    },
    {
      "pair": [
        "ĠThe",
        "n"
      ],
      "token": "ĠThen"
    },
    {
      "pair": [
        "urp",
        "r"
      ],
      "token": "urpr"
    },
    {
      "pair": [
        "Ġs",
        "urpr"
      ],
      "token": "Ġsurpr"
    },
    {
      "pair": [
        "Ġf",
        "ly"
      ],
      "token": "Ġfly"
    },
    {
      "pair": [
        "B",
        "en"
      ],
      "token": "Ben"
    },
    {
      "pair": [
        "Ġexpl",
        "ore"
      ],
      "token": "Ġexplore"
    },
    {
      "pair": [
        "he",
        "s"
      ],
      "token": "hes"
    },
    {
      "pair": [
        "Ġl",
        "ist"
      ],
      "token": "Ġlist"
    },
    {
      "pair": [
        "a",
        "se"
      ],
      "token": "ase"
    },
    {
      "pair": [
        "ig",
        "h"
      ],
      "token": "igh"
    },
    {
      "pair": [
        "Ġl",
        "et"
      ],
      "token": "Ġlet"
    },
    {
      "pair": [
        "Ġst",
        "or"
      ],
      "token": "Ġstor"
    },
    {
      "pair": [
        "Ġf",
        "ar"
      ],
      "token": "Ġfar"
    },
    {
      "pair": [
        "T",
        "h"
      ],
      "token": "Th"
    },
    {
      "pair": [
        "Ġbe",
        "fore"
      ],
      "token": "Ġbefore"
    },
    {
      "pair": [
        "ĠH",
        "er"
      ],
      "token": "ĠHer"
    },
    {
      "pair": [
        "Ġw",
        "ind"
      ],
      "token": "Ġwind"
    },
    {
      "pair": [
        "b",
        "y"
      ],
      "token": "by"
    },
    {
      "pair": [
        "Ġf",
        "in"
      ],
      "token": "Ġfin"
    },
    {
      "pair": [
        "w",
        "n"
      ],
      "token": "wn"
    },
    {
      "pair": [
        "Ġadvent",
        "ure"
      ],
      "token": "Ġadventure"
    },
    {
      "pair": [
        "âĤ¬â",
        "Ħ"
      ],
      "token": "âĤ¬âĦ"
    },
    {
      "pair": [
        "âĤ¬âĦ",
        "¢"
      ],
      "token": "âĤ¬âĦ¢"
    },
    {
      "pair": [
        "i",
        "p"
      ],
      "token": "ip"
    },
    {
      "pair": [
        "ag",
        "e"
      ],
      "token": "age"
    },
    {
      "pair": [
        "Ġit",
        "s"
      ],
      "token": "Ġits"
    },
    {
      "pair": [
        "l",
        "ed"
      ],
      "token": "led"
    },
    {
      "pair": [
        "Ġf",
        "lew"
      ],
      "token": "Ġflew"
    },
    {
      "pair": [
        "Ġke",
        "pt"
      ],
      "token": "Ġkept"
    },
    {
      "pair": [
        "ĠF",
        "rom"
      ],
      "token": "ĠFrom"
    },
    {
      "pair": [
        "Ġfeel",
        "ing"
      ],
      "token": "Ġfeeling"
    },
    {
      "pair": [
        "c",
        "t"
      ],
      "token": "ct"
    },
    {
      "pair": [
        "op",
        "le"
      ],
      "token": "ople"
    },
    {
      "pair": [
        "Y",
        "es"
      ],
      "token": "Yes"
    },
    {
      "pair": [
        "um",
        "my"
      ],
      "token": "ummy"
    },
    {
      "pair": [
        "Ġb",
        "ook"
      ],
      "token": "Ġbook"
    },
    {
      "pair": [
        "Ġwal",
        "ked"
      ],
      "token": "Ġwalked"
    },
    {
      "pair": [
        "le",
        "s"
      ],
      "token": "les"
    },
    {
      "pair": [
        "Ġr",
        "ed"
      ],
      "token": "Ġred"
    },
    {
      "pair": [
        "Ġe",
        "y"
      ],
      "token": "Ġey"
    },
    {
      "pair": [
        "t",
        "hing"
      ],
      "token": "thing"
    },
    {
      "pair": [
        "b",
        "e"
      ],
      "token": "be"
    },
    {
      "pair": [
        "o",
        "on"
      ],
      "token": "oon"
    },
    {
      "pair": [
        "Ġbra",
        "ve"
      ],
      "token": "Ġbrave"
    },
    {
      "pair": [
        "is",
        "ed"
      ],
      "token": "ised"
    },
    {
      "pair": [
        "Ġan",
        "gry"
      ],
      "token": "Ġangry"
    },
    {
      "pair": [
        "Ġn",
        "ow"
      ],
      "token": "Ġnow"
    },
    {
      "pair": [
        "Ġf",
        "r"
      ],
      "token": "Ġfr"
    },
    {
      "pair": [
        "Ġb",
        "ad"
      ],
      "token": "Ġbad"
    },
    {
      "pair": [
        "Ġsh",
        "are"
      ],
      "token": "Ġshare"
    },
    {
      "pair": [
        "Ġsh",
        "iny"
      ],
      "token": "Ġshiny"
    },
    {
      "pair": [
        "ĠW",
        "hen"
      ],
      "token": "ĠWhen"
    },
    {
      "pair": [
        "Ġf",
        "ish"
      ],
      "token": "Ġfish"
    },
    {
      "pair": [
        "Ġpe",
        "ople"
      ],
      "token": "Ġpeople"
    },
    {
      "pair": [
        "e",
        "et"
      ],
      "token": "eet"
    },
    {
      "pair": [
        "Ġb",
        "ed"
      ],
      "token": "Ġbed"
    },
    {
      "pair": [
        "ĠL",
        "ucy"
      ],
      "token": "ĠLucy"
    },
    {
      "pair": [
        "Ġf",
        "ore"
      ],
      "token": "Ġfore"
    },
    {
      "pair": [
        "o",
        "b"
      ],
      "token": "ob"
    },
    {
      "pair": [
        "oo",
        "l"
      ],
      "token": "ool"
    },
    {
      "pair": [
        "Ġsh",
        "ould"
      ],
      "token": "Ġshould"
    },
    {
      "pair": [
        "Ġwo",
        "nder"
      ],
      "token": "Ġwonder"
    },
    {
      "pair": [
        "Ġc",
        "ry"
      ],
      "token": "Ġcry"
    },
    {
      "pair": [
        "Ġg",
        "round"
      ],
      "token": "Ġground"
    },
    {
      "pair": [
        "Ġtr",
        "uck"
      ],
      "token": "Ġtruck"
    },
    {
      "pair": [
        "Ġst",
        "o"
      ],
      "token": "Ġsto"
    },
    {
      "pair": [
        "Ġe",
        "ver"
      ],
      "token": "Ġever"
    },
    {
      "pair": [
        "a",
        "king"
      ],
      "token": "aking"
    },
    {
      "pair": [
        "Ġc",
        "on"
      ],
      "token": "Ġcon"
    },
    {
      "pair": [
        "dd",
        "ed"
      ],
      "token": "dded"
    },
    {
      "pair": [
        "Ġf",
        "o"
      ],
      "token": "Ġfo"
    },
    {
      "pair": [
        "L",
        "et"
      ],
      "token": "Let"
    },
    {
      "pair": [
        "Ġgo",
        "ing"
      ],
      "token": "Ġgoing"
    },
    {
      "pair": [
        "ic",
        "ed"
      ],
      "token": "iced"
    },
    {
      "pair": [
        "oll",
        "y"
      ],
      "token": "olly"
    },
    {
      "pair": [
        "Ġsmil",
        "e"
      ],
      "token": "Ġsmile"
    },
    {
      "pair": [
        "ab",
        "b"
      ],
      "token": "abb"
    },
    {
      "pair": [
        "Ġsa",
        "fe"
      ],
      "token": "Ġsafe"
    },
    {
      "pair": [
        "Ġbo",
        "at"
      ],
      "token": "Ġboat"
    },
    {
      "pair": [
        "abb",
        "it"
      ],
      "token": "abbit"
    },
    {
      "pair": [
        "Ġey",
        "es"
      ],
      "token": "Ġeyes"
    },
    {
      "pair": [
        "Ġw",
        "r"
      ],
      "token": "Ġwr"
    },
    {
      "pair": [
        "Ġro",
        "ck"
      ],
      "token": "Ġrock"
    },
    {
      "pair": [
        "ma",
        "z"
      ],
      "token": "maz"
    },
    {
      "pair": [
        "T",
        "im"
      ],
      "token": "Tim"
    },
    {
      "pair": [
        "Ġop",
        "ened"
      ],
      "token": "Ġopened"
    },
    {
      "pair": [
        "Ġa",
        "maz"
      ],
      "token": "Ġamaz"
    },
    {
      "pair": [
        "Ġd",
        "is"
      ],
      "token": "Ġdis"
    },
    {
      "pair": [
        "Ġth",
        "r"
      ],
      "token": "Ġthr"
    },
    {
      "pair": [
        "Ġrem",
        "em"
      ],
      "token": "Ġremem"
    },
    {
      "pair": [
        "Ġr",
        "abbit"
      ],
      "token": "Ġrabbit"
    },
    {
      "pair": [
        "Ġevery",
        "one"
      ],
      "token": "Ġeveryone"
    },
    {
      "pair": [
        "Ġim",
        "p"
      ],
      "token": "Ġimp"
    },
    {
      "pair": [
        "Ġr",
        "u"
      ],
      "token": "Ġru"
    },
    {
      "pair": [
        "Ġn",
        "ext"
      ],
      "token": "Ġnext"
    },
    {
      "pair": [
        "Ġp",
        "ic"
      ],
      "token": "Ġpic"
    },
    {
      "pair": [
        "o",
        "y"
      ],
      "token": "oy"
    },
    {
      "pair": [
        "Ġbl",
        "ue"
      ],
      "token": "Ġblue"
    },
    {
      "pair": [
        "Ġt",
        "re"
      ],
      "token": "Ġtre"
    },
    {
      "pair": [
        "Ġu",
        "n"
      ],
      "token": "Ġun"
    },
    {
      "pair": [
        "t",
        "ing"
      ],
      "token": "ting"
    },
    {
      "pair": [
        "N",
        "o"
      ],
      "token": "No"
    },
    {
      "pair": [
        "s",
        "o"
      ],
      "token": "so"
    },
    {
      "pair": [
        "ang",
        "e"
      ],
      "token": "ange"
    },
    {
      "pair": [
        "Ġno",
        "ise"
      ],
      "token": "Ġnoise"
    },
    {
      "pair": [
        "Ġstr",
        "ong"
      ],
      "token": "Ġstrong"
    },
    {
      "pair": [
        "i",
        "ous"
      ],
      "token": "ious"
    },
    {
      "pair": [
        "T",
        "hat"
      ],
      "token": "That"
    },
    {
      "pair": [
        "ĠS",
        "uddenly"
      ],
      "token": "ĠSuddenly"
    },
    {
      "pair": [
        "Ġbe",
        "ing"
      ],
      "token": "Ġbeing"
    },
    {
      "pair": [
        "Ġcle",
        "an"
      ],
      "token": "Ġclean"
    },
    {
      "pair": [
        "Ġre",
        "al"
      ],
      "token": "Ġreal"
    },
    {
      "pair": [
        "Ġwor",
        "k"
      ],
      "token": "Ġwork"
    },
    {
      "pair": [
        "ĠD",
        "ad"
      ],
      "token": "ĠDad"
    },
    {
      "pair": [
        "il",
        "ly"
      ],
      "token": "illy"
    },
    {
      "pair": [
        "Ġ",
        "ide"
      ],
      "token": "Ġide"
    },
    {
      "pair": [
        "a",
        "il"
      ],
      "token": "ail"
    },
    {
      "pair": [
        "Ġal",
        "so"
      ],
      "token": "Ġalso"
    },
    {
      "pair": [
        "Ġwal",
        "king"
      ],
      "token": "Ġwalking"
    },
    {
      "pair": [
        "Ġsto",
        "pped"
      ],
      "token": "Ġstopped"
    },
    {
      "pair": [
        "g",
        "an"
      ],
      "token": "gan"
    },
    {
      "pair": [
        "ĠS",
        "p"
      ],
      "token": "ĠSp"
    },
    {
      "pair": [
        "Ġnot",
        "iced"
      ],
      "token": "Ġnoticed"
    },
    {
      "pair": [
        "Ġd",
        "if"
      ],
      "token": "Ġdif"
    },
    {
      "pair": [
        "Ġpret",
        "ty"
      ],
      "token": "Ġpretty"
    },
    {
      "pair": [
        "u",
        "ch"
      ],
      "token": "uch"
    },
    {
      "pair": [
        "Ġt",
        "ur"
      ],
      "token": "Ġtur"
    },
    {
      "pair": [
        "ra",
        "w"
      ],
      "token": "raw"
    },
    {
      "pair": [
        "im",
        "b"
      ],
      "token": "imb"
    },
    {
      "pair": [
        "Ġremem",
        "ber"
      ],
      "token": "Ġremember"
    },
    {
      "pair": [
        "Ġg",
        "re"
      ],
      "token": "Ġgre"
    },
    {
      "pair": [
        "Ġ",
        "G"
      ],
      "token": "ĠG"
    },
    {
      "pair": [
        "Ġpl",
        "ace"
      ],
      "token": "Ġplace"
    },
    {
      "pair": [
        "Ġqu",
        "ick"
      ],
      "token": "Ġquick"
    },
    {
      "pair": [
        "le",
        "ep"
      ],
      "token": "leep"
    },
    {
      "pair": [
        "Ġcl",
        "imb"
      ],
      "token": "Ġclimb"
    },
    {
      "pair": [
        "Ġy",
        "e"
      ],
      "token": "Ġye"
    },
    {
      "pair": [
        "Ġc",
        "r"
      ],
      "token": "Ġcr"
    },
    {
      "pair": [
        "Ġno",
        "dded"
      ],
      "token": "Ġnodded"
    },
    {
      "pair": [
        "Ġdo",
        "or"
      ],
      "token": "Ġdoor"
    },
    {
      "pair": [
        "Ġide",
        "a"
      ],
      "token": "Ġidea"
    },
    {
      "pair": [
        "Ġp",
        "ain"
      ],
      "token": "Ġpain"
    },
    {
      "pair": [
        "j",
        "oy"
      ],
      "token": "joy"
    },
    {
      "pair": [
        "S",
        "uddenly"
      ],
      "token": "Suddenly"
    },
    {
      "pair": [
        "Ġcol",
        "or"
      ],
      "token": "Ġcolor"
    },
    {
      "pair": [
        "Ġbe",
        "en"
      ],
      "token": "Ġbeen"
    },
    {
      "pair": [
        "Ġwh",
        "ile"
      ],
      "token": "Ġwhile"
    },
    {
      "pair": [
        "Ġd",
        "el"
      ],
      "token": "Ġdel"
    },
    {
      "pair": [
        "Ġne",
        "ar"
      ],
      "token": "Ġnear"
    },
    {
      "pair": [
        "Ġpick",
        "ed"
      ],
      "token": "Ġpicked"
    },
    {
      "pair": [
        "a",
        "ug"
      ],
      "token": "aug"
    },
    {
      "pair": [
        "aug",
        "ht"
      ],
      "token": "aught"
    },
    {
      "pair": [
        "Ġcu",
        "ri"
      ],
      "token": "Ġcuri"
    },
    {
      "pair": [
        "Ġa",
        "fter"
      ],
      "token": "Ġafter"
    },
    {
      "pair": [
        "S",
        "o"
      ],
      "token": "So"
    },
    {
      "pair": [
        "Ġ",
        "P"
      ],
      "token": "ĠP"
    },
    {
      "pair": [
        "g",
        "e"
      ],
      "token": "ge"
    },
    {
      "pair": [
        "t",
        "ure"
      ],
      "token": "ture"
    },
    {
      "pair": [
        "Ġm",
        "or"
      ],
      "token": "Ġmor"
    },
    {
      "pair": [
        "is",
        "y"
      ],
      "token": "isy"
    },
    {
      "pair": [
        "Ġha",
        "s"
      ],
      "token": "Ġhas"
    },
    {
      "pair": [
        "Ġke",
        "ep"
      ],
      "token": "Ġkeep"
    },
    {
      "pair": [
        "b",
        "le"
      ],
      "token": "ble"
    },
    {
      "pair": [
        "Ġv",
        "o"
      ],
      "token": "Ġvo"
    },
    {
      "pair": [
        "ĠJo",
        "hn"
      ],
      "token": "ĠJohn"
    },
    {
      "pair": [
        "Ġwa",
        "it"
      ],
      "token": "Ġwait"
    },
    {
      "pair": [
        "Ġdre",
        "ss"
      ],
      "token": "Ġdress"
    },
    {
      "pair": [
        "Ġbr",
        "ight"
      ],
      "token": "Ġbright"
    },
    {
      "pair": [
        "Ġquick",
        "ly"
      ],
      "token": "Ġquickly"
    },
    {
      "pair": [
        "Ġg",
        "reat"
      ],
      "token": "Ġgreat"
    },
    {
      "pair": [
        "Ġg",
        "ive"
      ],
      "token": "Ġgive"
    },
    {
      "pair": [
        "k",
        "ay"
      ],
      "token": "kay"
    },
    {
      "pair": [
        "i",
        "ed"
      ],
      "token": "ied"
    },
    {
      "pair": [
        "n",
        "g"
      ],
      "token": "ng"
    },
    {
      "pair": [
        "S",
        "ara"
      ],
      "token": "Sara"
    },
    {
      "pair": [
        "Ġen",
        "joy"
      ],
      "token": "Ġenjoy"
    },
    {
      "pair": [
        "Ġth",
        "ink"
      ],
      "token": "Ġthink"
    },
    {
      "pair": [
        "Ġcuri",
        "ous"
      ],
      "token": "Ġcurious"
    },
    {
      "pair": [
        "Ġwat",
        "ch"
      ],
      "token": "Ġwatch"
    },
    {
      "pair": [
        "oll",
        "ow"
      ],
      "token": "ollow"
    },
    {
      "pair": [
        "Ġs",
        "qu"
      ],
      "token": "Ġsqu"
    },
    {
      "pair": [
        "Ġh",
        "op"
      ],
      "token": "Ġhop"
    },
    {
      "pair": [
        "Ġch",
        "ild"
      ],
      "token": "Ġchild"
    },
    {
      "pair": [
        "Ġclos",
        "er"
      ],
      "token": "Ġcloser"
    },
    {
      "pair": [
        "Ġa",
        "pp"
      ],
      "token": "Ġapp"
    },
    {
      "pair": [
        "il",
        "a"
      ],
      "token": "ila"
    },
    {
      "pair": [
        "Ġhand",
        "s"
      ],
      "token": "Ġhands"
    },
    {
      "pair": [
        "Ġg",
        "i"
      ],
      "token": "Ġgi"
    },
    {
      "pair": [
        "ir",
        "ed"
      ],
      "token": "ired"
    },
    {
      "pair": [
        "ak",
        "es"
      ],
      "token": "akes"
    },
    {
      "pair": [
        "bb",
        "ed"
      ],
      "token": "bbed"
    },
    {
      "pair": [
        "Ġhe",
        "ad"
      ],
      "token": "Ġhead"
    },
    {
      "pair": [
        "Ġloo",
        "king"
      ],
      "token": "Ġlooking"
    },
    {
      "pair": [
        "Ġfa",
        "ce"
      ],
      "token": "Ġface"
    },
    {
      "pair": [
        "Ġfore",
        "st"
      ],
      "token": "Ġforest"
    },
    {
      "pair": [
        "t",
        "ed"
      ],
      "token": "ted"
    },
    {
      "pair": [
        "Ġwal",
        "k"
      ],
      "token": "Ġwalk"
    },
    {
      "pair": [
        "ĠSp",
        "ot"
      ],
      "token": "ĠSpot"
    },
    {
      "pair": [
        "Ġa",
        "r"
      ],
      "token": "Ġar"
    },
    {
      "pair": [
        "J",
        "o"
      ],
      "token": "Jo"
    },
    {
      "pair": [
        "Ġf",
        "ollow"
      ],
      "token": "Ġfollow"
    },
    {
      "pair": [
        "Ġm",
        "ag"
      ],
      "token": "Ġmag"
    },
    {
      "pair": [
        "fe",
        "re"
      ],
      "token": "fere"
    },
    {
      "pair": [
        "ir",
        "st"
      ],
      "token": "irst"
    },
    {
      "pair": [
        "Ġw",
        "here"
      ],
      "token": "Ġwhere"
    },
    {
      "pair": [
        "Ġdif",
        "fere"
      ],
      "token": "Ġdiffere"
    },
    {
      "pair": [
        "f",
        "f"
      ],
      "token": "ff"
    },
    {
      "pair": [
        "Ġd",
        "e"
      ],
      "token": "Ġde"
    },
    {
      "pair": [
        "Ġth",
        "ree"
      ],
      "token": "Ġthree"
    },
    {
      "pair": [
        "Ġle",
        "a"
      ],
      "token": "Ġlea"
    },
    {
      "pair": [
        "d",
        "ay"
      ],
      "token": "day"
    },
    {
      "pair": [
        "Ġn",
        "ight"
      ],
      "token": "Ġnight"
    },
    {
      "pair": [
        "Ġl",
        "ady"
      ],
      "token": "Ġlady"
    },
    {
      "pair": [
        "ay",
        "be"
      ],
      "token": "aybe"
    },
    {
      "pair": [
        "ou",
        "nt"
      ],
      "token": "ount"
    },
    {
      "pair": [
        "Ġwat",
        "ched"
      ],
      "token": "Ġwatched"
    },
    {
      "pair": [
        "Ġ",
        "N"
      ],
      "token": "ĠN"
    },
    {
      "pair": [
        "Ġwa",
        "rm"
      ],
      "token": "Ġwarm"
    },
    {
      "pair": [
        "by",
        "e"
      ],
      "token": "bye"
    },
    {
      "pair": [
        "t",
        "h"
      ],
      "token": "th"
    },
    {
      "pair": [
        "Ġdiffere",
        "nt"
      ],
      "token": "Ġdifferent"
    },
    {
      "pair": [
        "a",
        "isy"
      ],
      "token": "aisy"
    },
    {
      "pair": [
        "Ġy",
        "ell"
      ],
      "token": "Ġyell"
    },
    {
      "pair": [
        "Ġpic",
        "ture"
      ],
      "token": "Ġpicture"
    },
    {
      "pair": [
        "Ġs",
        "ound"
      ],
      "token": "Ġsound"
    },
    {
      "pair": [
        "Ġflow",
        "ers"
      ],
      "token": "Ġflowers"
    },
    {
      "pair": [
        "Ġb",
        "ro"
      ],
      "token": "Ġbro"
    },
    {
      "pair": [
        "at",
        "h"
      ],
      "token": "ath"
    },
    {
      "pair": [
        "Ġb",
        "it"
      ],
      "token": "Ġbit"
    },
    {
      "pair": [
        "Ġt",
        "ra"
      ],
      "token": "Ġtra"
    },
    {
      "pair": [
        "ĠEvery",
        "one"
      ],
      "token": "ĠEveryone"
    },
    {
      "pair": [
        "Ġsh",
        "out"
      ],
      "token": "Ġshout"
    },
    {
      "pair": [
        "Ġb",
        "ug"
      ],
      "token": "Ġbug"
    },
    {
      "pair": [
        "S",
        "he"
      ],
      "token": "She"
    },
    {
      "pair": [
        "a",
        "ched"
      ],
      "token": "ached"
    },
    {
      "pair": [
        "Ġse",
        "en"
      ],
      "token": "Ġseen"
    },
    {
      "pair": [
        "Ġhapp",
        "ened"
      ],
      "token": "Ġhappened"
    },
    {
      "pair": [
        "Ġme",
        "an"
      ],
      "token": "Ġmean"
    },
    {
      "pair": [
        "Ġlist",
        "en"
      ],
      "token": "Ġlisten"
    },
    {
      "pair": [
        "Ġt",
        "ell"
      ],
      "token": "Ġtell"
    },
    {
      "pair": [
        "Ġgood",
        "bye"
      ],
      "token": "Ġgoodbye"
    },
    {
      "pair": [
        "ĠSara",
        "h"
      ],
      "token": "ĠSarah"
    },
    {
      "pair": [
        "ll",
        "y"
      ],
      "token": "lly"
    },
    {
      "pair": [
        "Ġpu",
        "ll"
      ],
      "token": "Ġpull"
    },
    {
      "pair": [
        "Ġbe",
        "gan"
      ],
      "token": "Ġbegan"
    },
    {
      "pair": [
        "l",
        "ie"
      ],
      "token": "lie"
    },
    {
      "pair": [
        "Ġa",
        "c"
      ],
      "token": "Ġac"
    },
    {
      "pair": [
        "Ġ",
        "R"
      ],
      "token": "ĠR"
    },
    {
      "pair": [
        "Ġwor",
        "ld"
      ],
      "token": "Ġworld"
    },
    {
      "pair": [
        "Ġp",
        "er"
      ],
      "token": "Ġper"
    },
    {
      "pair": [
        "Ġto",
        "w"
      ],
      "token": "Ġtow"
    },
    {
      "pair": [
        "Ġf",
        "ood"
      ],
      "token": "Ġfood"
    },
    {
      "pair": [
        "ĠJo",
        "e"
      ],
      "token": "ĠJoe"
    },
    {
      "pair": [
        "ĠJ",
        "ane"
      ],
      "token": "ĠJane"
    },
    {
      "pair": [
        "el",
        "y"
      ],
      "token": "ely"
    },
    {
      "pair": [
        "ĠB",
        "ob"
      ],
      "token": "ĠBob"
    },
    {
      "pair": [
        "Ġm",
        "ouse"
      ],
      "token": "Ġmouse"
    },
    {
      "pair": [
        "W",
        "hat"
      ],
      "token": "What"
    },
    {
      "pair": [
        "er",
        "ed"
      ],
      "token": "ered"
    },
    {
      "pair": [
        "Ġflow",
        "er"
      ],
      "token": "Ġflower"
    },
    {
      "pair": [
        "Ġg",
        "ame"
      ],
      "token": "Ġgame"
    },
    {
      "pair": [
        "Ġt",
        "ired"
      ],
      "token": "Ġtired"
    },
    {
      "pair": [
        "Ġu",
        "s"
      ],
      "token": "Ġus"
    },
    {
      "pair": [
        "Ġmag",
        "ic"
      ],
      "token": "Ġmagic"
    },
    {
      "pair": [
        "Ġst",
        "ick"
      ],
      "token": "Ġstick"
    },
    {
      "pair": [
        "k",
        "es"
      ],
      "token": "kes"
    },
    {
      "pair": [
        "nt",
        "s"
      ],
      "token": "nts"
    },
    {
      "pair": [
        "Th",
        "ank"
      ],
      "token": "Thank"
    },
    {
      "pair": [
        "an",
        "c"
      ],
      "token": "anc"
    },
    {
      "pair": [
        "Ġho",
        "le"
      ],
      "token": "Ġhole"
    },
    {
      "pair": [
        "Ġr",
        "ain"
      ],
      "token": "Ġrain"
    },
    {
      "pair": [
        "Ġo",
        "wn"
      ],
      "token": "Ġown"
    },
    {
      "pair": [
        "it",
        "c"
      ],
      "token": "itc"
    },
    {
      "pair": [
        "Ġvo",
        "ice"
      ],
      "token": "Ġvoice"
    },
    {
      "pair": [
        "u",
        "ll"
      ],
      "token": "ull"
    },
    {
      "pair": [
        "Ġd",
        "ark"
      ],
      "token": "Ġdark"
    },
    {
      "pair": [
        "st",
        "er"
      ],
      "token": "ster"
    },
    {
      "pair": [
        "Ġu",
        "se"
      ],
      "token": "Ġuse"
    },
    {
      "pair": [
        "Ġbec",
        "ame"
      ],
      "token": "Ġbecame"
    },
    {
      "pair": [
        "Ġsw",
        "eet"
      ],
      "token": "Ġsweet"
    },
    {
      "pair": [
        "iz",
        "ed"
      ],
      "token": "ized"
    },
    {
      "pair": [
        "ĠMom",
        "my"
      ],
      "token": "ĠMommy"
    },
    {
      "pair": [
        "Ġ",
        "-"
      ],
      "token": "Ġ-"
    },
    {
      "pair": [
        "pp",
        "y"
      ],
      "token": "ppy"
    },
    {
      "pair": [
        "Ġany",
        "m"
      ],
      "token": "Ġanym"
    },
    {
      "pair": [
        "Ġanym",
        "ore"
      ],
      "token": "Ġanymore"
    },
    {
      "pair": [
        "Ġh",
        "igh"
      ],
      "token": "Ġhigh"
    },
    {
      "pair": [
        "ĠA",
        "s"
      ],
      "token": "ĠAs"
    },
    {
      "pair": [
        "Ġgra",
        "ss"
      ],
      "token": "Ġgrass"
    },
    {
      "pair": [
        "Ġthr",
        "ough"
      ],
      "token": "Ġthrough"
    },
    {
      "pair": [
        "ĠS",
        "ue"
      ],
      "token": "ĠSue"
    },
    {
      "pair": [
        "Ġt",
        "al"
      ],
      "token": "Ġtal"
    },
    {
      "pair": [
        "re",
        "am"
      ],
      "token": "ream"
    },
    {
      "pair": [
        "Ġm",
        "um"
      ],
      "token": "Ġmum"
    },
    {
      "pair": [
        "im",
        "es"
      ],
      "token": "imes"
    },
    {
      "pair": [
        "Ġs",
        "leep"
      ],
      "token": "Ġsleep"
    },
    {
      "pair": [
        "le",
        "ase"
      ],
      "token": "lease"
    },
    {
      "pair": [
        "w",
        "here"
      ],
      "token": "where"
    },
    {
      "pair": [
        "Ġk",
        "id"
      ],
      "token": "Ġkid"
    },
    {
      "pair": [
        "Ġbr",
        "other"
      ],
      "token": "Ġbrother"
    },
    {
      "pair": [
        "Ġr",
        "ight"
      ],
      "token": "Ġright"
    },
    {
      "pair": [
        "Ġshow",
        "ed"
      ],
      "token": "Ġshowed"
    },
    {
      "pair": [
        "Ġm",
        "ess"
      ],
      "token": "Ġmess"
    },
    {
      "pair": [
        "Ġst",
        "ore"
      ],
      "token": "Ġstore"
    },
    {
      "pair": [
        "are",
        "nts"
      ],
      "token": "arents"
    },
    {
      "pair": [
        "Ġn",
        "ame"
      ],
      "token": "Ġname"
    },
    {
      "pair": [
        "ĠD",
        "aisy"
      ],
      "token": "ĠDaisy"
    },
    {
      "pair": [
        "Ġgre",
        "en"
      ],
      "token": "Ġgreen"
    },
    {
      "pair": [
        "Ġjump",
        "ed"
      ],
      "token": "Ġjumped"
    },
    {
      "pair": [
        "Ġfl",
        "o"
      ],
      "token": "Ġflo"
    },
    {
      "pair": [
        "is",
        "s"
      ],
      "token": "iss"
    },
    {
      "pair": [
        "Ġre",
        "pl"
      ],
      "token": "Ġrepl"
    },
    {
      "pair": [
        "o",
        "l"
      ],
      "token": "ol"
    },
    {
      "pair": [
        "Ġp",
        "arents"
      ],
      "token": "Ġparents"
    },
    {
      "pair": [
        "A",
        "nna"
      ],
      "token": "Anna"
    },
    {
      "pair": [
        "as",
        "h"
      ],
      "token": "ash"
    },
    {
      "pair": [
        "Ġf",
        "irst"
      ],
      "token": "Ġfirst"
    },
    {
      "pair": [
        "Ġimp",
        "ort"
      ],
      "token": "Ġimport"
    },
    {
      "pair": [
        "u",
        "s"
      ],
      "token": "us"
    },
    {
      "pair": [
        "Ġf",
        "ill"
      ],
      "token": "Ġfill"
    },
    {
      "pair": [
        "Ġs",
        "ure"
      ],
      "token": "Ġsure"
    },
    {
      "pair": [
        "Ġgl",
        "ad"
      ],
      "token": "Ġglad"
    },
    {
      "pair": [
        "Ġho",
        "pped"
      ],
      "token": "Ġhopped"
    },
    {
      "pair": [
        "Ġre",
        "ached"
      ],
      "token": "Ġreached"
    },
    {
      "pair": [
        "Ġdo",
        "es"
      ],
      "token": "Ġdoes"
    },
    {
      "pair": [
        "o",
        "se"
      ],
      "token": "ose"
    },
    {
      "pair": [
        "Ġrun",
        "ning"
      ],
      "token": "Ġrunning"
    },
    {
      "pair": [
        "Ġimport",
        "ant"
      ],
      "token": "Ġimportant"
    },
    {
      "pair": [
        "Ġre",
        "ady"
      ],
      "token": "Ġready"
    },
    {
      "pair": [
        "Ġsa",
        "nd"
      ],
      "token": "Ġsand"
    },
    {
      "pair": [
        "Ġon",
        "ly"
      ],
      "token": "Ġonly"
    },
    {
      "pair": [
        "Jo",
        "hn"
      ],
      "token": "John"
    },
    {
      "pair": [
        "Ġop",
        "en"
      ],
      "token": "Ġopen"
    },
    {
      "pair": [
        "Ġa",
        "m"
      ],
      "token": "Ġam"
    },
    {
      "pair": [
        "Ġre",
        "ally"
      ],
      "token": "Ġreally"
    },
    {
      "pair": [
        "Ġgra",
        "bbed"
      ],
      "token": "Ġgrabbed"
    },
    {
      "pair": [
        "Ġbl",
        "ock"
      ],
      "token": "Ġblock"
    },
    {
      "pair": [
        "Ġhe",
        "re"
      ],
      "token": "Ġhere"
    },
    {
      "pair": [
        "as",
        "s"
      ],
      "token": "ass"
    },
    {
      "pair": [
        "Ġwh",
        "y"
      ],
      "token": "Ġwhy"
    },
    {
      "pair": [
        "Ġhelp",
        "ed"
      ],
      "token": "Ġhelped"
    },
    {
      "pair": [
        "i",
        "ent"
      ],
      "token": "ient"
    },
    {
      "pair": [
        "Ġl",
        "ess"
      ],
      "token": "Ġless"
    },
    {
      "pair": [
        "Ġsa",
        "il"
      ],
      "token": "Ġsail"
    },
    {
      "pair": [
        "Ġha",
        "ving"
      ],
      "token": "Ġhaving"
    },
    {
      "pair": [
        "H",
        "er"
      ],
      "token": "Her"
    },
    {
      "pair": [
        "Ġw",
        "ood"
      ],
      "token": "Ġwood"
    },
    {
      "pair": [
        "Ġunder",
        "st"
      ],
      "token": "Ġunderst"
    },
    {
      "pair": [
        "Ġd",
        "ro"
      ],
      "token": "Ġdro"
    },
    {
      "pair": [
        "Ġwonder",
        "ful"
      ],
      "token": "Ġwonderful"
    },
    {
      "pair": [
        "Ġsm",
        "ell"
      ],
      "token": "Ġsmell"
    },
    {
      "pair": [
        "Ġcon",
        "t"
      ],
      "token": "Ġcont"
    },
    {
      "pair": [
        "Ġbe",
        "h"
      ],
      "token": "Ġbeh"
    },
    {
      "pair": [
        "Ġst",
        "e"
      ],
      "token": "Ġste"
    },
    {
      "pair": [
        "Ġlear",
        "n"
      ],
      "token": "Ġlearn"
    },
    {
      "pair": [
        "ro",
        "om"
      ],
      "token": "room"
    },
    {
      "pair": [
        "Ġat",
        "e"
      ],
      "token": "Ġate"
    },
    {
      "pair": [
        "Ġo",
        "kay"
      ],
      "token": "Ġokay"
    },
    {
      "pair": [
        "re",
        "n"
      ],
      "token": "ren"
    },
    {
      "pair": [
        "Ġfe",
        "ll"
      ],
      "token": "Ġfell"
    },
    {
      "pair": [
        "Ġsl",
        "ide"
      ],
      "token": "Ġslide"
    },
    {
      "pair": [
        "Ġbird",
        "s"
      ],
      "token": "Ġbirds"
    },
    {
      "pair": [
        "Ġrepl",
        "ied"
      ],
      "token": "Ġreplied"
    },
    {
      "pair": [
        "n",
        "er"
      ],
      "token": "ner"
    },
    {
      "pair": [
        "Ġsurpr",
        "ise"
      ],
      "token": "Ġsurprise"
    },
    {
      "pair": [
        "Ġse",
        "es"
      ],
      "token": "Ġsees"
    },
    {
      "pair": [
        "Ġth",
        "ing"
      ],
      "token": "Ġthing"
    },
    {
      "pair": [
        "Ġshout",
        "ed"
      ],
      "token": "Ġshouted"
    },
    {
      "pair": [
        "Ġye",
        "ars"
      ],
      "token": "Ġyears"
    },
    {
      "pair": [
        "Ġas",
        "k"
      ],
      "token": "Ġask"
    },
    {
      "pair": [
        "Ġchild",
        "ren"
      ],
      "token": "Ġchildren"
    },
    {
      "pair": [
        "Ġco",
        "ld"
      ],
      "token": "Ġcold"
    },
    {
      "pair": [
        "Ġkid",
        "s"
      ],
      "token": "Ġkids"
    },
    {
      "pair": [
        "Ġfar",
        "m"
      ],
      "token": "Ġfarm"
    },
    {
      "pair": [
        "Ġbut",
        "ter"
      ],
      "token": "Ġbutter"
    },
    {
      "pair": [
        "A",
        "fter"
      ],
      "token": "After"
    },
    {
      "pair": [
        "Ġfa",
        "v"
      ],
      "token": "Ġfav"
    },
    {
      "pair": [
        "Ġstor",
        "y"
      ],
      "token": "Ġstory"
    },
    {
      "pair": [
        "Ġw",
        "ished"
      ],
      "token": "Ġwished"
    },
    {
      "pair": [
        "Ġk",
        "itc"
      ],
      "token": "Ġkitc"
    },
    {
      "pair": [
        "Ġkitc",
        "hen"
      ],
      "token": "Ġkitchen"
    },
    {
      "pair": [
        "Ġt",
        "ast"
      ],
      "token": "Ġtast"
    },
    {
      "pair": [
        "z",
        "y"
      ],
      "token": "zy"
    },
    {
      "pair": [
        "Ġl",
        "ight"
      ],
      "token": "Ġlight"
    },
    {
      "pair": [
        "Ġd",
        "one"
      ],
      "token": "Ġdone"
    },
    {
      "pair": [
        "Ġwa",
        "ved"
      ],
      "token": "Ġwaved"
    },
    {
      "pair": [
        "Ġ",
        "z"
      ],
      "token": "Ġz"
    },
    {
      "pair": [
        "Ġpr",
        "in"
      ],
      "token": "Ġprin"
    },
    {
      "pair": [
        "Ġper",
        "f"
      ],
      "token": "Ġperf"
    },
    {
      "pair": [
        "Ġf",
        "ro"
      ],
      "token": "Ġfro"
    },
    {
      "pair": [
        "Ġfi",
        "re"
      ],
      "token": "Ġfire"
    },
    {
      "pair": [
        "Ġcom",
        "ing"
      ],
      "token": "Ġcoming"
    },
    {
      "pair": [
        "ig",
        "n"
      ],
      "token": "ign"
    },
    {
      "pair": [
        "fu",
        "lly"
      ],
      "token": "fully"
    },
    {
      "pair": [
        "ĠT",
        "h"
      ],
      "token": "ĠTh"
    },
    {
      "pair": [
        "W",
        "e"
      ],
      "token": "We"
    },
    {
      "pair": [
        "ĠM",
        "olly"
      ],
      "token": "ĠMolly"
    },
    {
      "pair": [
        "Ġyell",
        "ow"
      ],
      "token": "Ġyellow"
    },
    {
      "pair": [
        "Ġ",
        "our"
      ],
      "token": "Ġour"
    },
    {
      "pair": [
        "Ġd",
        "in"
      ],
      "token": "Ġdin"
    },
    {
      "pair": [
        "ĠT",
        "hat"
      ],
      "token": "ĠThat"
    },
    {
      "pair": [
        "L",
        "ook"
      ],
      "token": "Look"
    },
    {
      "pair": [
        "Ġst",
        "op"
      ],
      "token": "Ġstop"
    },
    {
      "pair": [
        "Ġsl",
        "ow"
      ],
      "token": "Ġslow"
    },
    {
      "pair": [
        "Ġm",
        "on"
      ],
      "token": "Ġmon"
    },
    {
      "pair": [
        "Ġh",
        "or"
      ],
      "token": "Ġhor"
    },
    {
      "pair": [
        "Ġfi",
        "x"
      ],
      "token": "Ġfix"
    },
    {
      "pair": [
        "Ġt",
        "all"
      ],
      "token": "Ġtall"
    },
    {
      "pair": [
        "Ġhim",
        "self"
      ],
      "token": "Ġhimself"
    },
    {
      "pair": [
        "at",
        "her"
      ],
      "token": "ather"
    },
    {
      "pair": [
        "ĠL",
        "ila"
      ],
      "token": "ĠLila"
    },
    {
      "pair": [
        "Ġfor",
        "g"
      ],
      "token": "Ġforg"
    },
    {
      "pair": [
        "Ġto",
        "p"
      ],
      "token": "Ġtop"
    },
    {
      "pair": [
        "Ġcar",
        "s"
      ],
      "token": "Ġcars"
    },
    {
      "pair": [
        "Ġthan",
        "k"
      ],
      "token": "Ġthank"
    },
    {
      "pair": [
        "ck",
        "et"
      ],
      "token": "cket"
    },
    {
      "pair": [
        "Ġlea",
        "ves"
      ],
      "token": "Ġleaves"
    },
    {
      "pair": [
        "Ġpret",
        "end"
      ],
      "token": "Ġpretend"
    },
    {
      "pair": [
        "Ġt",
        "ri"
      ],
      "token": "Ġtri"
    },
    {
      "pair": [
        "ĠI",
        "n"
      ],
      "token": "ĠIn"
    },
    {
      "pair": [
        "ard",
        "s"
      ],
      "token": "ards"
    },
    {
      "pair": [
        "Ġdel",
        "ic"
      ],
      "token": "Ġdelic"
    },
    {
      "pair": [
        "Ġremember",
        "ed"
      ],
      "token": "Ġremembered"
    },
    {
      "pair": [
        "Ġtre",
        "es"
      ],
      "token": "Ġtrees"
    },
    {
      "pair": [
        "Ġs",
        "ing"
      ],
      "token": "Ġsing"
    },
    {
      "pair": [
        "Ġmor",
        "ning"
      ],
      "token": "Ġmorning"
    },
    {
      "pair": [
        "ĠL",
        "et"
      ],
      "token": "ĠLet"
    },
    {
      "pair": [
        "Ġr",
        "i"
      ],
      "token": "Ġri"
    },
    {
      "pair": [
        "Ġsp",
        "ot"
      ],
      "token": "Ġspot"
    },
    {
      "pair": [
        "Ġc",
        "ook"
      ],
      "token": "Ġcook"
    },
    {
      "pair": [
        "Ġm",
        "aking"
      ],
      "token": "Ġmaking"
    },
    {
      "pair": [
        "Ġso",
        "ft"
      ],
      "token": "Ġsoft"
    },
    {
      "pair": [
        "ĠThe",
        "re"
      ],
      "token": "ĠThere"
    },
    {
      "pair": [
        "Ġenjoy",
        "ed"
      ],
      "token": "Ġenjoyed"
    },
    {
      "pair": [
        "Ġsh",
        "o"
      ],
      "token": "Ġsho"
    },
    {
      "pair": [
        "Ġli",
        "kes"
      ],
      "token": "Ġlikes"
    },
    {
      "pair": [
        "ĠA",
        "fter"
      ],
      "token": "ĠAfter"
    },
    {
      "pair": [
        "Ġcat",
        "ch"
      ],
      "token": "Ġcatch"
    },
    {
      "pair": [
        "an",
        "ce"
      ],
      "token": "ance"
    },
    {
      "pair": [
        "ap",
        "e"
      ],
      "token": "ape"
    },
    {
      "pair": [
        "Ġfill",
        "ed"
      ],
      "token": "Ġfilled"
    },
    {
      "pair": [
        "Ġball",
        "oon"
      ],
      "token": "Ġballoon"
    },
    {
      "pair": [
        "J",
        "ack"
      ],
      "token": "Jack"
    },
    {
      "pair": [
        "nd",
        "ma"
      ],
      "token": "ndma"
    },
    {
      "pair": [
        "Ġsp",
        "l"
      ],
      "token": "Ġspl"
    },
    {
      "pair": [
        "S",
        "am"
      ],
      "token": "Sam"
    },
    {
      "pair": [
        "Ġamaz",
        "ing"
      ],
      "token": "Ġamazing"
    },
    {
      "pair": [
        "Ġless",
        "on"
      ],
      "token": "Ġlesson"
    },
    {
      "pair": [
        "e",
        "e"
      ],
      "token": "ee"
    },
    {
      "pair": [
        "Ġd",
        "ri"
      ],
      "token": "Ġdri"
    },
    {
      "pair": [
        "Ġh",
        "at"
      ],
      "token": "Ġhat"
    },
    {
      "pair": [
        "u",
        "ff"
      ],
      "token": "uff"
    },
    {
      "pair": [
        "Ġany",
        "thing"
      ],
      "token": "Ġanything"
    },
    {
      "pair": [
        "Ġbeh",
        "ind"
      ],
      "token": "Ġbehind"
    },
    {
      "pair": [
        "Ġfro",
        "g"
      ],
      "token": "Ġfrog"
    },
    {
      "pair": [
        "Ġmo",
        "ve"
      ],
      "token": "Ġmove"
    },
    {
      "pair": [
        "Ġd",
        "raw"
      ],
      "token": "Ġdraw"
    },
    {
      "pair": [
        "Ġfin",
        "ished"
      ],
      "token": "Ġfinished"
    },
    {
      "pair": [
        "in",
        "ed"
      ],
      "token": "ined"
    },
    {
      "pair": [
        "Ġy",
        "ummy"
      ],
      "token": "Ġyummy"
    },
    {
      "pair": [
        "Ġre",
        "ad"
      ],
      "token": "Ġread"
    },
    {
      "pair": [
        "Ġlook",
        "s"
      ],
      "token": "Ġlooks"
    },
    {
      "pair": [
        "Ġwor",
        "ked"
      ],
      "token": "Ġworked"
    },
    {
      "pair": [
        "Ġreal",
        "ized"
      ],
      "token": "Ġrealized"
    },
    {
      "pair": [
        "Ġh",
        "id"
      ],
      "token": "Ġhid"
    },
    {
      "pair": [
        "Ġ",
        "ice"
      ],
      "token": "Ġice"
    },
    {
      "pair": [
        "\"",
        "."
      ],
      "token": "\"."
    },
    {
      "pair": [
        "ro",
        "ss"
      ],
      "token": "ross"
    },
    {
      "pair": [
        "Ġli",
        "on"
      ],
      "token": "Ġlion"
    },
    {
      "pair": [
        "Ġs",
        "at"
      ],
      "token": "Ġsat"
    },
    {
      "pair": [
        "re",
        "t"
      ],
      "token": "ret"
    },
    {
      "pair": [
        "Ġlaug",
        "h"
      ],
      "token": "Ġlaugh"
    },
    {
      "pair": [
        "Ġle",
        "ft"
      ],
      "token": "Ġleft"
    },
    {
      "pair": [
        "u",
        "ed"
      ],
      "token": "ued"
    },
    {
      "pair": [
        "Ġwr",
        "ong"
      ],
      "token": "Ġwrong"
    },
    {
      "pair": [
        "Ġs",
        "et"
      ],
      "token": "Ġset"
    },
    {
      "pair": [
        "Ġb",
        "re"
      ],
      "token": "Ġbre"
    },
    {
      "pair": [
        "Ġp",
        "et"
      ],
      "token": "Ġpet"
    },
    {
      "pair": [
        "Ġblock",
        "s"
      ],
      "token": "Ġblocks"
    },
    {
      "pair": [
        "Ġcare",
        "fully"
      ],
      "token": "Ġcarefully"
    },
    {
      "pair": [
        "Ġbig",
        "g"
      ],
      "token": "Ġbigg"
    },
    {
      "pair": [
        "Ġd",
        "r"
      ],
      "token": "Ġdr"
    },
    {
      "pair": [
        "Mom",
        "my"
      ],
      "token": "Mommy"
    },
    {
      "pair": [
        "Ġhe",
        "ld"
      ],
      "token": "Ġheld"
    },
    {
      "pair": [
        "Ġc",
        "ake"
      ],
      "token": "Ġcake"
    },
    {
      "pair": [
        "Ġre",
        "st"
      ],
      "token": "Ġrest"
    },
    {
      "pair": [
        "Ġan",
        "other"
      ],
      "token": "Ġanother"
    },
    {
      "pair": [
        "and",
        "y"
      ],
      "token": "andy"
    },
    {
      "pair": [
        "ar",
        "ing"
      ],
      "token": "aring"
    },
    {
      "pair": [
        "c",
        "ess"
      ],
      "token": "cess"
    },
    {
      "pair": [
        "Ġu",
        "sed"
      ],
      "token": "Ġused"
    },
    {
      "pair": [
        "in",
        "s"
      ],
      "token": "ins"
    },
    {
      "pair": [
        "or",
        "ing"
      ],
      "token": "oring"
    },
    {
      "pair": [
        "Ġhapp",
        "ily"
      ],
      "token": "Ġhappily"
    },
    {
      "pair": [
        "Ġha",
        "ir"
      ],
      "token": "Ġhair"
    },
    {
      "pair": [
        "Ġfriend",
        "ly"
      ],
      "token": "Ġfriendly"
    },
    {
      "pair": [
        "ab",
        "y"
      ],
      "token": "aby"
    },
    {
      "pair": [
        "Ġfollow",
        "ed"
      ],
      "token": "Ġfollowed"
    },
    {
      "pair": [
        "Ġfun",
        "ny"
      ],
      "token": "Ġfunny"
    },
    {
      "pair": [
        "ic",
        "y"
      ],
      "token": "icy"
    },
    {
      "pair": [
        "ĠD",
        "o"
      ],
      "token": "ĠDo"
    },
    {
      "pair": [
        "Ġf",
        "ull"
      ],
      "token": "Ġfull"
    },
    {
      "pair": [
        "Ġfav",
        "or"
      ],
      "token": "Ġfavor"
    },
    {
      "pair": [
        "Ġp",
        "en"
      ],
      "token": "Ġpen"
    },
    {
      "pair": [
        "Ġg",
        "one"
      ],
      "token": "Ġgone"
    },
    {
      "pair": [
        "h",
        "y"
      ],
      "token": "hy"
    },
    {
      "pair": [
        "Ġab",
        "le"
      ],
      "token": "Ġable"
    },
    {
      "pair": [
        "Ġto",
        "uch"
      ],
      "token": "Ġtouch"
    },
    {
      "pair": [
        "Ġe",
        "l"
      ],
      "token": "Ġel"
    },
    {
      "pair": [
        "Ġsurpr",
        "ised"
      ],
      "token": "Ġsurprised"
    },
    {
      "pair": [
        "Ġher",
        "self"
      ],
      "token": "Ġherself"
    },
    {
      "pair": [
        "Ġbutter",
        "f"
      ],
      "token": "Ġbutterf"
    },
    {
      "pair": [
        "u",
        "l"
      ],
      "token": "ul"
    },
    {
      "pair": [
        "Ġwor",
        "ry"
      ],
      "token": "Ġworry"
    },
    {
      "pair": [
        "Ġd",
        "ir"
      ],
      "token": "Ġdir"
    },
    {
      "pair": [
        "Ġp",
        "art"
      ],
      "token": "Ġpart"
    },
    {
      "pair": [
        "Ġfavor",
        "ite"
      ],
      "token": "Ġfavorite"
    },
    {
      "pair": [
        "Ġhe",
        "ar"
      ],
      "token": "Ġhear"
    },
    {
      "pair": [
        "Ġde",
        "ep"
      ],
      "token": "Ġdeep"
    },
    {
      "pair": [
        "Ġse",
        "ar"
      ],
      "token": "Ġsear"
    },
    {
      "pair": [
        "in",
        "ally"
      ],
      "token": "inally"
    },
    {
      "pair": [
        "er",
        "ous"
      ],
      "token": "erous"
    },
    {
      "pair": [
        "Ġstr",
        "ange"
      ],
      "token": "Ġstrange"
    },
    {
      "pair": [
        "Ġfo",
        "x"
      ],
      "token": "Ġfox"
    },
    {
      "pair": [
        "en",
        "s"
      ],
      "token": "ens"
    },
    {
      "pair": [
        "Ġwind",
        "ow"
      ],
      "token": "Ġwindow"
    },
    {
      "pair": [
        "un",
        "ny"
      ],
      "token": "unny"
    },
    {
      "pair": [
        "p",
        "e"
      ],
      "token": "pe"
    },
    {
      "pair": [
        "Ġp",
        "rom"
      ],
      "token": "Ġprom"
    },
    {
      "pair": [
        "Ġpu",
        "ppy"
      ],
      "token": "Ġpuppy"
    },
    {
      "pair": [
        "Ġm",
        "ight"
      ],
      "token": "Ġmight"
    },
    {
      "pair": [
        "Ġar",
        "ri"
      ],
      "token": "Ġarri"
    },
    {
      "pair": [
        "Ġt",
        "able"
      ],
      "token": "Ġtable"
    },
    {
      "pair": [
        "re",
        "l"
      ],
      "token": "rel"
    },
    {
      "pair": [
        "Ġsome",
        "one"
      ],
      "token": "Ġsomeone"
    },
    {
      "pair": [
        "at",
        "ed"
      ],
      "token": "ated"
    },
    {
      "pair": [
        "s",
        "p"
      ],
      "token": "sp"
    },
    {
      "pair": [
        "Ġel",
        "se"
      ],
      "token": "Ġelse"
    },
    {
      "pair": [
        "Ġunderst",
        "and"
      ],
      "token": "Ġunderstand"
    },
    {
      "pair": [
        "Ġmagic",
        "al"
      ],
      "token": "Ġmagical"
    },
    {
      "pair": [
        "Ġt",
        "ight"
      ],
      "token": "Ġtight"
    },
    {
      "pair": [
        "ĠC",
        "an"
      ],
      "token": "ĠCan"
    },
    {
      "pair": [
        "ĠN",
        "ow"
      ],
      "token": "ĠNow"
    },
    {
      "pair": [
        "Ġlo",
        "st"
      ],
      "token": "Ġlost"
    },
    {
      "pair": [
        "pp",
        "ing"
      ],
      "token": "pping"
    },
    {
      "pair": [
        "Ġen",
        "ough"
      ],
      "token": "Ġenough"
    },
    {
      "pair": [
        "Ġb",
        "ag"
      ],
      "token": "Ġbag"
    },
    {
      "pair": [
        "W",
        "ow"
      ],
      "token": "Wow"
    },
    {
      "pair": [
        "Ġperf",
        "ect"
      ],
      "token": "Ġperfect"
    },
    {
      "pair": [
        "s",
        "y"
      ],
      "token": "sy"
    },
    {
      "pair": [
        "Ġg",
        "ent"
      ],
      "token": "Ġgent"
    },
    {
      "pair": [
        "Ġv",
        "is"
      ],
      "token": "Ġvis"
    },
    {
      "pair": [
        "k",
        "en"
      ],
      "token": "ken"
    },
    {
      "pair": [
        "D",
        "on"
      ],
      "token": "Don"
    },
    {
      "pair": [
        "e",
        "y"
      ],
      "token": "ey"
    },
    {
      "pair": [
        "at",
        "ion"
      ],
      "token": "ation"
    },
    {
      "pair": [
        "Ġbook",
        "s"
      ],
      "token": "Ġbooks"
    },
    {
      "pair": [
        "Ġarri",
        "ved"
      ],
      "token": "Ġarrived"
    },
    {
      "pair": [
        "Ġtur",
        "n"
      ],
      "token": "Ġturn"
    },
    {
      "pair": [
        "Ġwa",
        "ll"
      ],
      "token": "Ġwall"
    },
    {
      "pair": [
        "re",
        "ed"
      ],
      "token": "reed"
    },
    {
      "pair": [
        "Ġflo",
        "or"
      ],
      "token": "Ġfloor"
    },
    {
      "pair": [
        "Ġevery",
        "thing"
      ],
      "token": "Ġeverything"
    },
    {
      "pair": [
        "r",
        "ed"
      ],
      "token": "red"
    },
    {
      "pair": [
        "Ġb",
        "ow"
      ],
      "token": "Ġbow"
    },
    {
      "pair": [
        "Ġc",
        "ried"
      ],
      "token": "Ġcried"
    },
    {
      "pair": [
        "u",
        "ally"
      ],
      "token": "ually"
    },
    {
      "pair": [
        "F",
        "rom"
      ],
      "token": "From"
    },
    {
      "pair": [
        "at",
        "ter"
      ],
      "token": "atter"
    },
    {
      "pair": [
        "Ġwood",
        "s"
      ],
      "token": "Ġwoods"
    },
    {
      "pair": [
        "Ġdre",
        "am"
      ],
      "token": "Ġdream"
    },
    {
      "pair": [
        "Ġbro",
        "ken"
      ],
      "token": "Ġbroken"
    },
    {
      "pair": [
        "Ġpo",
        "nd"
      ],
      "token": "Ġpond"
    },
    {
      "pair": [
        "Ġm",
        "akes"
      ],
      "token": "Ġmakes"
    },
    {
      "pair": [
        "as",
        "k"
      ],
      "token": "ask"
    },
    {
      "pair": [
        "Ġa",
        "ir"
      ],
      "token": "Ġair"
    },
    {
      "pair": [
        "Ġf",
        "ight"
      ],
      "token": "Ġfight"
    },
    {
      "pair": [
        "d",
        "s"
      ],
      "token": "ds"
    },
    {
      "pair": [
        "Ġcont",
        "in"
      ],
      "token": "Ġcontin"
    },
    {
      "pair": [
        "Ġc",
        "ut"
      ],
      "token": "Ġcut"
    },
    {
      "pair": [
        "Ġc",
        "ount"
      ],
      "token": "Ġcount"
    },
    {
      "pair": [
        "r",
        "ow"
      ],
      "token": "row"
    },
    {
      "pair": [
        "Ġy",
        "es"
      ],
      "token": "Ġyes"
    },
    {
      "pair": [
        "Ġfin",
        "ally"
      ],
      "token": "Ġfinally"
    },
    {
      "pair": [
        "Ġneed",
        "ed"
      ],
      "token": "Ġneeded"
    },
    {
      "pair": [
        "ĠT",
        "o"
      ],
      "token": "ĠTo"
    },
    {
      "pair": [
        "'",
        "re"
      ],
      "token": "'re"
    },
    {
      "pair": [
        "Ġb",
        "unny"
      ],
      "token": "Ġbunny"
    },
    {
      "pair": [
        "Ġwh",
        "ite"
      ],
      "token": "Ġwhite"
    },
    {
      "pair": [
        "a",
        "pped"
      ],
      "token": "apped"
    },
    {
      "pair": [
        "at",
        "er"
      ],
      "token": "ater"
    },
    {
      "pair": [
        "Ġget",
        "ting"
      ],
      "token": "Ġgetting"
    },
    {
      "pair": [
        "Ġdelic",
        "ious"
      ],
      "token": "Ġdelicious"
    },
    {
      "pair": [
        "m",
        "e"
      ],
      "token": "me"
    },
    {
      "pair": [
        "Ġc",
        "reat"
      ],
      "token": "Ġcreat"
    },
    {
      "pair": [
        "Ġho",
        "ld"
      ],
      "token": "Ġhold"
    },
    {
      "pair": [
        "am",
        "p"
      ],
      "token": "amp"
    },
    {
      "pair": [
        "Ġbe",
        "e"
      ],
      "token": "Ġbee"
    },
    {
      "pair": [
        "Ġsmil",
        "es"
      ],
      "token": "Ġsmiles"
    },
    {
      "pair": [
        "A",
        "s"
      ],
      "token": "As"
    },
    {
      "pair": [
        "A",
        "t"
      ],
      "token": "At"
    },
    {
      "pair": [
        "The",
        "n"
      ],
      "token": "Then"
    },
    {
      "pair": [
        "Ġte",
        "ac"
      ],
      "token": "Ġteac"
    },
    {
      "pair": [
        "Ġh",
        "un"
      ],
      "token": "Ġhun"
    },
    {
      "pair": [
        "Ġcontin",
        "ued"
      ],
      "token": "Ġcontinued"
    },
    {
      "pair": [
        "s",
        "hed"
      ],
      "token": "shed"
    },
    {
      "pair": [
        "as",
        "ure"
      ],
      "token": "asure"
    },
    {
      "pair": [
        "on",
        "s"
      ],
      "token": "ons"
    },
    {
      "pair": [
        "Ġsw",
        "im"
      ],
      "token": "Ġswim"
    },
    {
      "pair": [
        "H",
        "ell"
      ],
      "token": "Hell"
    },
    {
      "pair": [
        "Hell",
        "o"
      ],
      "token": "Hello"
    },
    {
      "pair": [
        "Ġm",
        "et"
      ],
      "token": "Ġmet"
    },
    {
      "pair": [
        "c",
        "o"
      ],
      "token": "co"
    },
    {
      "pair": [
        "Ġdin",
        "ner"
      ],
      "token": "Ġdinner"
    },
    {
      "pair": [
        "Ġsee",
        "m"
      ],
      "token": "Ġseem"
    },
    {
      "pair": [
        "l",
        "f"
      ],
      "token": "lf"
    },
    {
      "pair": [
        "Ġcom",
        "p"
      ],
      "token": "Ġcomp"
    },
    {
      "pair": [
        "Ġj",
        "u"
      ],
      "token": "Ġju"
    },
    {
      "pair": [
        "ĠJ",
        "en"
      ],
      "token": "ĠJen"
    },
    {
      "pair": [
        "Ġs",
        "ec"
      ],
      "token": "Ġsec"
    },
    {
      "pair": [
        "Ġbr",
        "ought"
      ],
      "token": "Ġbrought"
    },
    {
      "pair": [
        "ir",
        "rel"
      ],
      "token": "irrel"
    },
    {
      "pair": [
        "Ġa",
        "rm"
      ],
      "token": "Ġarm"
    },
    {
      "pair": [
        "Ġfe",
        "w"
      ],
      "token": "Ġfew"
    },
    {
      "pair": [
        "am",
        "a"
      ],
      "token": "ama"
    },
    {
      "pair": [
        "C",
        "an"
      ],
      "token": "Can"
    },
    {
      "pair": [
        "Ġc",
        "ool"
      ],
      "token": "Ġcool"
    },
    {
      "pair": [
        "Ġb",
        "aby"
      ],
      "token": "Ġbaby"
    },
    {
      "pair": [
        "Ġt",
        "ail"
      ],
      "token": "Ġtail"
    },
    {
      "pair": [
        "Ġbigg",
        "er"
      ],
      "token": "Ġbigger"
    },
    {
      "pair": [
        "Ġbe",
        "l"
      ],
      "token": "Ġbel"
    },
    {
      "pair": [
        "a",
        "ir"
      ],
      "token": "air"
    },
    {
      "pair": [
        "Ġste",
        "pped"
      ],
      "token": "Ġstepped"
    },
    {
      "pair": [
        "Ġf",
        "ur"
      ],
      "token": "Ġfur"
    },
    {
      "pair": [
        "Ġbre",
        "ak"
      ],
      "token": "Ġbreak"
    },
    {
      "pair": [
        "Ġmo",
        "st"
      ],
      "token": "Ġmost"
    },
    {
      "pair": [
        "Ġp",
        "i"
      ],
      "token": "Ġpi"
    },
    {
      "pair": [
        "Ġstay",
        "ed"
      ],
      "token": "Ġstayed"
    },
    {
      "pair": [
        "Ġfa",
        "ir"
      ],
      "token": "Ġfair"
    },
    {
      "pair": [
        "Ġm",
        "ar"
      ],
      "token": "Ġmar"
    },
    {
      "pair": [
        "Ġpl",
        "an"
      ],
      "token": "Ġplan"
    },
    {
      "pair": [
        "ĠA",
        "ll"
      ],
      "token": "ĠAll"
    },
    {
      "pair": [
        "Ġteac",
        "her"
      ],
      "token": "Ġteacher"
    },
    {
      "pair": [
        "Ġh",
        "ill"
      ],
      "token": "Ġhill"
    },
    {
      "pair": [
        "vent",
        "ually"
      ],
      "token": "ventually"
    },
    {
      "pair": [
        "Th",
        "is"
      ],
      "token": "This"
    },
    {
      "pair": [
        "i",
        "re"
      ],
      "token": "ire"
    },
    {
      "pair": [
        "is",
        "ter"
      ],
      "token": "ister"
    },
    {
      "pair": [
        "Ġsp",
        "ark"
      ],
      "token": "Ġspark"
    },
    {
      "pair": [
        "Ġfarm",
        "er"
      ],
      "token": "Ġfarmer"
    },
    {
      "pair": [
        "Ġl",
        "ake"
      ],
      "token": "Ġlake"
    },
    {
      "pair": [
        "Ġcl",
        "ose"
      ],
      "token": "Ġclose"
    },
    {
      "pair": [
        "Ġmom",
        "ent"
      ],
      "token": "Ġmoment"
    },
    {
      "pair": [
        "o",
        "om"
      ],
      "token": "oom"
    },
    {
      "pair": [
        "Ġsqu",
        "irrel"
      ],
      "token": "Ġsquirrel"
    },
    {
      "pair": [
        "Ġbe",
        "ach"
      ],
      "token": "Ġbeach"
    },
    {
      "pair": [
        "ct",
        "or"
      ],
      "token": "ctor"
    },
    {
      "pair": [
        "i",
        "et"
      ],
      "token": "iet"
    },
    {
      "pair": [
        "Ġs",
        "ide"
      ],
      "token": "Ġside"
    },
    {
      "pair": [
        "Ġd",
        "ang"
      ],
      "token": "Ġdang"
    },
    {
      "pair": [
        "ĠG",
        "ra"
      ],
      "token": "ĠGra"
    },
    {
      "pair": [
        "Ġwa",
        "ited"
      ],
      "token": "Ġwaited"
    },
    {
      "pair": [
        "Ġslow",
        "ly"
      ],
      "token": "Ġslowly"
    },
    {
      "pair": [
        "Ġp",
        "lease"
      ],
      "token": "Ġplease"
    },
    {
      "pair": [
        "Ġcolor",
        "s"
      ],
      "token": "Ġcolors"
    },
    {
      "pair": [
        "Ġcl",
        "oud"
      ],
      "token": "Ġcloud"
    },
    {
      "pair": [
        "a",
        "v"
      ],
      "token": "av"
    },
    {
      "pair": [
        "Ġcl",
        "ot"
      ],
      "token": "Ġclot"
    },
    {
      "pair": [
        "Ġamaz",
        "ed"
      ],
      "token": "Ġamazed"
    },
    {
      "pair": [
        "l",
        "ing"
      ],
      "token": "ling"
    },
    {
      "pair": [
        "d",
        "er"
      ],
      "token": "der"
    },
    {
      "pair": [
        "Ġpain",
        "t"
      ],
      "token": "Ġpaint"
    },
    {
      "pair": [
        "Ġclimb",
        "ed"
      ],
      "token": "Ġclimbed"
    },
    {
      "pair": [
        "Ġbutterf",
        "ly"
      ],
      "token": "Ġbutterfly"
    },
    {
      "pair": [
        "Ġpull",
        "ed"
      ],
      "token": "Ġpulled"
    },
    {
      "pair": [
        "Ġag",
        "reed"
      ],
      "token": "Ġagreed"
    },
    {
      "pair": [
        "Ġw",
        "et"
      ],
      "token": "Ġwet"
    },
    {
      "pair": [
        "Ġh",
        "ot"
      ],
      "token": "Ġhot"
    },
    {
      "pair": [
        "en",
        "ce"
      ],
      "token": "ence"
    },
    {
      "pair": [
        "am",
        "es"
      ],
      "token": "ames"
    },
    {
      "pair": [
        "b",
        "o"
      ],
      "token": "bo"
    },
    {
      "pair": [
        "Ġclot",
        "hes"
      ],
      "token": "Ġclothes"
    },
    {
      "pair": [
        "Ġbl",
        "ack"
      ],
      "token": "Ġblack"
    },
    {
      "pair": [
        "Ġjo",
        "y"
      ],
      "token": "Ġjoy"
    },
    {
      "pair": [
        "Ġro",
        "ll"
      ],
      "token": "Ġroll"
    },
    {
      "pair": [
        "Ġvis",
        "it"
      ],
      "token": "Ġvisit"
    },
    {
      "pair": [
        "ou",
        "p"
      ],
      "token": "oup"
    },
    {
      "pair": [
        "Ġfast",
        "er"
      ],
      "token": "Ġfaster"
    },
    {
      "pair": [
        "Ġd",
        "uck"
      ],
      "token": "Ġduck"
    },
    {
      "pair": [
        "Ġk",
        "ite"
      ],
      "token": "Ġkite"
    },
    {
      "pair": [
        "Ġlist",
        "ened"
      ],
      "token": "Ġlistened"
    },
    {
      "pair": [
        "Ġp",
        "ap"
      ],
      "token": "Ġpap"
    },
    {
      "pair": [
        "Ġbu",
        "y"
      ],
      "token": "Ġbuy"
    },
    {
      "pair": [
        "ĠJ",
        "ill"
      ],
      "token": "ĠJill"
    },
    {
      "pair": [
        "Ġs",
        "ister"
      ],
      "token": "Ġsister"
    },
    {
      "pair": [
        "is",
        "es"
      ],
      "token": "ises"
    },
    {
      "pair": [
        "Ġs",
        "ong"
      ],
      "token": "Ġsong"
    },
    {
      "pair": [
        "ra",
        "g"
      ],
      "token": "rag"
    },
    {
      "pair": [
        "Tim",
        "my"
      ],
      "token": "Timmy"
    },
    {
      "pair": [
        "Ġal",
        "one"
      ],
      "token": "Ġalone"
    },
    {
      "pair": [
        "Ġmon",
        "ster"
      ],
      "token": "Ġmonster"
    },
    {
      "pair": [
        "Ġs",
        "u"
      ],
      "token": "Ġsu"
    },
    {
      "pair": [
        "Ġfly",
        "ing"
      ],
      "token": "Ġflying"
    },
    {
      "pair": [
        "H",
        "is"
      ],
      "token": "His"
    },
    {
      "pair": [
        "Ġwant",
        "s"
      ],
      "token": "Ġwants"
    },
    {
      "pair": [
        "Ġl",
        "on"
      ],
      "token": "Ġlon"
    },
    {
      "pair": [
        "Ġhor",
        "se"
      ],
      "token": "Ġhorse"
    },
    {
      "pair": [
        "z",
        "e"
      ],
      "token": "ze"
    },
    {
      "pair": [
        "Ġw",
        "on"
      ],
      "token": "Ġwon"
    },
    {
      "pair": [
        "Ġsomet",
        "imes"
      ],
      "token": "Ġsometimes"
    },
    {
      "pair": [
        "Ġpo",
        "l"
      ],
      "token": "Ġpol"
    },
    {
      "pair": [
        "Ġtur",
        "ned"
      ],
      "token": "Ġturned"
    },
    {
      "pair": [
        "Ġadventure",
        "s"
      ],
      "token": "Ġadventures"
    },
    {
      "pair": [
        "Ġp",
        "ro"
      ],
      "token": "Ġpro"
    },
    {
      "pair": [
        "Ġst",
        "u"
      ],
      "token": "Ġstu"
    },
    {
      "pair": [
        "Ġpicture",
        "s"
      ],
      "token": "Ġpictures"
    },
    {
      "pair": [
        "Ġtry",
        "ing"
      ],
      "token": "Ġtrying"
    },
    {
      "pair": [
        "ĠTh",
        "is"
      ],
      "token": "ĠThis"
    },
    {
      "pair": [
        "ĠE",
        "m"
      ],
      "token": "ĠEm"
    },
    {
      "pair": [
        "'",
        "ll"
      ],
      "token": "'ll"
    },
    {
      "pair": [
        "M",
        "aybe"
      ],
      "token": "Maybe"
    },
    {
      "pair": [
        "itt",
        "y"
      ],
      "token": "itty"
    },
    {
      "pair": [
        "ow",
        "er"
      ],
      "token": "ower"
    },
    {
      "pair": [
        "Ġlon",
        "ely"
      ],
      "token": "Ġlonely"
    },
    {
      "pair": [
        "Ġ",
        "K"
      ],
      "token": "ĠK"
    },
    {
      "pair": [
        "Ġf",
        "all"
      ],
      "token": "Ġfall"
    },
    {
      "pair": [
        "ri",
        "es"
      ],
      "token": "ries"
    },
    {
      "pair": [
        "Ġqu",
        "iet"
      ],
      "token": "Ġquiet"
    },
    {
      "pair": [
        "Ġgr",
        "ow"
      ],
      "token": "Ġgrow"
    },
    {
      "pair": [
        "one",
        "y"
      ],
      "token": "oney"
    },
    {
      "pair": [
        "our",
        "s"
      ],
      "token": "ours"
    },
    {
      "pair": [
        "Ġwas",
        "n"
      ],
      "token": "Ġwasn"
    },
    {
      "pair": [
        "Ġsw",
        "ing"
      ],
      "token": "Ġswing"
    },
    {
      "pair": [
        "Ġb",
        "ath"
      ],
      "token": "Ġbath"
    },
    {
      "pair": [
        "Ġsc",
        "ary"
      ],
      "token": "Ġscary"
    },
    {
      "pair": [
        "ĠBen",
        "ny"
      ],
      "token": "ĠBenny"
    },
    {
      "pair": [
        "Ġle",
        "ave"
      ],
      "token": "Ġleave"
    },
    {
      "pair": [
        "Ġtow",
        "ards"
      ],
      "token": "Ġtowards"
    },
    {
      "pair": [
        "Ġj",
        "e"
      ],
      "token": "Ġje"
    },
    {
      "pair": [
        "Ġforg",
        "ot"
      ],
      "token": "Ġforgot"
    },
    {
      "pair": [
        "Ġn",
        "ap"
      ],
      "token": "Ġnap"
    },
    {
      "pair": [
        "ĠS",
        "ally"
      ],
      "token": "ĠSally"
    },
    {
      "pair": [
        "Ġ",
        "ve"
      ],
      "token": "Ġve"
    },
    {
      "pair": [
        "Ġbu",
        "ild"
      ],
      "token": "Ġbuild"
    },
    {
      "pair": [
        "Ġdo",
        "ing"
      ],
      "token": "Ġdoing"
    },
    {
      "pair": [
        "Ġpo",
        "in"
      ],
      "token": "Ġpoin"
    },
    {
      "pair": [
        "Ġexpl",
        "oring"
      ],
      "token": "Ġexploring"
    },
    {
      "pair": [
        "Ġh",
        "ide"
      ],
      "token": "Ġhide"
    },
    {
      "pair": [
        "Ġne",
        "igh"
      ],
      "token": "Ġneigh"
    },
    {
      "pair": [
        "Ġneigh",
        "b"
      ],
      "token": "Ġneighb"
    },
    {
      "pair": [
        "Ġwor",
        "ried"
      ],
      "token": "Ġworried"
    },
    {
      "pair": [
        "Ġsm",
        "o"
      ],
      "token": "Ġsmo"
    },
    {
      "pair": [
        "Ġpi",
        "ec"
      ],
      "token": "Ġpiec"
    },
    {
      "pair": [
        "Ġpiec",
        "es"
      ],
      "token": "Ġpieces"
    },
    {
      "pair": [
        "e",
        "ared"
      ],
      "token": "eared"
    },
    {
      "pair": [
        "Ġat",
        "t"
      ],
      "token": "Ġatt"
    },
    {
      "pair": [
        "Ġth",
        "re"
      ],
      "token": "Ġthre"
    },
    {
      "pair": [
        "Ġdoll",
        "s"
      ],
      "token": "Ġdolls"
    },
    {
      "pair": [
        "Ġtal",
        "k"
      ],
      "token": "Ġtalk"
    },
    {
      "pair": [
        "Ġs",
        "uch"
      ],
      "token": "Ġsuch"
    },
    {
      "pair": [
        "ĠJ",
        "im"
      ],
      "token": "ĠJim"
    },
    {
      "pair": [
        "i",
        "ch"
      ],
      "token": "ich"
    },
    {
      "pair": [
        "Ġli",
        "ving"
      ],
      "token": "Ġliving"
    },
    {
      "pair": [
        "Ġf",
        "ree"
      ],
      "token": "Ġfree"
    },
    {
      "pair": [
        "Ġp",
        "a"
      ],
      "token": "Ġpa"
    },
    {
      "pair": [
        "Ġb",
        "ar"
      ],
      "token": "Ġbar"
    },
    {
      "pair": [
        "Ġhun",
        "gry"
      ],
      "token": "Ġhungry"
    },
    {
      "pair": [
        "Ġh",
        "ig"
      ],
      "token": "Ġhig"
    },
    {
      "pair": [
        "Ġsa",
        "me"
      ],
      "token": "Ġsame"
    },
    {
      "pair": [
        "ie",
        "ld"
      ],
      "token": "ield"
    },
    {
      "pair": [
        "i",
        "ke"
      ],
      "token": "ike"
    },
    {
      "pair": [
        "Ġto",
        "wn"
      ],
      "token": "Ġtown"
    },
    {
      "pair": [
        "Ġlong",
        "er"
      ],
      "token": "Ġlonger"
    },
    {
      "pair": [
        "Ġd",
        "anc"
      ],
      "token": "Ġdanc"
    },
    {
      "pair": [
        "ĠDad",
        "dy"
      ],
      "token": "ĠDaddy"
    },
    {
      "pair": [
        "p",
        "s"
      ],
      "token": "ps"
    },
    {
      "pair": [
        "Ġsh",
        "ared"
      ],
      "token": "Ġshared"
    },
    {
      "pair": [
        "Ġprin",
        "cess"
      ],
      "token": "Ġprincess"
    },
    {
      "pair": [
        "Ġs",
        "illy"
      ],
      "token": "Ġsilly"
    },
    {
      "pair": [
        "Ġprom",
        "ised"
      ],
      "token": "Ġpromised"
    },
    {
      "pair": [
        "Ġg",
        "u"
      ],
      "token": "Ġgu"
    },
    {
      "pair": [
        "n",
        "ey"
      ],
      "token": "ney"
    },
    {
      "pair": [
        "Ġbl",
        "ank"
      ],
      "token": "Ġblank"
    },
    {
      "pair": [
        "Ġthink",
        "s"
      ],
      "token": "Ġthinks"
    },
    {
      "pair": [
        "Ġla",
        "nd"
      ],
      "token": "Ġland"
    },
    {
      "pair": [
        "Ġc",
        "ast"
      ],
      "token": "Ġcast"
    },
    {
      "pair": [
        "Ġcl",
        "apped"
      ],
      "token": "Ġclapped"
    },
    {
      "pair": [
        "i",
        "x"
      ],
      "token": "ix"
    },
    {
      "pair": [
        "un",
        "ch"
      ],
      "token": "unch"
    },
    {
      "pair": [
        "e",
        "ver"
      ],
      "token": "ever"
    },
    {
      "pair": [
        "Ġs",
        "uddenly"
      ],
      "token": "Ġsuddenly"
    },
    {
      "pair": [
        "Ġblank",
        "et"
      ],
      "token": "Ġblanket"
    },
    {
      "pair": [
        "Ġdir",
        "ty"
      ],
      "token": "Ġdirty"
    },
    {
      "pair": [
        "u",
        "it"
      ],
      "token": "uit"
    },
    {
      "pair": [
        "Ġevery",
        "where"
      ],
      "token": "Ġeverywhere"
    },
    {
      "pair": [
        "Ġother",
        "s"
      ],
      "token": "Ġothers"
    },
    {
      "pair": [
        "m",
        "b"
      ],
      "token": "mb"
    },
    {
      "pair": [
        "Ġp",
        "ink"
      ],
      "token": "Ġpink"
    },
    {
      "pair": [
        "Ġor",
        "ange"
      ],
      "token": "Ġorange"
    },
    {
      "pair": [
        "Ġdang",
        "erous"
      ],
      "token": "Ġdangerous"
    },
    {
      "pair": [
        "Ġseem",
        "ed"
      ],
      "token": "Ġseemed"
    },
    {
      "pair": [
        "Ġsho",
        "es"
      ],
      "token": "Ġshoes"
    },
    {
      "pair": [
        "Ġsh",
        "ap"
      ],
      "token": "Ġshap"
    },
    {
      "pair": [
        "Ġcr",
        "ay"
      ],
      "token": "Ġcray"
    },
    {
      "pair": [
        "Ġo",
        "w"
      ],
      "token": "Ġow"
    },
    {
      "pair": [
        "Ġsec",
        "ret"
      ],
      "token": "Ġsecret"
    },
    {
      "pair": [
        "e",
        "k"
      ],
      "token": "ek"
    },
    {
      "pair": [
        "Ġhig",
        "her"
      ],
      "token": "Ġhigher"
    },
    {
      "pair": [
        "m",
        "ent"
      ],
      "token": "ment"
    },
    {
      "pair": [
        "av",
        "y"
      ],
      "token": "avy"
    },
    {
      "pair": [
        "s",
        "et"
      ],
      "token": "set"
    },
    {
      "pair": [
        "Ġs",
        "it"
      ],
      "token": "Ġsit"
    },
    {
      "pair": [
        "Ġshap",
        "es"
      ],
      "token": "Ġshapes"
    },
    {
      "pair": [
        "Ġjo",
        "b"
      ],
      "token": "Ġjob"
    },
    {
      "pair": [
        "Ġse",
        "a"
      ],
      "token": "Ġsea"
    },
    {
      "pair": [
        "Ġcook",
        "ies"
      ],
      "token": "Ġcookies"
    },
    {
      "pair": [
        "Ġp",
        "at"
      ],
      "token": "Ġpat"
    },
    {
      "pair": [
        "Ġsc",
        "re"
      ],
      "token": "Ġscre"
    },
    {
      "pair": [
        "ver",
        "ed"
      ],
      "token": "vered"
    },
    {
      "pair": [
        "Ġac",
        "ross"
      ],
      "token": "Ġacross"
    },
    {
      "pair": [
        "Ġhop",
        "ed"
      ],
      "token": "Ġhoped"
    },
    {
      "pair": [
        "O",
        "K"
      ],
      "token": "OK"
    },
    {
      "pair": [
        "Ġc",
        "ave"
      ],
      "token": "Ġcave"
    },
    {
      "pair": [
        "Ġfr",
        "uit"
      ],
      "token": "Ġfruit"
    },
    {
      "pair": [
        "Ġhelp",
        "ing"
      ],
      "token": "Ġhelping"
    },
    {
      "pair": [
        "Ġr",
        "ace"
      ],
      "token": "Ġrace"
    },
    {
      "pair": [
        "el",
        "c"
      ],
      "token": "elc"
    },
    {
      "pair": [
        "Ġri",
        "ver"
      ],
      "token": "Ġriver"
    },
    {
      "pair": [
        "Ġpap",
        "er"
      ],
      "token": "Ġpaper"
    },
    {
      "pair": [
        "Ġpl",
        "ant"
      ],
      "token": "Ġplant"
    },
    {
      "pair": [
        "Ġf",
        "ield"
      ],
      "token": "Ġfield"
    },
    {
      "pair": [
        "Ġtra",
        "in"
      ],
      "token": "Ġtrain"
    },
    {
      "pair": [
        "Ġjo",
        "in"
      ],
      "token": "Ġjoin"
    },
    {
      "pair": [
        "uff",
        "y"
      ],
      "token": "uffy"
    },
    {
      "pair": [
        "ss",
        "ed"
      ],
      "token": "ssed"
    },
    {
      "pair": [
        "it",
        "ing"
      ],
      "token": "iting"
    },
    {
      "pair": [
        "Ġbe",
        "lie"
      ],
      "token": "Ġbelie"
    },
    {
      "pair": [
        "ĠM",
        "aybe"
      ],
      "token": "ĠMaybe"
    },
    {
      "pair": [
        "Ġsa",
        "ck"
      ],
      "token": "Ġsack"
    },
    {
      "pair": [
        "F",
        "inally"
      ],
      "token": "Finally"
    },
    {
      "pair": [
        "Ġp",
        "ra"
      ],
      "token": "Ġpra"
    },
    {
      "pair": [
        "Ġgra",
        "ndma"
      ],
      "token": "Ġgrandma"
    },
    {
      "pair": [
        "Ġsm",
        "art"
      ],
      "token": "Ġsmart"
    },
    {
      "pair": [
        "z",
        "z"
      ],
      "token": "zz"
    },
    {
      "pair": [
        "Ġju",
        "ice"
      ],
      "token": "Ġjuice"
    },
    {
      "pair": [
        "Ġst",
        "re"
      ],
      "token": "Ġstre"
    },
    {
      "pair": [
        "d",
        "e"
      ],
      "token": "de"
    },
    {
      "pair": [
        "Ġstor",
        "ies"
      ],
      "token": "Ġstories"
    },
    {
      "pair": [
        "Ġyou",
        "ng"
      ],
      "token": "Ġyoung"
    },
    {
      "pair": [
        "a",
        "pp"
      ],
      "token": "app"
    },
    {
      "pair": [
        "Ġo",
        "b"
      ],
      "token": "Ġob"
    },
    {
      "pair": [
        "ĠM",
        "ary"
      ],
      "token": "ĠMary"
    },
    {
      "pair": [
        "Ġst",
        "ars"
      ],
      "token": "Ġstars"
    },
    {
      "pair": [
        "ot",
        "t"
      ],
      "token": "ott"
    },
    {
      "pair": [
        "Ġclos",
        "ed"
      ],
      "token": "Ġclosed"
    },
    {
      "pair": [
        "Ġwa",
        "g"
      ],
      "token": "Ġwag"
    },
    {
      "pair": [
        "Ġp",
        "ath"
      ],
      "token": "Ġpath"
    },
    {
      "pair": [
        "Ġche",
        "ered"
      ],
      "token": "Ġcheered"
    },
    {
      "pair": [
        "or",
        "m"
      ],
      "token": "orm"
    },
    {
      "pair": [
        "Ġn",
        "aught"
      ],
      "token": "Ġnaught"
    },
    {
      "pair": [
        "Ġdis",
        "app"
      ],
      "token": "Ġdisapp"
    },
    {
      "pair": [
        "Ġhe",
        "avy"
      ],
      "token": "Ġheavy"
    },
    {
      "pair": [
        "Ġwo",
        "ke"
      ],
      "token": "Ġwoke"
    },
    {
      "pair": [
        "Ġco",
        "ll"
      ],
      "token": "Ġcoll"
    },
    {
      "pair": [
        "Ġno",
        "ises"
      ],
      "token": "Ġnoises"
    },
    {
      "pair": [
        "ĠW",
        "hat"
      ],
      "token": "ĠWhat"
    },
    {
      "pair": [
        "Ġr",
        "ide"
      ],
      "token": "Ġride"
    },
    {
      "pair": [
        "Ġmor",
        "al"
      ],
      "token": "Ġmoral"
    },
    {
      "pair": [
        "Ġmu",
        "st"
      ],
      "token": "Ġmust"
    },
    {
      "pair": [
        "Ġr",
        "a"
      ],
      "token": "Ġra"
    },
    {
      "pair": [
        "O",
        "h"
      ],
      "token": "Oh"
    },
    {
      "pair": [
        "Ġgent",
        "le"
      ],
      "token": "Ġgentle"
    },
    {
      "pair": [
        "w",
        "eet"
      ],
      "token": "weet"
    },
    {
      "pair": [
        "Ġs",
        "ign"
      ],
      "token": "Ġsign"
    },
    {
      "pair": [
        "Ġw",
        "elc"
      ],
      "token": "Ġwelc"
    },
    {
      "pair": [
        "W",
        "hy"
      ],
      "token": "Why"
    },
    {
      "pair": [
        "ed",
        "dy"
      ],
      "token": "eddy"
    },
    {
      "pair": [
        "ount",
        "ain"
      ],
      "token": "ountain"
    },
    {
      "pair": [
        "Ġmo",
        "ved"
      ],
      "token": "Ġmoved"
    },
    {
      "pair": [
        "Ġdis",
        "co"
      ],
      "token": "Ġdisco"
    },
    {
      "pair": [
        "um",
        "b"
      ],
      "token": "umb"
    },
    {
      "pair": [
        "or",
        "ed"
      ],
      "token": "ored"
    },
    {
      "pair": [
        "Ġtre",
        "asure"
      ],
      "token": "Ġtreasure"
    },
    {
      "pair": [
        "Ġdo",
        "ctor"
      ],
      "token": "Ġdoctor"
    },
    {
      "pair": [
        "ĠTom",
        "my"
      ],
      "token": "ĠTommy"
    },
    {
      "pair": [
        "b",
        "r"
      ],
      "token": "br"
    },
    {
      "pair": [
        "S",
        "ure"
      ],
      "token": "Sure"
    },
    {
      "pair": [
        "ch",
        "ool"
      ],
      "token": "chool"
    },
    {
      "pair": [
        "Ġwa",
        "r"
      ],
      "token": "Ġwar"
    },
    {
      "pair": [
        "fu",
        "sed"
      ],
      "token": "fused"
    },
    {
      "pair": [
        "ain",
        "ed"
      ],
      "token": "ained"
    },
    {
      "pair": [
        "ug",
        "g"
      ],
      "token": "ugg"
    },
    {
      "pair": [
        "Ġal",
        "ong"
      ],
      "token": "Ġalong"
    },
    {
      "pair": [
        "Ġcry",
        "ing"
      ],
      "token": "Ġcrying"
    },
    {
      "pair": [
        "ou",
        "n"
      ],
      "token": "oun"
    },
    {
      "pair": [
        "Ġcast",
        "le"
      ],
      "token": "Ġcastle"
    },
    {
      "pair": [
        "Ġwor",
        "ds"
      ],
      "token": "Ġwords"
    },
    {
      "pair": [
        "Ġy",
        "ard"
      ],
      "token": "Ġyard"
    },
    {
      "pair": [
        "Ġre",
        "lie"
      ],
      "token": "Ġrelie"
    },
    {
      "pair": [
        "Ġbelie",
        "ve"
      ],
      "token": "Ġbelieve"
    },
    {
      "pair": [
        "Ġnaught",
        "y"
      ],
      "token": "Ġnaughty"
    },
    {
      "pair": [
        "ad",
        "ow"
      ],
      "token": "adow"
    },
    {
      "pair": [
        "Ġm",
        "other"
      ],
      "token": "Ġmother"
    },
    {
      "pair": [
        "Ġeat",
        "ing"
      ],
      "token": "Ġeating"
    },
    {
      "pair": [
        "Ġf",
        "ence"
      ],
      "token": "Ġfence"
    },
    {
      "pair": [
        "Ġdro",
        "ve"
      ],
      "token": "Ġdrove"
    },
    {
      "pair": [
        "e",
        "en"
      ],
      "token": "een"
    },
    {
      "pair": [
        "Ġs",
        "chool"
      ],
      "token": "Ġschool"
    },
    {
      "pair": [
        "Ġhapp",
        "en"
      ],
      "token": "Ġhappen"
    },
    {
      "pair": [
        "p",
        "h"
      ],
      "token": "ph"
    },
    {
      "pair": [
        "ĠB",
        "illy"
      ],
      "token": "ĠBilly"
    },
    {
      "pair": [
        "L",
        "ucy"
      ],
      "token": "Lucy"
    },
    {
      "pair": [
        "Ġye",
        "ar"
      ],
      "token": "Ġyear"
    },
    {
      "pair": [
        "ate",
        "ful"
      ],
      "token": "ateful"
    },
    {
      "pair": [
        "Ġc",
        "andy"
      ],
      "token": "Ġcandy"
    },
    {
      "pair": [
        "Ġc",
        "or"
      ],
      "token": "Ġcor"
    },
    {
      "pair": [
        "Ġc",
        "ream"
      ],
      "token": "Ġcream"
    },
    {
      "pair": [
        "Ġro",
        "pe"
      ],
      "token": "Ġrope"
    },
    {
      "pair": [
        "Ġtw",
        "ins"
      ],
      "token": "Ġtwins"
    },
    {
      "pair": [
        "Ġcolor",
        "ful"
      ],
      "token": "Ġcolorful"
    },
    {
      "pair": [
        "Ġc",
        "aught"
      ],
      "token": "Ġcaught"
    },
    {
      "pair": [
        "Ġrelie",
        "ved"
      ],
      "token": "Ġrelieved"
    },
    {
      "pair": [
        "out",
        "h"
      ],
      "token": "outh"
    },
    {
      "pair": [
        "le",
        "ss"
      ],
      "token": "less"
    },
    {
      "pair": [
        "Ġbu",
        "cket"
      ],
      "token": "Ġbucket"
    },
    {
      "pair": [
        "f",
        "ort"
      ],
      "token": "fort"
    },
    {
      "pair": [
        "al",
        "m"
      ],
      "token": "alm"
    },
    {
      "pair": [
        "o",
        "c"
      ],
      "token": "oc"
    },
    {
      "pair": [
        "Ġrun",
        "s"
      ],
      "token": "Ġruns"
    },
    {
      "pair": [
        "Ġc",
        "ra"
      ],
      "token": "Ġcra"
    },
    {
      "pair": [
        "Ġwith",
        "out"
      ],
      "token": "Ġwithout"
    },
    {
      "pair": [
        "A",
        "nd"
      ],
      "token": "And"
    },
    {
      "pair": [
        "Ġbro",
        "ke"
      ],
      "token": "Ġbroke"
    },
    {
      "pair": [
        "ock",
        "ed"
      ],
      "token": "ocked"
    },
    {
      "pair": [
        "Ġ",
        "es"
      ],
      "token": "Ġes"
    },
    {
      "pair": [
        "Ġre",
        "sp"
      ],
      "token": "Ġresp"
    },
    {
      "pair": [
        "Ġ",
        "3"
      ],
      "token": "Ġ3"
    },
    {
      "pair": [
        "ig",
        "g"
      ],
      "token": "igg"
    },
    {
      "pair": [
        "Ġgr",
        "ateful"
      ],
      "token": "Ġgrateful"
    },
    {
      "pair": [
        "Ġpart",
        "y"
      ],
      "token": "Ġparty"
    },
    {
      "pair": [
        "et",
        "er"
      ],
      "token": "eter"
    },
    {
      "pair": [
        "Ġb",
        "ott"
      ],
      "token": "Ġbott"
    },
    {
      "pair": [
        "Ġre",
        "l"
      ],
      "token": "Ġrel"
    },
    {
      "pair": [
        "Ġm",
        "ix"
      ],
      "token": "Ġmix"
    },
    {
      "pair": [
        "Ġc",
        "raw"
      ],
      "token": "Ġcraw"
    },
    {
      "pair": [
        "Ġpu",
        "shed"
      ],
      "token": "Ġpushed"
    },
    {
      "pair": [
        "Ġm",
        "ark"
      ],
      "token": "Ġmark"
    },
    {
      "pair": [
        "Ġe",
        "ventually"
      ],
      "token": "Ġeventually"
    },
    {
      "pair": [
        "Ġto",
        "u"
      ],
      "token": "Ġtou"
    },
    {
      "pair": [
        "Ġtou",
        "ched"
      ],
      "token": "Ġtouched"
    },
    {
      "pair": [
        "s",
        "w"
      ],
      "token": "sw"
    },
    {
      "pair": [
        "i",
        "pped"
      ],
      "token": "ipped"
    },
    {
      "pair": [
        "y",
        "ard"
      ],
      "token": "yard"
    },
    {
      "pair": [
        "Ġp",
        "ers"
      ],
      "token": "Ġpers"
    },
    {
      "pair": [
        "ck",
        "ed"
      ],
      "token": "cked"
    },
    {
      "pair": [
        "Ġd",
        "rag"
      ],
      "token": "Ġdrag"
    },
    {
      "pair": [
        "D",
        "o"
      ],
      "token": "Do"
    },
    {
      "pair": [
        "Ġwe",
        "ar"
      ],
      "token": "Ġwear"
    },
    {
      "pair": [
        "Ġpl",
        "ac"
      ],
      "token": "Ġplac"
    },
    {
      "pair": [
        "Ġmu",
        "s"
      ],
      "token": "Ġmus"
    },
    {
      "pair": [
        "Ġd",
        "ry"
      ],
      "token": "Ġdry"
    },
    {
      "pair": [
        "Ġbr",
        "ing"
      ],
      "token": "Ġbring"
    },
    {
      "pair": [
        "Ġan",
        "sw"
      ],
      "token": "Ġansw"
    },
    {
      "pair": [
        "Ġthre",
        "w"
      ],
      "token": "Ġthrew"
    },
    {
      "pair": [
        "Ġp",
        "urp"
      ],
      "token": "Ġpurp"
    },
    {
      "pair": [
        "Ġrock",
        "s"
      ],
      "token": "Ġrocks"
    },
    {
      "pair": [
        "ion",
        "s"
      ],
      "token": "ions"
    },
    {
      "pair": [
        "r",
        "ot"
      ],
      "token": "rot"
    },
    {
      "pair": [
        "Ġb",
        "oun"
      ],
      "token": "Ġboun"
    },
    {
      "pair": [
        "Ġhe",
        "al"
      ],
      "token": "Ġheal"
    },
    {
      "pair": [
        "Ġow",
        "l"
      ],
      "token": "Ġowl"
    },
    {
      "pair": [
        "Ġc",
        "our"
      ],
      "token": "Ġcour"
    },
    {
      "pair": [
        "Ġpre",
        "s"
      ],
      "token": "Ġpres"
    },
    {
      "pair": [
        "Ġl",
        "unch"
      ],
      "token": "Ġlunch"
    },
    {
      "pair": [
        "p",
        "er"
      ],
      "token": "per"
    },
    {
      "pair": [
        "ĠSo",
        "on"
      ],
      "token": "ĠSoon"
    },
    {
      "pair": [
        "Ġin",
        "st"
      ],
      "token": "Ġinst"
    },
    {
      "pair": [
        "Ġim",
        "ag"
      ],
      "token": "Ġimag"
    },
    {
      "pair": [
        "Ġbug",
        "s"
      ],
      "token": "Ġbugs"
    },
    {
      "pair": [
        "Ġpurp",
        "le"
      ],
      "token": "Ġpurple"
    },
    {
      "pair": [
        "Ġback",
        "yard"
      ],
      "token": "Ġbackyard"
    },
    {
      "pair": [
        "Ġsn",
        "ack"
      ],
      "token": "Ġsnack"
    },
    {
      "pair": [
        ".\"",
        "<|"
      ],
      "token": ".\"<|"
    },
    {
      "pair": [
        "Ġc",
        "ou"
      ],
      "token": "Ġcou"
    },
    {
      "pair": [
        "th",
        "y"
      ],
      "token": "thy"
    },
    {
      "pair": [
        "in",
        "ing"
      ],
      "token": "ining"
    },
    {
      "pair": [
        "ep",
        "end"
      ],
      "token": "epend"
    },
    {
      "pair": [
        "ĠA",
        "my"
      ],
      "token": "ĠAmy"
    },
    {
      "pair": [
        "Ġcour",
        "se"
      ],
      "token": "Ġcourse"
    },
    {
      "pair": [
        "Ġto",
        "day"
      ],
      "token": "Ġtoday"
    },
    {
      "pair": [
        "as",
        "ed"
      ],
      "token": "ased"
    },
    {
      "pair": [
        "Ġgi",
        "ft"
      ],
      "token": "Ġgift"
    },
    {
      "pair": [
        "Ġpo",
        "cket"
      ],
      "token": "Ġpocket"
    },
    {
      "pair": [
        "Ġsear",
        "ch"
      ],
      "token": "Ġsearch"
    },
    {
      "pair": [
        "Ġwe",
        "ll"
      ],
      "token": "Ġwell"
    },
    {
      "pair": [
        "Ġbu",
        "bb"
      ],
      "token": "Ġbubb"
    },
    {
      "pair": [
        "Ġdad",
        "dy"
      ],
      "token": "Ġdaddy"
    },
    {
      "pair": [
        "itt",
        "ing"
      ],
      "token": "itting"
    },
    {
      "pair": [
        "Ġbel",
        "ong"
      ],
      "token": "Ġbelong"
    },
    {
      "pair": [
        "Ġj",
        "our"
      ],
      "token": "Ġjour"
    },
    {
      "pair": [
        "c",
        "le"
      ],
      "token": "cle"
    },
    {
      "pair": [
        "Ġw",
        "ild"
      ],
      "token": "Ġwild"
    },
    {
      "pair": [
        "Ġup",
        "set"
      ],
      "token": "Ġupset"
    },
    {
      "pair": [
        "Ġcom",
        "es"
      ],
      "token": "Ġcomes"
    },
    {
      "pair": [
        "H",
        "i"
      ],
      "token": "Hi"
    },
    {
      "pair": [
        "Ġc",
        "e"
      ],
      "token": "Ġce"
    },
    {
      "pair": [
        "o",
        "st"
      ],
      "token": "ost"
    },
    {
      "pair": [
        "Ġwelc",
        "ome"
      ],
      "token": "Ġwelcome"
    },
    {
      "pair": [
        "Ġt",
        "iny"
      ],
      "token": "Ġtiny"
    },
    {
      "pair": [
        "Ġpres",
        "ent"
      ],
      "token": "Ġpresent"
    },
    {
      "pair": [
        "Ġbu",
        "sh"
      ],
      "token": "Ġbush"
    },
    {
      "pair": [
        "Ġm",
        "outh"
      ],
      "token": "Ġmouth"
    },
    {
      "pair": [
        "Ġb",
        "ite"
      ],
      "token": "Ġbite"
    },
    {
      "pair": [
        "Ġnot",
        "hing"
      ],
      "token": "Ġnothing"
    },
    {
      "pair": [
        "Ġf",
        "ig"
      ],
      "token": "Ġfig"
    },
    {
      "pair": [
        "Ġown",
        "er"
      ],
      "token": "Ġowner"
    },
    {
      "pair": [
        "Ġexc",
        "iting"
      ],
      "token": "Ġexciting"
    },
    {
      "pair": [
        "Ġp",
        "ack"
      ],
      "token": "Ġpack"
    },
    {
      "pair": [
        "Ġhe",
        "art"
      ],
      "token": "Ġheart"
    },
    {
      "pair": [
        "uck",
        "y"
      ],
      "token": "ucky"
    },
    {
      "pair": [
        "Ġfeel",
        "s"
      ],
      "token": "Ġfeels"
    },
    {
      "pair": [
        "Ġcu",
        "p"
      ],
      "token": "Ġcup"
    },
    {
      "pair": [
        "L",
        "ila"
      ],
      "token": "Lila"
    },
    {
      "pair": [
        "ĠF",
        "l"
      ],
      "token": "ĠFl"
    },
    {
      "pair": [
        "le",
        "ph"
      ],
      "token": "leph"
    },
    {
      "pair": [
        "Ġm",
        "oney"
      ],
      "token": "Ġmoney"
    },
    {
      "pair": [
        "Ġwonder",
        "ed"
      ],
      "token": "Ġwondered"
    },
    {
      "pair": [
        "Ġsn",
        "ow"
      ],
      "token": "Ġsnow"
    },
    {
      "pair": [
        "Ġm",
        "in"
      ],
      "token": "Ġmin"
    },
    {
      "pair": [
        "Ġbu",
        "sy"
      ],
      "token": "Ġbusy"
    },
    {
      "pair": [
        "it",
        "ch"
      ],
      "token": "itch"
    },
    {
      "pair": [
        "ve",
        "l"
      ],
      "token": "vel"
    },
    {
      "pair": [
        "Ġw",
        "in"
      ],
      "token": "Ġwin"
    },
    {
      "pair": [
        "ĠIn",
        "side"
      ],
      "token": "ĠInside"
    },
    {
      "pair": [
        "Ġmus",
        "ic"
      ],
      "token": "Ġmusic"
    },
    {
      "pair": [
        "Ġturn",
        "s"
      ],
      "token": "Ġturns"
    },
    {
      "pair": [
        "il",
        "k"
      ],
      "token": "ilk"
    },
    {
      "pair": [
        "Ġth",
        "ough"
      ],
      "token": "Ġthough"
    },
    {
      "pair": [
        "Ġcol",
        "our"
      ],
      "token": "Ġcolour"
    },
    {
      "pair": [
        "or",
        "row"
      ],
      "token": "orrow"
    },
    {
      "pair": [
        "Ġdro",
        "pped"
      ],
      "token": "Ġdropped"
    },
    {
      "pair": [
        "Ġnear",
        "by"
      ],
      "token": "Ġnearby"
    },
    {
      "pair": [
        "t",
        "s"
      ],
      "token": "ts"
    },
    {
      "pair": [
        "Ġp",
        "h"
      ],
      "token": "Ġph"
    },
    {
      "pair": [
        "bb",
        "y"
      ],
      "token": "bby"
    },
    {
      "pair": [
        "Ġre",
        "ach"
      ],
      "token": "Ġreach"
    },
    {
      "pair": [
        "Ġb",
        "en"
      ],
      "token": "Ġben"
    },
    {
      "pair": [
        "Ġsp",
        "r"
      ],
      "token": "Ġspr"
    },
    {
      "pair": [
        "Ġsp",
        "e"
      ],
      "token": "Ġspe"
    },
    {
      "pair": [
        "Ġlaug",
        "hing"
      ],
      "token": "Ġlaughing"
    },
    {
      "pair": [
        "e",
        "ad"
      ],
      "token": "ead"
    },
    {
      "pair": [
        "Ġm",
        "ilk"
      ],
      "token": "Ġmilk"
    },
    {
      "pair": [
        "Ġfo",
        "ld"
      ],
      "token": "Ġfold"
    },
    {
      "pair": [
        "Ġco",
        "zy"
      ],
      "token": "Ġcozy"
    },
    {
      "pair": [
        "ĠB",
        "e"
      ],
      "token": "ĠBe"
    },
    {
      "pair": [
        "Ġbr",
        "own"
      ],
      "token": "Ġbrown"
    },
    {
      "pair": [
        "Ġpe",
        "ace"
      ],
      "token": "Ġpeace"
    },
    {
      "pair": [
        "Ġe",
        "ar"
      ],
      "token": "Ġear"
    },
    {
      "pair": [
        "is",
        "sed"
      ],
      "token": "issed"
    },
    {
      "pair": [
        "Ġst",
        "uck"
      ],
      "token": "Ġstuck"
    },
    {
      "pair": [
        "Ġg",
        "ather"
      ],
      "token": "Ġgather"
    },
    {
      "pair": [
        "Ġw",
        "ings"
      ],
      "token": "Ġwings"
    },
    {
      "pair": [
        "Ġt",
        "reat"
      ],
      "token": "Ġtreat"
    },
    {
      "pair": [
        "g",
        "s"
      ],
      "token": "gs"
    },
    {
      "pair": [
        "Ġs",
        "itting"
      ],
      "token": "Ġsitting"
    },
    {
      "pair": [
        "Ġarm",
        "s"
      ],
      "token": "Ġarms"
    },
    {
      "pair": [
        "M",
        "olly"
      ],
      "token": "Molly"
    },
    {
      "pair": [
        "Ġc",
        "ir"
      ],
      "token": "Ġcir"
    },
    {
      "pair": [
        "Ġpra",
        "ct"
      ],
      "token": "Ġpract"
    },
    {
      "pair": [
        "Ġan",
        "g"
      ],
      "token": "Ġang"
    },
    {
      "pair": [
        "Ġt",
        "un"
      ],
      "token": "Ġtun"
    },
    {
      "pair": [
        "ĠT",
        "weet"
      ],
      "token": "ĠTweet"
    },
    {
      "pair": [
        "Ġbut",
        "t"
      ],
      "token": "Ġbutt"
    },
    {
      "pair": [
        "Ġspl",
        "ash"
      ],
      "token": "Ġsplash"
    },
    {
      "pair": [
        "Ġstre",
        "et"
      ],
      "token": "Ġstreet"
    },
    {
      "pair": [
        "Ġu",
        "g"
      ],
      "token": "Ġug"
    },
    {
      "pair": [
        "Ġug",
        "ly"
      ],
      "token": "Ġugly"
    },
    {
      "pair": [
        "Ġt",
        "eddy"
      ],
      "token": "Ġteddy"
    },
    {
      "pair": [
        "Ġtast",
        "ed"
      ],
      "token": "Ġtasted"
    },
    {
      "pair": [
        "Ġre",
        "t"
      ],
      "token": "Ġret"
    },
    {
      "pair": [
        "Ġsh",
        "y"
      ],
      "token": "Ġshy"
    },
    {
      "pair": [
        "t",
        "o"
      ],
      "token": "to"
    },
    {
      "pair": [
        "Ġin",
        "c"
      ],
      "token": "Ġinc"
    },
    {
      "pair": [
        "ow",
        "s"
      ],
      "token": "ows"
    },
    {
      "pair": [
        "Ġsmo",
        "oth"
      ],
      "token": "Ġsmooth"
    },
    {
      "pair": [
        "Ġhop",
        "e"
      ],
      "token": "Ġhope"
    },
    {
      "pair": [
        "Ġcoll",
        "ect"
      ],
      "token": "Ġcollect"
    },
    {
      "pair": [
        "Ġcar",
        "rot"
      ],
      "token": "Ġcarrot"
    },
    {
      "pair": [
        "Ġn",
        "et"
      ],
      "token": "Ġnet"
    },
    {
      "pair": [
        "Ġd",
        "es"
      ],
      "token": "Ġdes"
    },
    {
      "pair": [
        "Ġsmil",
        "ing"
      ],
      "token": "Ġsmiling"
    },
    {
      "pair": [
        "Ġb",
        "reat"
      ],
      "token": "Ġbreat"
    },
    {
      "pair": [
        "Ġst",
        "ar"
      ],
      "token": "Ġstar"
    },
    {
      "pair": [
        "Ġapp",
        "le"
      ],
      "token": "Ġapple"
    },
    {
      "pair": [
        "Ġle",
        "m"
      ],
      "token": "Ġlem"
    },
    {
      "pair": [
        "m",
        "ing"
      ],
      "token": "ming"
    },
    {
      "pair": [
        "M",
        "ax"
      ],
      "token": "Max"
    },
    {
      "pair": [
        "Ġneighb",
        "or"
      ],
      "token": "Ġneighbor"
    },
    {
      "pair": [
        "Ġsear",
        "ched"
      ],
      "token": "Ġsearched"
    },
    {
      "pair": [
        "Ġk",
        "iss"
      ],
      "token": "Ġkiss"
    },
    {
      "pair": [
        "Ġcloud",
        "s"
      ],
      "token": "Ġclouds"
    },
    {
      "pair": [
        "Ġret",
        "ur"
      ],
      "token": "Ġretur"
    },
    {
      "pair": [
        "Ġjour",
        "ney"
      ],
      "token": "Ġjourney"
    },
    {
      "pair": [
        "Ġt",
        "aking"
      ],
      "token": "Ġtaking"
    },
    {
      "pair": [
        "Ġgra",
        "b"
      ],
      "token": "Ġgrab"
    },
    {
      "pair": [
        "Ġsand",
        "w"
      ],
      "token": "Ġsandw"
    },
    {
      "pair": [
        "Ġbr",
        "an"
      ],
      "token": "Ġbran"
    },
    {
      "pair": [
        "Ġbran",
        "ch"
      ],
      "token": "Ġbranch"
    },
    {
      "pair": [
        "ĠW",
        "ith"
      ],
      "token": "ĠWith"
    },
    {
      "pair": [
        "Ġt",
        "akes"
      ],
      "token": "Ġtakes"
    },
    {
      "pair": [
        "Ġon",
        "to"
      ],
      "token": "Ġonto"
    },
    {
      "pair": [
        "Ġp",
        "ass"
      ],
      "token": "Ġpass"
    },
    {
      "pair": [
        "'",
        "d"
      ],
      "token": "'d"
    },
    {
      "pair": [
        "id",
        "ge"
      ],
      "token": "idge"
    },
    {
      "pair": [
        "Ġk",
        "ick"
      ],
      "token": "Ġkick"
    },
    {
      "pair": [
        "Ġ",
        "ign"
      ],
      "token": "Ġign"
    },
    {
      "pair": [
        "Ġh",
        "it"
      ],
      "token": "Ġhit"
    },
    {
      "pair": [
        "Ġj",
        "ar"
      ],
      "token": "Ġjar"
    },
    {
      "pair": [
        "Ġm",
        "ad"
      ],
      "token": "Ġmad"
    },
    {
      "pair": [
        "Ġst",
        "and"
      ],
      "token": "Ġstand"
    },
    {
      "pair": [
        "iz",
        "e"
      ],
      "token": "ize"
    },
    {
      "pair": [
        "Ġmy",
        "ster"
      ],
      "token": "Ġmyster"
    },
    {
      "pair": [
        "Ġm",
        "iss"
      ],
      "token": "Ġmiss"
    },
    {
      "pair": [
        "Ġpat",
        "ient"
      ],
      "token": "Ġpatient"
    },
    {
      "pair": [
        "Ġli",
        "fe"
      ],
      "token": "Ġlife"
    },
    {
      "pair": [
        "at",
        "ch"
      ],
      "token": "atch"
    },
    {
      "pair": [
        "Ġwatch",
        "ing"
      ],
      "token": "Ġwatching"
    },
    {
      "pair": [
        "Ġdel",
        "ight"
      ],
      "token": "Ġdelight"
    },
    {
      "pair": [
        "Ġad",
        "m"
      ],
      "token": "Ġadm"
    },
    {
      "pair": [
        "Ġh",
        "ours"
      ],
      "token": "Ġhours"
    },
    {
      "pair": [
        "Ġsun",
        "sh"
      ],
      "token": "Ġsunsh"
    },
    {
      "pair": [
        "Ġsunsh",
        "ine"
      ],
      "token": "Ġsunshine"
    },
    {
      "pair": [
        "Ġke",
        "y"
      ],
      "token": "Ġkey"
    },
    {
      "pair": [
        "Ġdrag",
        "on"
      ],
      "token": "Ġdragon"
    },
    {
      "pair": [
        "Ġtr",
        "ou"
      ],
      "token": "Ġtrou"
    },
    {
      "pair": [
        "Ġl",
        "ate"
      ],
      "token": "Ġlate"
    },
    {
      "pair": [
        "Ġresp",
        "ect"
      ],
      "token": "Ġrespect"
    },
    {
      "pair": [
        "!\"",
        "<|"
      ],
      "token": "!\"<|"
    },
    {
      "pair": [
        "Ġf",
        "it"
      ],
      "token": "Ġfit"
    },
    {
      "pair": [
        "i",
        "er"
      ],
      "token": "ier"
    },
    {
      "pair": [
        "p",
        "ed"
      ],
      "token": "ped"
    },
    {
      "pair": [
        "Ġac",
        "c"
      ],
      "token": "Ġacc"
    },
    {
      "pair": [
        "ĠC",
        "ome"
      ],
      "token": "ĠCome"
    },
    {
      "pair": [
        "Ġsing",
        "ing"
      ],
      "token": "Ġsinging"
    },
    {
      "pair": [
        "ĠS",
        "omet"
      ],
      "token": "ĠSomet"
    },
    {
      "pair": [
        "Ġdr",
        "ink"
      ],
      "token": "Ġdrink"
    },
    {
      "pair": [
        "ĠM",
        "r"
      ],
      "token": "ĠMr"
    },
    {
      "pair": [
        "Ġspl",
        "as"
      ],
      "token": "Ġsplas"
    },
    {
      "pair": [
        "Ġhug",
        "s"
      ],
      "token": "Ġhugs"
    },
    {
      "pair": [
        "Ġrock",
        "et"
      ],
      "token": "Ġrocket"
    },
    {
      "pair": [
        "ir",
        "t"
      ],
      "token": "irt"
    },
    {
      "pair": [
        "Ġsw",
        "am"
      ],
      "token": "Ġswam"
    },
    {
      "pair": [
        "Ġroll",
        "ed"
      ],
      "token": "Ġrolled"
    },
    {
      "pair": [
        "th",
        "day"
      ],
      "token": "thday"
    },
    {
      "pair": [
        "Ġcon",
        "fused"
      ],
      "token": "Ġconfused"
    },
    {
      "pair": [
        "Ġw",
        "ish"
      ],
      "token": "Ġwish"
    },
    {
      "pair": [
        "Ġfo",
        "ot"
      ],
      "token": "Ġfoot"
    },
    {
      "pair": [
        "Ġfig",
        "ure"
      ],
      "token": "Ġfigure"
    },
    {
      "pair": [
        "Ġro",
        "b"
      ],
      "token": "Ġrob"
    },
    {
      "pair": [
        "Ġday",
        "s"
      ],
      "token": "Ġdays"
    },
    {
      "pair": [
        "Ġhold",
        "ing"
      ],
      "token": "Ġholding"
    },
    {
      "pair": [
        "Ġm",
        "ail"
      ],
      "token": "Ġmail"
    },
    {
      "pair": [
        "itt",
        "en"
      ],
      "token": "itten"
    },
    {
      "pair": [
        "un",
        "g"
      ],
      "token": "ung"
    },
    {
      "pair": [
        "Ġl",
        "etter"
      ],
      "token": "Ġletter"
    },
    {
      "pair": [
        "Ġsh",
        "ining"
      ],
      "token": "Ġshining"
    },
    {
      "pair": [
        "Ġfore",
        "ver"
      ],
      "token": "Ġforever"
    },
    {
      "pair": [
        "Ġsp",
        "ent"
      ],
      "token": "Ġspent"
    },
    {
      "pair": [
        "Ġm",
        "ist"
      ],
      "token": "Ġmist"
    },
    {
      "pair": [
        "Ġme",
        "et"
      ],
      "token": "Ġmeet"
    },
    {
      "pair": [
        "Ġg",
        "ar"
      ],
      "token": "Ġgar"
    },
    {
      "pair": [
        "ll",
        "o"
      ],
      "token": "llo"
    },
    {
      "pair": [
        "Ġstor",
        "m"
      ],
      "token": "Ġstorm"
    },
    {
      "pair": [
        "iz",
        "z"
      ],
      "token": "izz"
    },
    {
      "pair": [
        "Ġrob",
        "ot"
      ],
      "token": "Ġrobot"
    },
    {
      "pair": [
        "E",
        "very"
      ],
      "token": "Every"
    },
    {
      "pair": [
        "Ġo",
        "ce"
      ],
      "token": "Ġoce"
    },
    {
      "pair": [
        "Ġoce",
        "an"
      ],
      "token": "Ġocean"
    },
    {
      "pair": [
        "Ġsh",
        "ook"
      ],
      "token": "Ġshook"
    },
    {
      "pair": [
        "Ġa",
        "f"
      ],
      "token": "Ġaf"
    },
    {
      "pair": [
        "Ġfe",
        "et"
      ],
      "token": "Ġfeet"
    },
    {
      "pair": [
        "O",
        "kay"
      ],
      "token": "Okay"
    },
    {
      "pair": [
        "l",
        "ight"
      ],
      "token": "light"
    },
    {
      "pair": [
        "Ġl",
        "ad"
      ],
      "token": "Ġlad"
    },
    {
      "pair": [
        "Ġlad",
        "der"
      ],
      "token": "Ġladder"
    },
    {
      "pair": [
        "o",
        "g"
      ],
      "token": "og"
    },
    {
      "pair": [
        "Ġlem",
        "on"
      ],
      "token": "Ġlemon"
    },
    {
      "pair": [
        "Ġkne",
        "e"
      ],
      "token": "Ġknee"
    },
    {
      "pair": [
        "d",
        "le"
      ],
      "token": "dle"
    },
    {
      "pair": [
        "Ġrain",
        "b"
      ],
      "token": "Ġrainb"
    },
    {
      "pair": [
        "a",
        "le"
      ],
      "token": "ale"
    },
    {
      "pair": [
        "Ġplac",
        "es"
      ],
      "token": "Ġplaces"
    },
    {
      "pair": [
        "Ġsp",
        "oon"
      ],
      "token": "Ġspoon"
    },
    {
      "pair": [
        "Ġin",
        "v"
      ],
      "token": "Ġinv"
    },
    {
      "pair": [
        "Ġexpl",
        "ained"
      ],
      "token": "Ġexplained"
    },
    {
      "pair": [
        "t",
        "en"
      ],
      "token": "ten"
    },
    {
      "pair": [
        "Ġme",
        "adow"
      ],
      "token": "Ġmeadow"
    },
    {
      "pair": [
        "Ġspot",
        "ted"
      ],
      "token": "Ġspotted"
    },
    {
      "pair": [
        "Ġne",
        "ck"
      ],
      "token": "Ġneck"
    },
    {
      "pair": [
        "ce",
        "pt"
      ],
      "token": "cept"
    },
    {
      "pair": [
        "Ġsh",
        "r"
      ],
      "token": "Ġshr"
    },
    {
      "pair": [
        "g",
        "round"
      ],
      "token": "ground"
    },
    {
      "pair": [
        "s",
        "c"
      ],
      "token": "sc"
    },
    {
      "pair": [
        "Ġst",
        "one"
      ],
      "token": "Ġstone"
    },
    {
      "pair": [
        "Ġwho",
        "le"
      ],
      "token": "Ġwhole"
    },
    {
      "pair": [
        "Ġso",
        "l"
      ],
      "token": "Ġsol"
    },
    {
      "pair": [
        "Ġa",
        "p"
      ],
      "token": "Ġap"
    },
    {
      "pair": [
        "Ġwr",
        "ite"
      ],
      "token": "Ġwrite"
    },
    {
      "pair": [
        "ur",
        "se"
      ],
      "token": "urse"
    },
    {
      "pair": [
        "Ġm",
        "ine"
      ],
      "token": "Ġmine"
    },
    {
      "pair": [
        "Ġon",
        "es"
      ],
      "token": "Ġones"
    },
    {
      "pair": [
        "Ġang",
        "el"
      ],
      "token": "Ġangel"
    },
    {
      "pair": [
        "ut",
        "s"
      ],
      "token": "uts"
    },
    {
      "pair": [
        "Ġcray",
        "ons"
      ],
      "token": "Ġcrayons"
    },
    {
      "pair": [
        "o",
        "nd"
      ],
      "token": "ond"
    },
    {
      "pair": [
        "Ġbir",
        "thday"
      ],
      "token": "Ġbirthday"
    },
    {
      "pair": [
        "Ġno",
        "se"
      ],
      "token": "Ġnose"
    },
    {
      "pair": [
        "i",
        "ver"
      ],
      "token": "iver"
    },
    {
      "pair": [
        "Ġbed",
        "room"
      ],
      "token": "Ġbedroom"
    },
    {
      "pair": [
        "Ġg",
        "ames"
      ],
      "token": "Ġgames"
    },
    {
      "pair": [
        "Ġbu",
        "s"
      ],
      "token": "Ġbus"
    },
    {
      "pair": [
        "Ġfr",
        "on"
      ],
      "token": "Ġfron"
    },
    {
      "pair": [
        "Ġfron",
        "t"
      ],
      "token": "Ġfront"
    },
    {
      "pair": [
        "ĠJim",
        "my"
      ],
      "token": "ĠJimmy"
    },
    {
      "pair": [
        "Ġp",
        "ast"
      ],
      "token": "Ġpast"
    },
    {
      "pair": [
        "Åĵ",
        "I"
      ],
      "token": "ÅĵI"
    },
    {
      "pair": [
        "Ġas",
        "leep"
      ],
      "token": "Ġasleep"
    },
    {
      "pair": [
        "Ġwh",
        "ich"
      ],
      "token": "Ġwhich"
    },
    {
      "pair": [
        "or",
        "d"
      ],
      "token": "ord"
    },
    {
      "pair": [
        "Ġst",
        "ir"
      ],
      "token": "Ġstir"
    },
    {
      "pair": [
        "Ġmin",
        "ut"
      ],
      "token": "Ġminut"
    },
    {
      "pair": [
        "Ġv",
        "ill"
      ],
      "token": "Ġvill"
    },
    {
      "pair": [
        "Ġc",
        "omet"
      ],
      "token": "Ġcomet"
    },
    {
      "pair": [
        "Ġpers",
        "on"
      ],
      "token": "Ġperson"
    },
    {
      "pair": [
        "i",
        "pp"
      ],
      "token": "ipp"
    },
    {
      "pair": [
        "Ġr",
        "ac"
      ],
      "token": "Ġrac"
    },
    {
      "pair": [
        "Ġqu",
        "een"
      ],
      "token": "Ġqueen"
    },
    {
      "pair": [
        "Ġp",
        "ot"
      ],
      "token": "Ġpot"
    },
    {
      "pair": [
        "w",
        "ard"
      ],
      "token": "ward"
    },
    {
      "pair": [
        "Ġinst",
        "ead"
      ],
      "token": "Ġinstead"
    },
    {
      "pair": [
        "er",
        "t"
      ],
      "token": "ert"
    },
    {
      "pair": [
        "st",
        "ing"
      ],
      "token": "sting"
    },
    {
      "pair": [
        "Ġfor",
        "get"
      ],
      "token": "Ġforget"
    },
    {
      "pair": [
        "Ġre",
        "c"
      ],
      "token": "Ġrec"
    },
    {
      "pair": [
        "He",
        "y"
      ],
      "token": "Hey"
    },
    {
      "pair": [
        "Ġaf",
        "ra"
      ],
      "token": "Ġafra"
    },
    {
      "pair": [
        "Ġafra",
        "id"
      ],
      "token": "Ġafraid"
    },
    {
      "pair": [
        "Ġgr",
        "oup"
      ],
      "token": "Ġgroup"
    },
    {
      "pair": [
        "Ġha",
        "ng"
      ],
      "token": "Ġhang"
    },
    {
      "pair": [
        "Ġb",
        "ike"
      ],
      "token": "Ġbike"
    },
    {
      "pair": [
        "Ġsa",
        "ng"
      ],
      "token": "Ġsang"
    },
    {
      "pair": [
        "er",
        "y"
      ],
      "token": "ery"
    },
    {
      "pair": [
        "id",
        "ent"
      ],
      "token": "ident"
    },
    {
      "pair": [
        "Tom",
        "my"
      ],
      "token": "Tommy"
    },
    {
      "pair": [
        "ĠS",
        "ome"
      ],
      "token": "ĠSome"
    },
    {
      "pair": [
        "at",
        "s"
      ],
      "token": "ats"
    },
    {
      "pair": [
        "Ġask",
        "s"
      ],
      "token": "Ġasks"
    },
    {
      "pair": [
        "Ġp",
        "udd"
      ],
      "token": "Ġpudd"
    },
    {
      "pair": [
        "Ġce",
        "le"
      ],
      "token": "Ġcele"
    },
    {
      "pair": [
        "Ġcele",
        "br"
      ],
      "token": "Ġcelebr"
    },
    {
      "pair": [
        "Ġdri",
        "ver"
      ],
      "token": "Ġdriver"
    },
    {
      "pair": [
        "Ġrainb",
        "ow"
      ],
      "token": "Ġrainbow"
    },
    {
      "pair": [
        "Ġd",
        "ance"
      ],
      "token": "Ġdance"
    },
    {
      "pair": [
        "Ġcut",
        "e"
      ],
      "token": "Ġcute"
    },
    {
      "pair": [
        "ĠGra",
        "ce"
      ],
      "token": "ĠGrace"
    },
    {
      "pair": [
        "Ġgar",
        "age"
      ],
      "token": "Ġgarage"
    },
    {
      "pair": [
        "Ġhug",
        "e"
      ],
      "token": "Ġhuge"
    },
    {
      "pair": [
        "Ġsh",
        "op"
      ],
      "token": "Ġshop"
    },
    {
      "pair": [
        "n",
        "ess"
      ],
      "token": "ness"
    },
    {
      "pair": [
        "J",
        "im"
      ],
      "token": "Jim"
    },
    {
      "pair": [
        "Ġint",
        "e"
      ],
      "token": "Ġinte"
    },
    {
      "pair": [
        "Ġinte",
        "re"
      ],
      "token": "Ġintere"
    },
    {
      "pair": [
        "l",
        "a"
      ],
      "token": "la"
    },
    {
      "pair": [
        "Ġapp",
        "eared"
      ],
      "token": "Ġappeared"
    },
    {
      "pair": [
        "Ġplay",
        "ground"
      ],
      "token": "Ġplayground"
    },
    {
      "pair": [
        "Ġtow",
        "er"
      ],
      "token": "Ġtower"
    },
    {
      "pair": [
        "Ġsp",
        "icy"
      ],
      "token": "Ġspicy"
    },
    {
      "pair": [
        "Ġp",
        "ower"
      ],
      "token": "Ġpower"
    },
    {
      "pair": [
        "Ġb",
        "ought"
      ],
      "token": "Ġbought"
    },
    {
      "pair": [
        "Ġd",
        "i"
      ],
      "token": "Ġdi"
    },
    {
      "pair": [
        "Ġb",
        "ask"
      ],
      "token": "Ġbask"
    },
    {
      "pair": [
        "Ġbask",
        "et"
      ],
      "token": "Ġbasket"
    },
    {
      "pair": [
        "Ġthr",
        "ow"
      ],
      "token": "Ġthrow"
    },
    {
      "pair": [
        "Ġch",
        "ick"
      ],
      "token": "Ġchick"
    },
    {
      "pair": [
        "Ġben",
        "ch"
      ],
      "token": "Ġbench"
    },
    {
      "pair": [
        "Ġp",
        "ig"
      ],
      "token": "Ġpig"
    },
    {
      "pair": [
        "Ġl",
        "ar"
      ],
      "token": "Ġlar"
    },
    {
      "pair": [
        "Ġmo",
        "on"
      ],
      "token": "Ġmoon"
    },
    {
      "pair": [
        "op",
        "e"
      ],
      "token": "ope"
    },
    {
      "pair": [
        "Ġlo",
        "ves"
      ],
      "token": "Ġloves"
    },
    {
      "pair": [
        "Ġsp",
        "id"
      ],
      "token": "Ġspid"
    },
    {
      "pair": [
        "Ġsun",
        "ny"
      ],
      "token": "Ġsunny"
    },
    {
      "pair": [
        "Ġr",
        "ound"
      ],
      "token": "Ġround"
    },
    {
      "pair": [
        "Ġas",
        "h"
      ],
      "token": "Ġash"
    },
    {
      "pair": [
        "ble",
        "m"
      ],
      "token": "blem"
    },
    {
      "pair": [
        "Ġbe",
        "ll"
      ],
      "token": "Ġbell"
    },
    {
      "pair": [
        "ow",
        "ed"
      ],
      "token": "owed"
    },
    {
      "pair": [
        "Ġsound",
        "s"
      ],
      "token": "Ġsounds"
    },
    {
      "pair": [
        "i",
        "ble"
      ],
      "token": "ible"
    },
    {
      "pair": [
        "Ġfair",
        "y"
      ],
      "token": "Ġfairy"
    },
    {
      "pair": [
        "Ġpen",
        "ny"
      ],
      "token": "Ġpenny"
    },
    {
      "pair": [
        "Ġz",
        "oom"
      ],
      "token": "Ġzoom"
    },
    {
      "pair": [
        "ĠTh",
        "ank"
      ],
      "token": "ĠThank"
    },
    {
      "pair": [
        "Ġgi",
        "ves"
      ],
      "token": "Ġgives"
    },
    {
      "pair": [
        "Ġp",
        "ool"
      ],
      "token": "Ġpool"
    },
    {
      "pair": [
        "m",
        "an"
      ],
      "token": "man"
    },
    {
      "pair": [
        "ĠJ",
        "ake"
      ],
      "token": "ĠJake"
    },
    {
      "pair": [
        "Ġsh",
        "ore"
      ],
      "token": "Ġshore"
    },
    {
      "pair": [
        "Ġw",
        "ise"
      ],
      "token": "Ġwise"
    },
    {
      "pair": [
        "G",
        "ood"
      ],
      "token": "Good"
    },
    {
      "pair": [
        "Ġe",
        "as"
      ],
      "token": "Ġeas"
    },
    {
      "pair": [
        "Ġscre",
        "amed"
      ],
      "token": "Ġscreamed"
    },
    {
      "pair": [
        "ĠEvery",
        "where"
      ],
      "token": "ĠEverywhere"
    },
    {
      "pair": [
        "Ġpro",
        "blem"
      ],
      "token": "Ġproblem"
    },
    {
      "pair": [
        "Ġspark",
        "ly"
      ],
      "token": "Ġsparkly"
    },
    {
      "pair": [
        "Ġa",
        "ct"
      ],
      "token": "Ġact"
    },
    {
      "pair": [
        "a",
        "ur"
      ],
      "token": "aur"
    },
    {
      "pair": [
        "Ġc",
        "alm"
      ],
      "token": "Ġcalm"
    },
    {
      "pair": [
        "Ġhe",
        "llo"
      ],
      "token": "Ġhello"
    },
    {
      "pair": [
        "er",
        "ry"
      ],
      "token": "erry"
    },
    {
      "pair": [
        "ke",
        "y"
      ],
      "token": "key"
    },
    {
      "pair": [
        "it",
        "y"
      ],
      "token": "ity"
    },
    {
      "pair": [
        "Ġw",
        "he"
      ],
      "token": "Ġwhe"
    },
    {
      "pair": [
        "Ġdri",
        "ve"
      ],
      "token": "Ġdrive"
    },
    {
      "pair": [
        "Ġli",
        "ft"
      ],
      "token": "Ġlift"
    },
    {
      "pair": [
        "Ġb",
        "ur"
      ],
      "token": "Ġbur"
    },
    {
      "pair": [
        "Ġpu",
        "zz"
      ],
      "token": "Ġpuzz"
    },
    {
      "pair": [
        "Ġf",
        "ountain"
      ],
      "token": "Ġfountain"
    },
    {
      "pair": [
        "Ġlar",
        "ge"
      ],
      "token": "Ġlarge"
    },
    {
      "pair": [
        "Ġc",
        "ross"
      ],
      "token": "Ġcross"
    },
    {
      "pair": [
        "Ġacc",
        "ident"
      ],
      "token": "Ġaccident"
    },
    {
      "pair": [
        "ĠThe",
        "ir"
      ],
      "token": "ĠTheir"
    },
    {
      "pair": [
        "Ġsleep",
        "y"
      ],
      "token": "Ġsleepy"
    },
    {
      "pair": [
        "O",
        "f"
      ],
      "token": "Of"
    },
    {
      "pair": [
        "ĠFl",
        "uffy"
      ],
      "token": "ĠFluffy"
    },
    {
      "pair": [
        "Ġs",
        "ick"
      ],
      "token": "Ġsick"
    },
    {
      "pair": [
        "Ġth",
        "in"
      ],
      "token": "Ġthin"
    },
    {
      "pair": [
        "Ġes",
        "c"
      ],
      "token": "Ġesc"
    },
    {
      "pair": [
        "Ġe",
        "leph"
      ],
      "token": "Ġeleph"
    },
    {
      "pair": [
        "Ġeleph",
        "ant"
      ],
      "token": "Ġelephant"
    },
    {
      "pair": [
        "anc",
        "y"
      ],
      "token": "ancy"
    },
    {
      "pair": [
        "ĠC",
        "h"
      ],
      "token": "ĠCh"
    },
    {
      "pair": [
        "Ġm",
        "ind"
      ],
      "token": "Ġmind"
    },
    {
      "pair": [
        "Ġg",
        "em"
      ],
      "token": "Ġgem"
    },
    {
      "pair": [
        "Ġcreat",
        "ure"
      ],
      "token": "Ġcreature"
    },
    {
      "pair": [
        "Ġwould",
        "n"
      ],
      "token": "Ġwouldn"
    },
    {
      "pair": [
        "Ġsee",
        "k"
      ],
      "token": "Ġseek"
    },
    {
      "pair": [
        "fort",
        "able"
      ],
      "token": "fortable"
    },
    {
      "pair": [
        "Ġche",
        "st"
      ],
      "token": "Ġchest"
    },
    {
      "pair": [
        "Ġstrong",
        "er"
      ],
      "token": "Ġstronger"
    },
    {
      "pair": [
        "ĠM",
        "ama"
      ],
      "token": "ĠMama"
    },
    {
      "pair": [
        "Ġph",
        "one"
      ],
      "token": "Ġphone"
    },
    {
      "pair": [
        "ĠEm",
        "ma"
      ],
      "token": "ĠEmma"
    },
    {
      "pair": [
        "b",
        "all"
      ],
      "token": "ball"
    },
    {
      "pair": [
        "Ġpl",
        "ane"
      ],
      "token": "Ġplane"
    },
    {
      "pair": [
        "I",
        "n"
      ],
      "token": "In"
    },
    {
      "pair": [
        "ĠTo",
        "gether"
      ],
      "token": "ĠTogether"
    },
    {
      "pair": [
        "Ġhelp",
        "ful"
      ],
      "token": "Ġhelpful"
    },
    {
      "pair": [
        "Ġmyster",
        "ious"
      ],
      "token": "Ġmysterious"
    },
    {
      "pair": [
        "Ġs",
        "oup"
      ],
      "token": "Ġsoup"
    },
    {
      "pair": [
        "m",
        "er"
      ],
      "token": "mer"
    },
    {
      "pair": [
        "Ġgather",
        "ed"
      ],
      "token": "Ġgathered"
    },
    {
      "pair": [
        "Ġk",
        "itty"
      ],
      "token": "Ġkitty"
    },
    {
      "pair": [
        "Ġg",
        "igg"
      ],
      "token": "Ġgigg"
    },
    {
      "pair": [
        "Ġsail",
        "ed"
      ],
      "token": "Ġsailed"
    },
    {
      "pair": [
        "ur",
        "ry"
      ],
      "token": "urry"
    },
    {
      "pair": [
        "Ġcar",
        "ry"
      ],
      "token": "Ġcarry"
    },
    {
      "pair": [
        "Ġl",
        "it"
      ],
      "token": "Ġlit"
    },
    {
      "pair": [
        "J",
        "ane"
      ],
      "token": "Jane"
    },
    {
      "pair": [
        "Ġvill",
        "age"
      ],
      "token": "Ġvillage"
    },
    {
      "pair": [
        "Ġsw",
        "ings"
      ],
      "token": "Ġswings"
    },
    {
      "pair": [
        "S",
        "t"
      ],
      "token": "St"
    },
    {
      "pair": [
        "Ġcar",
        "ried"
      ],
      "token": "Ġcarried"
    },
    {
      "pair": [
        "Ġj",
        "ung"
      ],
      "token": "Ġjung"
    },
    {
      "pair": [
        "Ġjung",
        "le"
      ],
      "token": "Ġjungle"
    },
    {
      "pair": [
        "Ġst",
        "ream"
      ],
      "token": "Ġstream"
    },
    {
      "pair": [
        "Ġs",
        "er"
      ],
      "token": "Ġser"
    },
    {
      "pair": [
        "Ġcou",
        "ch"
      ],
      "token": "Ġcouch"
    },
    {
      "pair": [
        "ĠSomet",
        "imes"
      ],
      "token": "ĠSometimes"
    },
    {
      "pair": [
        "Ġt",
        "ape"
      ],
      "token": "Ġtape"
    },
    {
      "pair": [
        "Ġte",
        "ach"
      ],
      "token": "Ġteach"
    },
    {
      "pair": [
        "Ġ",
        "'"
      ],
      "token": "Ġ'"
    },
    {
      "pair": [
        "Ġche",
        "w"
      ],
      "token": "Ġchew"
    },
    {
      "pair": [
        "ĠF",
        "inally"
      ],
      "token": "ĠFinally"
    },
    {
      "pair": [
        "u",
        "al"
      ],
      "token": "ual"
    },
    {
      "pair": [
        "Ġsn",
        "ee"
      ],
      "token": "Ġsnee"
    },
    {
      "pair": [
        "Ġm",
        "atter"
      ],
      "token": "Ġmatter"
    },
    {
      "pair": [
        "Ġintere",
        "sting"
      ],
      "token": "Ġinteresting"
    },
    {
      "pair": [
        "Ġstu",
        "dy"
      ],
      "token": "Ġstudy"
    },
    {
      "pair": [
        "Ġsmell",
        "ed"
      ],
      "token": "Ġsmelled"
    },
    {
      "pair": [
        "Ġd",
        "ist"
      ],
      "token": "Ġdist"
    },
    {
      "pair": [
        "ĠAnd",
        "y"
      ],
      "token": "ĠAndy"
    },
    {
      "pair": [
        "or",
        "n"
      ],
      "token": "orn"
    },
    {
      "pair": [
        "Ġpic",
        "n"
      ],
      "token": "Ġpicn"
    },
    {
      "pair": [
        "Ġpicn",
        "ic"
      ],
      "token": "Ġpicnic"
    },
    {
      "pair": [
        "Ġpr",
        "ot"
      ],
      "token": "Ġprot"
    },
    {
      "pair": [
        "Ġ",
        "ent"
      ],
      "token": "Ġent"
    },
    {
      "pair": [
        "o",
        "ve"
      ],
      "token": "ove"
    },
    {
      "pair": [
        "Ġbreat",
        "h"
      ],
      "token": "Ġbreath"
    },
    {
      "pair": [
        "Ġje",
        "al"
      ],
      "token": "Ġjeal"
    },
    {
      "pair": [
        "Ġjeal",
        "ous"
      ],
      "token": "Ġjealous"
    },
    {
      "pair": [
        "ĠS",
        "t"
      ],
      "token": "ĠSt"
    },
    {
      "pair": [
        "as",
        "er"
      ],
      "token": "aser"
    },
    {
      "pair": [
        "h",
        "in"
      ],
      "token": "hin"
    },
    {
      "pair": [
        "ĠK",
        "itty"
      ],
      "token": "ĠKitty"
    },
    {
      "pair": [
        "Ġsh",
        "ar"
      ],
      "token": "Ġshar"
    },
    {
      "pair": [
        "Ġshar",
        "p"
      ],
      "token": "Ġsharp"
    },
    {
      "pair": [
        "Ġwait",
        "ing"
      ],
      "token": "Ġwaiting"
    },
    {
      "pair": [
        "Ġcle",
        "ver"
      ],
      "token": "Ġclever"
    },
    {
      "pair": [
        "M",
        "ia"
      ],
      "token": "Mia"
    },
    {
      "pair": [
        "N",
        "ow"
      ],
      "token": "Now"
    },
    {
      "pair": [
        "Ġdanc",
        "ed"
      ],
      "token": "Ġdanced"
    },
    {
      "pair": [
        "L",
        "ater"
      ],
      "token": "Later"
    },
    {
      "pair": [
        "Ġsp",
        "o"
      ],
      "token": "Ġspo"
    },
    {
      "pair": [
        "Ġjump",
        "ing"
      ],
      "token": "Ġjumping"
    },
    {
      "pair": [
        "Ġpoin",
        "ted"
      ],
      "token": "Ġpointed"
    },
    {
      "pair": [
        "Ġb",
        "a"
      ],
      "token": "Ġba"
    },
    {
      "pair": [
        "Ġp",
        "ile"
      ],
      "token": "Ġpile"
    },
    {
      "pair": [
        "Ġv",
        "al"
      ],
      "token": "Ġval"
    },
    {
      "pair": [
        "Ġcolour",
        "ful"
      ],
      "token": "Ġcolourful"
    },
    {
      "pair": [
        "Ġlove",
        "ly"
      ],
      "token": "Ġlovely"
    },
    {
      "pair": [
        "Ġg",
        "as"
      ],
      "token": "Ġgas"
    },
    {
      "pair": [
        "Ġche",
        "er"
      ],
      "token": "Ġcheer"
    },
    {
      "pair": [
        "um",
        "ber"
      ],
      "token": "umber"
    },
    {
      "pair": [
        "Ġs",
        "ur"
      ],
      "token": "Ġsur"
    },
    {
      "pair": [
        "le",
        "t"
      ],
      "token": "let"
    },
    {
      "pair": [
        "Ġprot",
        "ect"
      ],
      "token": "Ġprotect"
    },
    {
      "pair": [
        "bo",
        "ard"
      ],
      "token": "board"
    },
    {
      "pair": [
        "Ġsp",
        "in"
      ],
      "token": "Ġspin"
    },
    {
      "pair": [
        "Ġwa",
        "nder"
      ],
      "token": "Ġwander"
    },
    {
      "pair": [
        "Ġb",
        "and"
      ],
      "token": "Ġband"
    },
    {
      "pair": [
        "an",
        "o"
      ],
      "token": "ano"
    },
    {
      "pair": [
        "Ġpe",
        "an"
      ],
      "token": "Ġpean"
    },
    {
      "pair": [
        "Ġput",
        "s"
      ],
      "token": "Ġputs"
    },
    {
      "pair": [
        "Ġhe",
        "ars"
      ],
      "token": "Ġhears"
    },
    {
      "pair": [
        "ul",
        "ar"
      ],
      "token": "ular"
    },
    {
      "pair": [
        "id",
        "dle"
      ],
      "token": "iddle"
    },
    {
      "pair": [
        "re",
        "ad"
      ],
      "token": "read"
    },
    {
      "pair": [
        "ig",
        "hed"
      ],
      "token": "ighed"
    },
    {
      "pair": [
        "Ġe",
        "ag"
      ],
      "token": "Ġeag"
    },
    {
      "pair": [
        "Ġar",
        "row"
      ],
      "token": "Ġarrow"
    },
    {
      "pair": [
        "B",
        "ob"
      ],
      "token": "Bob"
    },
    {
      "pair": [
        "Ġfa",
        "c"
      ],
      "token": "Ġfac"
    },
    {
      "pair": [
        "Ġshe",
        "lf"
      ],
      "token": "Ġshelf"
    },
    {
      "pair": [
        "C",
        "ome"
      ],
      "token": "Come"
    },
    {
      "pair": [
        "on",
        "es"
      ],
      "token": "ones"
    },
    {
      "pair": [
        "Ġtri",
        "p"
      ],
      "token": "Ġtrip"
    },
    {
      "pair": [
        "Ġwa",
        "ve"
      ],
      "token": "Ġwave"
    },
    {
      "pair": [
        "Ġf",
        "ing"
      ],
      "token": "Ġfing"
    },
    {
      "pair": [
        "Ġgi",
        "ant"
      ],
      "token": "Ġgiant"
    },
    {
      "pair": [
        "Ġse",
        "at"
      ],
      "token": "Ġseat"
    },
    {
      "pair": [
        "Ġgra",
        "nd"
      ],
      "token": "Ġgrand"
    },
    {
      "pair": [
        "Ġr",
        "ing"
      ],
      "token": "Ġring"
    },
    {
      "pair": [
        "Ġl",
        "ucky"
      ],
      "token": "Ġlucky"
    },
    {
      "pair": [
        "Ġthank",
        "ful"
      ],
      "token": "Ġthankful"
    },
    {
      "pair": [
        "itt",
        "ens"
      ],
      "token": "ittens"
    },
    {
      "pair": [
        "Ġb",
        "one"
      ],
      "token": "Ġbone"
    },
    {
      "pair": [
        "Ġp",
        "urse"
      ],
      "token": "Ġpurse"
    },
    {
      "pair": [
        "Ġfor",
        "k"
      ],
      "token": "Ġfork"
    },
    {
      "pair": [
        "ĠGra",
        "ndma"
      ],
      "token": "ĠGrandma"
    },
    {
      "pair": [
        "Ġm",
        "ed"
      ],
      "token": "Ġmed"
    },
    {
      "pair": [
        "Ġk",
        "itten"
      ],
      "token": "Ġkitten"
    },
    {
      "pair": [
        "Ġfl",
        "ash"
      ],
      "token": "Ġflash"
    },
    {
      "pair": [
        "Ġpol",
        "ice"
      ],
      "token": "Ġpolice"
    },
    {
      "pair": [
        "Ġsh",
        "irt"
      ],
      "token": "Ġshirt"
    },
    {
      "pair": [
        "Ġtr",
        "ust"
      ],
      "token": "Ġtrust"
    },
    {
      "pair": [
        "Ġpa",
        "w"
      ],
      "token": "Ġpaw"
    },
    {
      "pair": [
        "Ġp",
        "ie"
      ],
      "token": "Ġpie"
    },
    {
      "pair": [
        "Ġmu",
        "d"
      ],
      "token": "Ġmud"
    },
    {
      "pair": [
        "Ġw",
        "ide"
      ],
      "token": "Ġwide"
    },
    {
      "pair": [
        "Ġsp",
        "read"
      ],
      "token": "Ġspread"
    },
    {
      "pair": [
        "Ġla",
        "w"
      ],
      "token": "Ġlaw"
    },
    {
      "pair": [
        "Ġtal",
        "king"
      ],
      "token": "Ġtalking"
    },
    {
      "pair": [
        "Ġsa",
        "f"
      ],
      "token": "Ġsaf"
    },
    {
      "pair": [
        "u",
        "sh"
      ],
      "token": "ush"
    },
    {
      "pair": [
        "u",
        "ce"
      ],
      "token": "uce"
    },
    {
      "pair": [
        "Ġtast",
        "y"
      ],
      "token": "Ġtasty"
    },
    {
      "pair": [
        "Ġs",
        "our"
      ],
      "token": "Ġsour"
    },
    {
      "pair": [
        "Ġbec",
        "ome"
      ],
      "token": "Ġbecome"
    },
    {
      "pair": [
        "Ġex",
        "p"
      ],
      "token": "Ġexp"
    },
    {
      "pair": [
        "an",
        "ny"
      ],
      "token": "anny"
    },
    {
      "pair": [
        "Ġm",
        "ach"
      ],
      "token": "Ġmach"
    },
    {
      "pair": [
        "Ġmo",
        "le"
      ],
      "token": "Ġmole"
    },
    {
      "pair": [
        "Ġwhe",
        "el"
      ],
      "token": "Ġwheel"
    },
    {
      "pair": [
        "Ġor",
        "gan"
      ],
      "token": "Ġorgan"
    },
    {
      "pair": [
        "Ġgent",
        "ly"
      ],
      "token": "Ġgently"
    },
    {
      "pair": [
        "Ġcr",
        "ack"
      ],
      "token": "Ġcrack"
    },
    {
      "pair": [
        "or",
        "s"
      ],
      "token": "ors"
    },
    {
      "pair": [
        "Ġmight",
        "y"
      ],
      "token": "Ġmighty"
    },
    {
      "pair": [
        "Ġl",
        "amp"
      ],
      "token": "Ġlamp"
    },
    {
      "pair": [
        "Ġc",
        "ab"
      ],
      "token": "Ġcab"
    },
    {
      "pair": [
        "Ġcab",
        "in"
      ],
      "token": "Ġcabin"
    },
    {
      "pair": [
        "Ġbu",
        "ll"
      ],
      "token": "Ġbull"
    },
    {
      "pair": [
        "Ġswim",
        "ming"
      ],
      "token": "Ġswimming"
    },
    {
      "pair": [
        "epend",
        "able"
      ],
      "token": "ependable"
    },
    {
      "pair": [
        "Ġs",
        "elf"
      ],
      "token": "Ġself"
    },
    {
      "pair": [
        "Ġthe",
        "se"
      ],
      "token": "Ġthese"
    },
    {
      "pair": [
        "Ġs",
        "uc"
      ],
      "token": "Ġsuc"
    },
    {
      "pair": [
        "Ġpretend",
        "ed"
      ],
      "token": "Ġpretended"
    },
    {
      "pair": [
        "Ġwas",
        "h"
      ],
      "token": "Ġwash"
    },
    {
      "pair": [
        "Ġeag",
        "er"
      ],
      "token": "Ġeager"
    },
    {
      "pair": [
        "Ġw",
        "ra"
      ],
      "token": "Ġwra"
    },
    {
      "pair": [
        "Ġdir",
        "t"
      ],
      "token": "Ġdirt"
    },
    {
      "pair": [
        "Ġb",
        "al"
      ],
      "token": "Ġbal"
    },
    {
      "pair": [
        "Ġst",
        "ood"
      ],
      "token": "Ġstood"
    },
    {
      "pair": [
        "Ġto",
        "m"
      ],
      "token": "Ġtom"
    },
    {
      "pair": [
        "Ġany",
        "one"
      ],
      "token": "Ġanyone"
    },
    {
      "pair": [
        "l",
        "and"
      ],
      "token": "land"
    },
    {
      "pair": [
        "Ġrec",
        "ord"
      ],
      "token": "Ġrecord"
    },
    {
      "pair": [
        "ĠH",
        "ow"
      ],
      "token": "ĠHow"
    },
    {
      "pair": [
        "Ġp",
        "ill"
      ],
      "token": "Ġpill"
    },
    {
      "pair": [
        "Ġm",
        "ummy"
      ],
      "token": "Ġmummy"
    },
    {
      "pair": [
        "Ġg",
        "en"
      ],
      "token": "Ġgen"
    },
    {
      "pair": [
        "Ġbow",
        "l"
      ],
      "token": "Ġbowl"
    },
    {
      "pair": [
        "Ġfur",
        "ry"
      ],
      "token": "Ġfurry"
    },
    {
      "pair": [
        "ĠT",
        "V"
      ],
      "token": "ĠTV"
    },
    {
      "pair": [
        "Ġhe",
        "l"
      ],
      "token": "Ġhel"
    },
    {
      "pair": [
        "u",
        "nd"
      ],
      "token": "und"
    },
    {
      "pair": [
        "Ġex",
        "am"
      ],
      "token": "Ġexam"
    },
    {
      "pair": [
        "Ġd",
        "est"
      ],
      "token": "Ġdest"
    },
    {
      "pair": [
        "Ġfight",
        "ing"
      ],
      "token": "Ġfighting"
    },
    {
      "pair": [
        "Ġch",
        "oc"
      ],
      "token": "Ġchoc"
    },
    {
      "pair": [
        "Ġchoc",
        "ol"
      ],
      "token": "Ġchocol"
    },
    {
      "pair": [
        "Ġchocol",
        "ate"
      ],
      "token": "Ġchocolate"
    },
    {
      "pair": [
        "Ġcu",
        "sh"
      ],
      "token": "Ġcush"
    },
    {
      "pair": [
        "Ġc",
        "age"
      ],
      "token": "Ġcage"
    },
    {
      "pair": [
        "Ġheal",
        "thy"
      ],
      "token": "Ġhealthy"
    },
    {
      "pair": [
        "Ġwe",
        "ak"
      ],
      "token": "Ġweak"
    },
    {
      "pair": [
        "Ġspid",
        "er"
      ],
      "token": "Ġspider"
    },
    {
      "pair": [
        "Ġpeace",
        "ful"
      ],
      "token": "Ġpeaceful"
    },
    {
      "pair": [
        "Ġho",
        "pping"
      ],
      "token": "Ġhopping"
    },
    {
      "pair": [
        "Ġself",
        "ish"
      ],
      "token": "Ġselfish"
    },
    {
      "pair": [
        "Ġkn",
        "ocked"
      ],
      "token": "Ġknocked"
    },
    {
      "pair": [
        "Ġsmell",
        "y"
      ],
      "token": "Ġsmelly"
    },
    {
      "pair": [
        "Ġco",
        "in"
      ],
      "token": "Ġcoin"
    },
    {
      "pair": [
        "Ġpie",
        "ce"
      ],
      "token": "Ġpiece"
    },
    {
      "pair": [
        "Ġl",
        "ater"
      ],
      "token": "Ġlater"
    },
    {
      "pair": [
        "Ġg",
        "un"
      ],
      "token": "Ġgun"
    },
    {
      "pair": [
        "h",
        "ile"
      ],
      "token": "hile"
    },
    {
      "pair": [
        "Ġtal",
        "ked"
      ],
      "token": "Ġtalked"
    },
    {
      "pair": [
        "Ġun",
        "us"
      ],
      "token": "Ġunus"
    },
    {
      "pair": [
        "Ġunus",
        "ual"
      ],
      "token": "Ġunusual"
    },
    {
      "pair": [
        "Ġb",
        "lew"
      ],
      "token": "Ġblew"
    },
    {
      "pair": [
        "Ġw",
        "ip"
      ],
      "token": "Ġwip"
    },
    {
      "pair": [
        "Ġt",
        "ie"
      ],
      "token": "Ġtie"
    },
    {
      "pair": [
        "Ġt",
        "id"
      ],
      "token": "Ġtid"
    },
    {
      "pair": [
        "Sara",
        "h"
      ],
      "token": "Sarah"
    },
    {
      "pair": [
        "The",
        "ir"
      ],
      "token": "Their"
    },
    {
      "pair": [
        "Ġretur",
        "ned"
      ],
      "token": "Ġreturned"
    },
    {
      "pair": [
        "Ġas",
        "king"
      ],
      "token": "Ġasking"
    },
    {
      "pair": [
        "Ġgen",
        "erous"
      ],
      "token": "Ġgenerous"
    },
    {
      "pair": [
        "Ġwe",
        "aring"
      ],
      "token": "Ġwearing"
    },
    {
      "pair": [
        "Ġstick",
        "s"
      ],
      "token": "Ġsticks"
    },
    {
      "pair": [
        "Ġsc",
        "r"
      ],
      "token": "Ġscr"
    },
    {
      "pair": [
        "Ġbath",
        "room"
      ],
      "token": "Ġbathroom"
    },
    {
      "pair": [
        "ite",
        "ment"
      ],
      "token": "itement"
    },
    {
      "pair": [
        "Ġhid",
        "ing"
      ],
      "token": "Ġhiding"
    },
    {
      "pair": [
        "ĠE",
        "ven"
      ],
      "token": "ĠEven"
    },
    {
      "pair": [
        "oo",
        "f"
      ],
      "token": "oof"
    },
    {
      "pair": [
        "u",
        "p"
      ],
      "token": "up"
    },
    {
      "pair": [
        "Ġapp",
        "les"
      ],
      "token": "Ġapples"
    },
    {
      "pair": [
        "Ġsail",
        "or"
      ],
      "token": "Ġsailor"
    },
    {
      "pair": [
        "Ġgo",
        "at"
      ],
      "token": "Ġgoat"
    },
    {
      "pair": [
        "Ġcook",
        "ie"
      ],
      "token": "Ġcookie"
    },
    {
      "pair": [
        "Ġn",
        "uts"
      ],
      "token": "Ġnuts"
    },
    {
      "pair": [
        "Ġbo",
        "ard"
      ],
      "token": "Ġboard"
    },
    {
      "pair": [
        "Ġgo",
        "es"
      ],
      "token": "Ġgoes"
    },
    {
      "pair": [
        "Ġpudd",
        "le"
      ],
      "token": "Ġpuddle"
    },
    {
      "pair": [
        "Ġt",
        "est"
      ],
      "token": "Ġtest"
    },
    {
      "pair": [
        "Ġcl",
        "ass"
      ],
      "token": "Ġclass"
    },
    {
      "pair": [
        "Ġe",
        "mb"
      ],
      "token": "Ġemb"
    },
    {
      "pair": [
        "Ġmess",
        "y"
      ],
      "token": "Ġmessy"
    },
    {
      "pair": [
        "Ġtast",
        "e"
      ],
      "token": "Ġtaste"
    },
    {
      "pair": [
        "Ġfix",
        "ed"
      ],
      "token": "Ġfixed"
    },
    {
      "pair": [
        "Ġm",
        "atch"
      ],
      "token": "Ġmatch"
    },
    {
      "pair": [
        "Ġco",
        "vered"
      ],
      "token": "Ġcovered"
    },
    {
      "pair": [
        "Ġru",
        "ined"
      ],
      "token": "Ġruined"
    },
    {
      "pair": [
        "Ġfr",
        "own"
      ],
      "token": "Ġfrown"
    },
    {
      "pair": [
        "Ġdisapp",
        "eared"
      ],
      "token": "Ġdisappeared"
    },
    {
      "pair": [
        "Ġ",
        "icy"
      ],
      "token": "Ġicy"
    },
    {
      "pair": [
        "Ġst",
        "ep"
      ],
      "token": "Ġstep"
    },
    {
      "pair": [
        "Ġt",
        "ask"
      ],
      "token": "Ġtask"
    },
    {
      "pair": [
        "Ġtight",
        "ly"
      ],
      "token": "Ġtightly"
    },
    {
      "pair": [
        "Ġunderst",
        "ood"
      ],
      "token": "Ġunderstood"
    },
    {
      "pair": [
        "d",
        "en"
      ],
      "token": "den"
    },
    {
      "pair": [
        "Ġp",
        "in"
      ],
      "token": "Ġpin"
    },
    {
      "pair": [
        "Ġis",
        "land"
      ],
      "token": "Ġisland"
    },
    {
      "pair": [
        "p",
        "ort"
      ],
      "token": "port"
    },
    {
      "pair": [
        "Ġcor",
        "ner"
      ],
      "token": "Ġcorner"
    },
    {
      "pair": [
        "M",
        "ummy"
      ],
      "token": "Mummy"
    },
    {
      "pair": [
        "Ġru",
        "de"
      ],
      "token": "Ġrude"
    },
    {
      "pair": [
        "in",
        "ted"
      ],
      "token": "inted"
    },
    {
      "pair": [
        "Ġh",
        "ar"
      ],
      "token": "Ġhar"
    },
    {
      "pair": [
        "Ġmon",
        "key"
      ],
      "token": "Ġmonkey"
    },
    {
      "pair": [
        "Ġimp",
        "re"
      ],
      "token": "Ġimpre"
    },
    {
      "pair": [
        "Ġwh",
        "ist"
      ],
      "token": "Ġwhist"
    },
    {
      "pair": [
        "Ġexc",
        "itement"
      ],
      "token": "Ġexcitement"
    },
    {
      "pair": [
        "D",
        "ad"
      ],
      "token": "Dad"
    },
    {
      "pair": [
        "es",
        "e"
      ],
[...]
