{
  "token_to_id": {
    "<|pad|>": 0,
    "<|endoftext|>": 1,
    "<|unk|>": 2,
    "<|bos|>": 3,
    "!": 4,
    "\"": 5,
    "$": 6,
    "'": 7,
    ",": 8,
    "-": 9,
    ".": 10,
    "0": 11,
    "1": 12,
    "2": 13,
    "3": 14,
    "4": 15,
    "5": 16,
    "6": 17,
    "7": 18,
    "8": 19,
    "9": 20,
    ":": 21,
    ";": 22,
    "<": 23,
    ">": 24,
    "?": 25,
    "A": 26,
    "B": 27,
    "C": 28,
    "D": 29,
    "E": 30,
    "F": 31,
    "G": 32,
    "H": 33,
    "I": 34,
    "J": 35,
    "K": 36,
    "L": 37,
    "M": 38,
    "N": 39,
    "O": 40,
    "P": 41,
    "Q": 42,
    "R": 43,
    "S": 44,
    "T": 45,
    "U": 46,
    "V": 47,
    "W": 48,
    "X": 49,
    "Y": 50,
    "Z": 51,
    "a": 52,
    "b": 53,
    "c": 54,
    "d": 55,
    "e": 56,
    "f": 57,
    "g": 58,
    "h": 59,
    "i": 60,
    "j": 61,
    "k": 62,
    "l": 63,
    "m": 64,
    "n": 65,
    "o": 66,
    "p": 67,
    "q": 68,
    "r": 69,
    "s": 70,
    "t": 71,
    "u": 72,
    "v": 73,
    "w": 74,
    "x": 75,
    "y": 76,
    "z": 77,
    "|": 78,
    "¡": 79,
    "¢": 80,
    "¦": 81,
    "©": 82,
    "«": 83,
    "¬": 84,
    "±": 85,
    "³": 86,
    "»": 87,
    "Â": 88,
    "Ã": 89,
    "Å": 90,
    "Ë": 91,
    "â": 92,
    "Ċ": 93,
    "Ġ": 94,
    "Ģ": 95,
    "Ĥ": 96,
    "ĥ": 97,
    "Ħ": 98,
    "ĵ": 99,
    "ľ": 100,
    "Ŀ": 101,
    "he": 102,
    "Ġt": 103,
    "Ġa": 104,
    "Ġs": 105,
    "Ġw": 106,
    "nd": 107,
    "Ġthe": 108,
    "ed": 109,
    "Ġand": 110,
    "in": 111,
    "Ġto": 112,
    "Ġb": 113,
    "Ġh": 114,
    "Ġwa": 115,
    "re": 116,
    "Ġf": 117,
    "ou": 118,
    "it": 119,
    "Ġl": 120,
    "Ġc": 121,
    "er": 122,
    "Ġd": 123,
    "Ġhe": 124,
    "Ġwas": 125,
    "Ġm": 126,
    "Ġp": 127,
    "Ġo": 128,
    "ĠT": 129,
    "om": 130,
    "ay": 131,
    "ar": 132,
    "ing": 133,
    "is": 134,
    "Ġg": 135,
    "en": 136,
    "id": 137,
    "il": 138,
    "at": 139,
    "Ġn": 140,
    "Ġha": 141,
    "ĠS": 142,
    "Ġsa": 143,
    "ĠThe": 144,
    "an": 145,
    "or": 146,
    "im": 147,
    "on": 148,
    "ll": 149,
    "Ġit": 150,
    "Ġth": 151,
    "ĠH": 152,
    "le": 153,
    "et": 154,
    "ĠHe": 155,
    "ir": 156,
    "Ġher": 157,
    "ot": 158,
    "ĠShe": 159,
    "ver": 160,
    "end": 161,
    "es": 162,
    "Ġin": 163,
    "ow": 164,
    "ut": 165,
    "ck": 166,
    "ld": 167,
    "Ġu": 168,
    "ĠThey": 169,
    "Ġe": 170,
    "ig": 171,
    "oo": 172,
    "Ġbe": 173,
    "Ġr": 174,
    "Ġst": 175,
    "Ġshe": 176,
    "Ġy": 177,
    "ce": 178,
    "Ġsaid": 179,
    "ith": 180,
    "pp": 181,
    "am": 182,
    "Ġwith": 183,
    "ke": 184,
    "ĠI": 185,
    "ve": 186,
    "Ġso": 187,
    "Ġof": 188,
    "Ġ\"": 189,
    "On": 190,
    "very": 191,
    "Ġon": 192,
    "Ġhis": 193,
    "ad": 194,
    "ked": 195,
    "ft": 196,
    "Ġpl": 197,
    "ri": 198,
    "nt": 199,
    "ily": 200,
    "Ġday": 201,
    "Ġyou": 202,
    "Ġhad": 203,
    "Ġup": 204,
    "Ġthat": 205,
    "el": 206,
    "xt": 207,
    "st": 208,
    "Ġplay": 209,
    "ĠL": 210,
    "ext": 211,
    "ould": 212,
    "Ġwe": 213,
    "Ġfor": 214,
    "Ġthey": 215,
    "The": 216,
    "un": 217,
    "ĠB": 218,
    "Ġli": 219,
    "ent": 220,
    "<|": 221,
    "endo": 222,
    "endoft": 223,
    "endoftext": 224,
    "|>": 225,
    "itt": 226,
    "ch": 227,
    "Ġhapp": 228,
    "out": 229,
    "her": 230,
    "Ġsh": 231,
    "ly": 232,
    "Ġmom": 233,
    "Ġwant": 234,
    "ound": 235,
    "'s": 236,
    "all": 237,
    "Ġvery": 238,
    "ittle": 239,
    "Ġlittle": 240,
    "ome": 241,
    "Ġwh": 242,
    "ht": 243,
    "se": 244,
    "Ġnot": 245,
    "my": 246,
    "Ġk": 247,
    "Ġsm": 248,
    "Ġdo": 249,
    "Ġthere": 250,
    "ime": 251,
    "Ġtime": 252,
    ".<|": 253,
    "al": 254,
    "Ġre": 255,
    "Ġbig": 256,
    "ĠLily": 257,
    "ack": 258,
    "ĠIt": 259,
    "Ġhappy": 260,
    "Ġan": 261,
    "riend": 262,
    "Ġis": 263,
    "Ġfriend": 264,
    "Ġbut": 265,
    "Ġne": 266,
    "Ġsaw": 267,
    "ry": 268,
    "ĠM": 269,
    "Ġloo": 270,
    "ug": 271,
    "ra": 272,
    "ec": 273,
    "Ġwere": 274,
    "ake": 275,
    "One": 276,
    "ore": 277,
    ".\"": 278,
    "'t": 279,
    "ide": 280,
    "Once": 281,
    "Ġas": 282,
    "Ġbo": 283,
    "ved": 284,
    "Ġse": 285,
    "Ġhim": 286,
    "Ġtoo": 287,
    "ard": 288,
    "Ġj": 289,
    "Ġwanted": 290,
    "irl": 291,
    "Ġlo": 292,
    "Ġgirl": 293,
    "fu": 294,
    "Ġsp": 295,
    "Ġout": 296,
    "Ġgo": 297,
    "Ġupon": 298,
    "ill": 299,
    "ĠJ": 300,
    "Ġat": 301,
    "Ġthem": 302,
    "ur": 303,
    "ain": 304,
    "Ġcould": 305,
    "Ġare": 306,
    "ind": 307,
    "way": 308,
    "Ġex": 309,
    "Ġsmil": 310,
    "ĠA": 311,
    "hen": 312,
    "Ġtheir": 313,
    "round": 314,
    "!\"": 315,
    "hing": 316,
    "hed": 317,
    "ĠTim": 318,
    "Ġdid": 319,
    "ic": 320,
    "ter": 321,
    "ĠBen": 322,
    "art": 323,
    "ful": 324,
    "Ġhave": 325,
    "Ġall": 326,
    "Ġwent": 327,
    "ight": 328,
    "one": 329,
    "rom": 330,
    "Ġfriends": 331,
    "Ġcan": 332,
    "ood": 333,
    "um": 334,
    "Ġback": 335,
    "lp": 336,
    "Ġkn": 337,
    "Ġcl": 338,
    "Ġle": 339,
    "are": 340,
    "Ġfun": 341,
    "Ġhelp": 342,
    "ame": 343,
    "omet": 344,
    "oug": 345,
    "Ġaround": 346,
    "ark": 347,
    "Ġlooked": 348,
    "Ġno": 349,
    "elt": 350,
    "Ġman": 351,
    "Ġfe": 352,
    "Ġsmiled": 353,
    "Ġro": 354,
    "You": 355,
    "Ġfelt": 356,
    "Ġlike": 357,
    "Ġal": 358,
    "amed": 359,
    "ick": 360,
    "Ġsay": 361,
    "ro": 362,
    "Ã¢": 363,
    "âĤ": 364,
    "âĤ¬": 365,
    "Ġsee": 366,
    "Ġwould": 367,
    "side": 368,
    "ure": 369,
    "Ġsomet": 370,
    "Ġboy": 371,
    "ong": 372,
    "Ġsc": 373,
    "Ġtoy": 374,
    "ĠOne": 375,
    "as": 376,
    "Ġstart": 377,
    "ice": 378,
    "get": 379,
    "Ġsome": 380,
    "Ġloved": 381,
    "Ġme": 382,
    "ĠTom": 383,
    "Ġbir": 384,
    "ade": 385,
    "Ġnamed": 386,
    "Ġag": 387,
    "op": 388,
    "dd": 389,
    "Ġsomething": 390,
    "Ġwor": 391,
    "ree": 392,
    "ited": 393,
    "Ġfa": 394,
    "ĠW": 395,
    "ings": 396,
    "Ġbird": 397,
    "?\"": 398,
    "gether": 399,
    "Ġaway": 400,
    "Ġexc": 401,
    "Ġran": 402,
    "Ġstarted": 403,
    "king": 404,
    "Ġwhat": 405,
    "ag": 406,
    "Ġasked": 407,
    "Ġmake": 408,
    "own": 409,
    "oud": 410,
    "Ġmade": 411,
    "ther": 412,
    "Ġbr": 413,
    "Ġco": 414,
    "Ġtogether": 415,
    "Ġcar": 416,
    "Ġagain": 417,
    "Ġother": 418,
    "ab": 419,
    "ĠTimmy": 420,
    "ell": 421,
    ",\"": 422,
    "ared": 423,
    "pped": 424,
    "ĠE": 425,
    "ĠBut": 426,
    "Ġthen": 427,
    "ie": 428,
    "ep": 429,
    "Ġch": 430,
    "ĠYou": 431,
    "Ġfrom": 432,
    "Ġdec": 433,
    "ss": 434,
    "Ġla": 435,
    "Ġsad": 436,
    "Ġwhen": 437,
    "Ġput": 438,
    "Ġfl": 439,
    "Ġnew": 440,
    "Ġwho": 441,
    "Ġexcited": 442,
    "est": 443,
    "if": 444,
    "Ġhome": 445,
    "Ġhug": 446,
    "qu": 447,
    "Ġsays": 448,
    "ous": 449,
    "Ġmu": 450,
    "Ġfound": 451,
    "Ġevery": 452,
    "Ġab": 453,
    "ought": 454,
    "Ġget": 455,
    "Lily": 456,
    "ach": 457,
    "Ġgood": 458,
    "Ġplaying": 459,
    "pl": 460,
    "Ġpark": 461,
    "Ġv": 462,
    "Ġwal": 463,
    "Ġbl": 464,
    "ally": 465,
    "Ġdecid": 466,
    "Ġliked": 467,
    "Ġdecided": 468,
    "ried": 469,
    "Ġthings": 470,
    "ave": 471,
    "ĠD": 472,
    "Ġpr": 473,
    "ook": 474,
    "ara": 475,
    "Ġfeel": 476,
    "Ġthan": 477,
    "Ġone": 478,
    "ust": 479,
    "nder": 480,
    "hat": 481,
    "Ġbu": 482,
    "Ġgot": 483,
    "ouse": 484,
    "Ġdad": 485,
    "udd": 486,
    "Ġcare": 487,
    "Ġdown": 488,
    "Ġdog": 489,
    "Ġcame": 490,
    "our": 491,
    "Ġfind": 492,
    "Ġold": 493,
    "Ġbec": 494,
    "ap": 495,
    "Ġlook": 496,
    "nn": 497,
    "ue": 498,
    "Ġabout": 499,
    "Ġscared": 500,
    "ess": 501,
    "ite": 502,
    "Ġtake": 503,
    "ways": 504,
    "Ġyour": 505,
    "Ġtree": 506,
    "ched": 507,
    "eci": 508,
    "They": 509,
    "Ġlot": 510,
    "Ġho": 511,
    "Ġthought": 512,
    "Ġmore": 513,
    "Ġint": 514,
    "Ġalways": 515,
    "Ġkne": 516,
    "Ġtook": 517,
    "ers": 518,
    "udden": 519,
    "Ġgra": 520,
    "ened": 521,
    "ecial": 522,
    "ist": 523,
    "Ġtoys": 524,
    "Ġmy": 525,
    "Ġspecial": 526,
    "Ġke": 527,
    "Ġdidn": 528,
    "uck": 529,
    "nna": 530,
    "ise": 531,
    "ned": 532,
    "Ġpo": 533,
    "fe": 534,
    "Ġsw": 535,
    "uddenly": 536,
    "ny": 537,
    "Ġball": 538,
    "Ġmo": 539,
    "ĠMom": 540,
    "Ġlaug": 541,
    "Ġlear": 542,
    "ĠEvery": 543,
    "Ġcat": 544,
    "ak": 545,
    "Ġpre": 546,
    "ant": 547,
    "Ġwill": 548,
    "Ġoutside": 549,
    "ged": 550,
    "ĠF": 551,
    "Ġknow": 552,
    "Ġsk": 553,
    "Ġpe": 554,
    "Ġwater": 555,
    "ish": 556,
    "Ġany": 557,
    "fter": 558,
    "Ġsor": 559,
    "Ġknew": 560,
    "Ġpu": 561,
    "Ġtr": 562,
    "Ġtw": 563,
    "Ġhow": 564,
    "bb": 565,
    "Ġmuch": 566,
    "Ġexpl": 567,
    "But": 568,
    "Ġsun": 569,
    "Ġrun": 570,
    "Ġinto": 571,
    "ax": 572,
    "and": 573,
    "Ġnever": 574,
    "ive": 575,
    "Ġstr": 576,
    "oll": 577,
    "os": 578,
    "ang": 579,
    "ĠSam": 580,
    "Ġqu": 581,
    "Ġroom": 582,
    "Ġen": 583,
    "Ġover": 584,
    "ace": 585,
    "Ġproud": 586,
    "ven": 587,
    "Ġcouldn": 588,
    "ĠJo": 589,
    "au": 590,
    "reat": 591,
    "Ġshow": 592,
    "Ġsorry": 593,
    "ma": 594,
    "Ġinside": 595,
    "ĠJack": 596,
    "ĠSara": 597,
    "Ġop": 598,
    "Ġif": 599,
    "ty": 600,
    "vent": 601,
    "Ġsmall": 602,
    "Ġgave": 603,
    "Ġhouse": 604,
    "Ġjust": 605,
    "Ġor": 606,
    "Ġthis": 607,
    "Ġhand": 608,
    "uc": 609,
    "Ġmany": 610,
    "Ġtold": 611,
    "here": 612,
    "Ġeach": 613,
    "Ġcom": 614,
    "ink": 615,
    "ank": 616,
    "ion": 617,
    "Ġheard": 618,
    "Ġmommy": 619,
    "ving": 620,
    "Ġpick": 621,
    "Ġad": 622,
    "Ġwat": 623,
    "Ġoff": 624,
    "oth": 625,
    "ast": 626,
    "ough": 627,
    "ning": 628,
    "ĠSo": 629,
    "em": 630,
    "ars": 631,
    "Ġsl": 632,
    "ump": 633,
    "ady": 634,
    "Ġnice": 635,
    "ate": 636,
    "Ġhugged": 637,
    "Ġlong": 638,
    "aut": 639,
    "ause": 640,
    "etter": 641,
    "ild": 642,
    "Ġcall": 643,
    "dy": 644,
    "Ġunt": 645,
    "Ġtried": 646,
    "Ġeat": 647,
    "Ġplayed": 648,
    "other": 649,
    "Ġflow": 650,
    "Ġneed": 651,
    "Ġuntil": 652,
    "ine": 653,
    "Ġpret": 654,
    "Ġwo": 655,
    "hn": 656,
    "ĠAnna": 657,
    "Ġbox": 658,
    "Ġbeaut": 659,
    "pt": 660,
    "Ġgard": 661,
    "Ġgarden": 662,
    "Ġdre": 663,
    "ĠMax": 664,
    "Ġthanked": 665,
    "ĠWe": 666,
    "Ġbecause": 667,
    "ĠAnd": 668,
    "ber": 669,
    "Åĵ": 670,
    "ia": 671,
    "Ġanim": 672,
    "Ġanimal": 673,
    "urp": 674,
    "able": 675,
    "Ġsky": 676,
    "Ġjo": 677,
    "Ġbear": 678,
    "Ġbest": 679,
    "elf": 680,
    "Ġcu": 681,
    "ĠÃ¢": 682,
    "ves": 683,
    "iful": 684,
    "Ġfast": 685,
    "Ġbeautiful": 686,
    "iz": 687,
    "gry": 688,
    "urt": 689,
    "Ġdon": 690,
    "ile": 691,
    "ort": 692,
    "Ġlots": 693,
    "Ġtry": 694,
    "Ġend": 695,
    "Ġcareful": 696,
    "ac": 697,
    "Ġby": 698,
    "Tom": 699,
    "Ġte": 700,
    "Ġway": 701,
    "Ġdoll": 702,
    "Ġbetter": 703,
    "Ġhard": 704,
    "ect": 705,
    "ucy": 706,
    "Ġclos": 707,
    "Ġgr": 708,
    "Ġlearned": 709,
    "iny": 710,
    "Ġeven": 711,
    "Ġkind": 712,
    "ĠC": 713,
    "Ġcalled": 714,
    "Ġlaughed": 715,
    "Ġjump": 716,
    "sed": 717,
    "Ġgl": 718,
    "Ġstay": 719,
    "Mom": 720,
    "Ġfam": 721,
    "Ġcle": 722,
    "self": 723,
    "Ġunder": 724,
    "Ġim": 725,
    "Ġcome": 726,
    "rm": 727,
    "lew": 728,
    "Ġche": 729,
    "He": 730,
    "Ġtwo": 731,
    "!<|": 732,
    "sh": 733,
    "'m": 734,
    "âĤ¬â": 735,
    "Ġbra": 736,
    "Ġadvent": 737,
    "It": 738,
    "Ġfi": 739,
    "Ġstill": 740,
    "ane": 741,
    "Ġrem": 742,
    "Ġlove": 743,
    "Ġcol": 744,
    "ĠMia": 745,
    "ies": 746,
    "Ġlived": 747,
    "ished": 748,
    "Ġsn": 749,
    "ĠHis": 750,
    "fore": 751,
    "Ġloud": 752,
    "Ġfamily": 753,
    "ock": 754,
    "When": 755,
    "Ġboth": 756,
    "ary": 757,
    "Ġanimals": 758,
    "Ġhurt": 759,
    "Ġsoon": 760,
    "ĠThen": 761,
    "urpr": 762,
    "Ġsurpr": 763,
    "Ġfly": 764,
    "Ben": 765,
    "Ġexplore": 766,
    "hes": 767,
    "Ġlist": 768,
    "ase": 769,
    "igh": 770,
    "Ġlet": 771,
    "Ġstor": 772,
    "Ġfar": 773,
    "Th": 774,
    "Ġbefore": 775,
    "ĠHer": 776,
    "Ġwind": 777,
    "by": 778,
    "Ġfin": 779,
    "wn": 780,
    "Ġadventure": 781,
    "âĤ¬âĦ": 782,
    "âĤ¬âĦ¢": 783,
    "ip": 784,
    "age": 785,
    "Ġits": 786,
    "led": 787,
    "Ġflew": 788,
    "Ġkept": 789,
    "ĠFrom": 790,
    "Ġfeeling": 791,
    "ct": 792,
    "ople": 793,
    "Yes": 794,
    "ummy": 795,
    "Ġbook": 796,
    "Ġwalked": 797,
    "les": 798,
    "Ġred": 799,
    "Ġey": 800,
    "thing": 801,
    "be": 802,
    "oon": 803,
    "Ġbrave": 804,
    "ised": 805,
    "Ġangry": 806,
    "Ġnow": 807,
    "Ġfr": 808,
    "Ġbad": 809,
    "Ġshare": 810,
    "Ġshiny": 811,
    "ĠWhen": 812,
    "Ġfish": 813,
    "Ġpeople": 814,
    "eet": 815,
    "Ġbed": 816,
    "ĠLucy": 817,
    "Ġfore": 818,
    "ob": 819,
    "ool": 820,
    "Ġshould": 821,
    "Ġwonder": 822,
    "Ġcry": 823,
    "Ġground": 824,
    "Ġtruck": 825,
    "Ġsto": 826,
    "Ġever": 827,
    "aking": 828,
    "Ġcon": 829,
    "dded": 830,
    "Ġfo": 831,
    "Let": 832,
    "Ġgoing": 833,
    "iced": 834,
    "olly": 835,
    "Ġsmile": 836,
    "abb": 837,
    "Ġsafe": 838,
    "Ġboat": 839,
    "abbit": 840,
    "Ġeyes": 841,
    "Ġwr": 842,
    "Ġrock": 843,
    "maz": 844,
    "Tim": 845,
    "Ġopened": 846,
    "Ġamaz": 847,
    "Ġdis": 848,
    "Ġthr": 849,
    "Ġremem": 850,
    "Ġrabbit": 851,
    "Ġeveryone": 852,
    "Ġimp": 853,
    "Ġru": 854,
    "Ġnext": 855,
    "Ġpic": 856,
    "oy": 857,
    "Ġblue": 858,
    "Ġtre": 859,
    "Ġun": 860,
    "ting": 861,
    "No": 862,
    "so": 863,
    "ange": 864,
    "Ġnoise": 865,
    "Ġstrong": 866,
    "ious": 867,
    "That": 868,
    "ĠSuddenly": 869,
    "Ġbeing": 870,
    "Ġclean": 871,
    "Ġreal": 872,
    "Ġwork": 873,
    "ĠDad": 874,
    "illy": 875,
    "Ġide": 876,
    "ail": 877,
    "Ġalso": 878,
    "Ġwalking": 879,
    "Ġstopped": 880,
    "gan": 881,
    "ĠSp": 882,
    "Ġnoticed": 883,
    "Ġdif": 884,
    "Ġpretty": 885,
    "uch": 886,
    "Ġtur": 887,
    "raw": 888,
    "imb": 889,
    "Ġremember": 890,
    "Ġgre": 891,
    "ĠG": 892,
    "Ġplace": 893,
    "Ġquick": 894,
    "leep": 895,
    "Ġclimb": 896,
    "Ġye": 897,
    "Ġcr": 898,
    "Ġnodded": 899,
    "Ġdoor": 900,
    "Ġidea": 901,
    "Ġpain": 902,
    "joy": 903,
    "Suddenly": 904,
    "Ġcolor": 905,
    "Ġbeen": 906,
    "Ġwhile": 907,
    "Ġdel": 908,
    "Ġnear": 909,
    "Ġpicked": 910,
    "aug": 911,
    "aught": 912,
    "Ġcuri": 913,
    "Ġafter": 914,
    "So": 915,
    "ĠP": 916,
    "ge": 917,
    "ture": 918,
    "Ġmor": 919,
    "isy": 920,
    "Ġhas": 921,
    "Ġkeep": 922,
    "ble": 923,
    "Ġvo": 924,
    "ĠJohn": 925,
    "Ġwait": 926,
    "Ġdress": 927,
    "Ġbright": 928,
    "Ġquickly": 929,
    "Ġgreat": 930,
    "Ġgive": 931,
    "kay": 932,
    "ied": 933,
    "ng": 934,
    "Sara": 935,
    "Ġenjoy": 936,
    "Ġthink": 937,
    "Ġcurious": 938,
    "Ġwatch": 939,
    "ollow": 940,
    "Ġsqu": 941,
    "Ġhop": 942,
    "Ġchild": 943,
    "Ġcloser": 944,
    "Ġapp": 945,
    "ila": 946,
    "Ġhands": 947,
    "Ġgi": 948,
    "ired": 949,
    "akes": 950,
    "bbed": 951,
    "Ġhead": 952,
    "Ġlooking": 953,
    "Ġface": 954,
    "Ġforest": 955,
    "ted": 956,
    "Ġwalk": 957,
    "ĠSpot": 958,
    "Ġar": 959,
    "Jo": 960,
    "Ġfollow": 961,
    "Ġmag": 962,
    "fere": 963,
    "irst": 964,
    "Ġwhere": 965,
    "Ġdiffere": 966,
    "ff": 967,
    "Ġde": 968,
    "Ġthree": 969,
    "Ġlea": 970,
    "day": 971,
    "Ġnight": 972,
    "Ġlady": 973,
    "aybe": 974,
    "ount": 975,
    "Ġwatched": 976,
    "ĠN": 977,
    "Ġwarm": 978,
    "bye": 979,
    "th": 980,
    "Ġdifferent": 981,
    "aisy": 982,
    "Ġyell": 983,
    "Ġpicture": 984,
    "Ġsound": 985,
    "Ġflowers": 986,
    "Ġbro": 987,
    "ath": 988,
    "Ġbit": 989,
    "Ġtra": 990,
    "ĠEveryone": 991,
    "Ġshout": 992,
    "Ġbug": 993,
    "She": 994,
    "ached": 995,
    "Ġseen": 996,
    "Ġhappened": 997,
    "Ġmean": 998,
    "Ġlisten": 999,
    "Ġtell": 1000,
    "Ġgoodbye": 1001,
    "ĠSarah": 1002,
    "lly": 1003,
    "Ġpull": 1004,
    "Ġbegan": 1005,
    "lie": 1006,
    "Ġac": 1007,
    "ĠR": 1008,
    "Ġworld": 1009,
    "Ġper": 1010,
    "Ġtow": 1011,
    "Ġfood": 1012,
    "ĠJoe": 1013,
    "ĠJane": 1014,
    "ely": 1015,
    "ĠBob": 1016,
    "Ġmouse": 1017,
    "What": 1018,
    "ered": 1019,
    "Ġflower": 1020,
    "Ġgame": 1021,
    "Ġtired": 1022,
    "Ġus": 1023,
    "Ġmagic": 1024,
    "Ġstick": 1025,
    "kes": 1026,
    "nts": 1027,
    "Thank": 1028,
    "anc": 1029,
    "Ġhole": 1030,
    "Ġrain": 1031,
    "Ġown": 1032,
    "itc": 1033,
    "Ġvoice": 1034,
    "ull": 1035,
    "Ġdark": 1036,
    "ster": 1037,
    "Ġuse": 1038,
    "Ġbecame": 1039,
    "Ġsweet": 1040,
    "ized": 1041,
    "ĠMommy": 1042,
    "Ġ-": 1043,
    "ppy": 1044,
    "Ġanym": 1045,
    "Ġanymore": 1046,
    "Ġhigh": 1047,
    "ĠAs": 1048,
    "Ġgrass": 1049,
    "Ġthrough": 1050,
    "ĠSue": 1051,
    "Ġtal": 1052,
    "ream": 1053,
    "Ġmum": 1054,
    "imes": 1055,
    "Ġsleep": 1056,
    "lease": 1057,
    "where": 1058,
    "Ġkid": 1059,
    "Ġbrother": 1060,
    "Ġright": 1061,
    "Ġshowed": 1062,
    "Ġmess": 1063,
    "Ġstore": 1064,
    "arents": 1065,
    "Ġname": 1066,
    "ĠDaisy": 1067,
    "Ġgreen": 1068,
    "Ġjumped": 1069,
    "Ġflo": 1070,
    "iss": 1071,
    "Ġrepl": 1072,
    "ol": 1073,
    "Ġparents": 1074,
    "Anna": 1075,
    "ash": 1076,
    "Ġfirst": 1077,
    "Ġimport": 1078,
    "us": 1079,
    "Ġfill": 1080,
    "Ġsure": 1081,
    "Ġglad": 1082,
    "Ġhopped": 1083,
    "Ġreached": 1084,
    "Ġdoes": 1085,
    "ose": 1086,
    "Ġrunning": 1087,
    "Ġimportant": 1088,
    "Ġready": 1089,
    "Ġsand": 1090,
    "Ġonly": 1091,
    "John": 1092,
    "Ġopen": 1093,
    "Ġam": 1094,
    "Ġreally": 1095,
    "Ġgrabbed": 1096,
    "Ġblock": 1097,
    "Ġhere": 1098,
    "ass": 1099,
    "Ġwhy": 1100,
    "Ġhelped": 1101,
    "ient": 1102,
    "Ġless": 1103,
    "Ġsail": 1104,
    "Ġhaving": 1105,
    "Her": 1106,
    "Ġwood": 1107,
    "Ġunderst": 1108,
    "Ġdro": 1109,
    "Ġwonderful": 1110,
    "Ġsmell": 1111,
    "Ġcont": 1112,
    "Ġbeh": 1113,
    "Ġste": 1114,
    "Ġlearn": 1115,
    "room": 1116,
    "Ġate": 1117,
    "Ġokay": 1118,
    "ren": 1119,
    "Ġfell": 1120,
    "Ġslide": 1121,
    "Ġbirds": 1122,
    "Ġreplied": 1123,
    "ner": 1124,
    "Ġsurprise": 1125,
    "Ġsees": 1126,
    "Ġthing": 1127,
    "Ġshouted": 1128,
    "Ġyears": 1129,
    "Ġask": 1130,
    "Ġchildren": 1131,
    "Ġcold": 1132,
    "Ġkids": 1133,
    "Ġfarm": 1134,
    "Ġbutter": 1135,
    "After": 1136,
    "Ġfav": 1137,
    "Ġstory": 1138,
    "Ġwished": 1139,
    "Ġkitc": 1140,
    "Ġkitchen": 1141,
    "Ġtast": 1142,
    "zy": 1143,
    "Ġlight": 1144,
    "Ġdone": 1145,
    "Ġwaved": 1146,
    "Ġz": 1147,
    "Ġprin": 1148,
    "Ġperf": 1149,
    "Ġfro": 1150,
    "Ġfire": 1151,
    "Ġcoming": 1152,
    "ign": 1153,
    "fully": 1154,
    "ĠTh": 1155,
    "We": 1156,
    "ĠMolly": 1157,
    "Ġyellow": 1158,
    "Ġour": 1159,
    "Ġdin": 1160,
    "ĠThat": 1161,
    "Look": 1162,
    "Ġstop": 1163,
    "Ġslow": 1164,
    "Ġmon": 1165,
    "Ġhor": 1166,
    "Ġfix": 1167,
    "Ġtall": 1168,
    "Ġhimself": 1169,
    "ather": 1170,
    "ĠLila": 1171,
    "Ġforg": 1172,
    "Ġtop": 1173,
    "Ġcars": 1174,
    "Ġthank": 1175,
    "cket": 1176,
    "Ġleaves": 1177,
    "Ġpretend": 1178,
    "Ġtri": 1179,
    "ĠIn": 1180,
    "ards": 1181,
    "Ġdelic": 1182,
    "Ġremembered": 1183,
    "Ġtrees": 1184,
    "Ġsing": 1185,
    "Ġmorning": 1186,
    "ĠLet": 1187,
    "Ġri": 1188,
    "Ġspot": 1189,
    "Ġcook": 1190,
    "Ġmaking": 1191,
    "Ġsoft": 1192,
    "ĠThere": 1193,
    "Ġenjoyed": 1194,
    "Ġsho": 1195,
    "Ġlikes": 1196,
    "ĠAfter": 1197,
    "Ġcatch": 1198,
    "ance": 1199,
    "ape": 1200,
    "Ġfilled": 1201,
    "Ġballoon": 1202,
    "Jack": 1203,
    "ndma": 1204,
    "Ġspl": 1205,
    "Sam": 1206,
    "Ġamazing": 1207,
    "Ġlesson": 1208,
    "ee": 1209,
    "Ġdri": 1210,
    "Ġhat": 1211,
    "uff": 1212,
    "Ġanything": 1213,
    "Ġbehind": 1214,
    "Ġfrog": 1215,
    "Ġmove": 1216,
    "Ġdraw": 1217,
    "Ġfinished": 1218,
    "ined": 1219,
    "Ġyummy": 1220,
    "Ġread": 1221,
    "Ġlooks": 1222,
    "Ġworked": 1223,
    "Ġrealized": 1224,
    "Ġhid": 1225,
    "Ġice": 1226,
    "\".": 1227,
    "ross": 1228,
    "Ġlion": 1229,
    "Ġsat": 1230,
    "ret": 1231,
    "Ġlaugh": 1232,
    "Ġleft": 1233,
    "ued": 1234,
    "Ġwrong": 1235,
    "Ġset": 1236,
    "Ġbre": 1237,
    "Ġpet": 1238,
    "Ġblocks": 1239,
    "Ġcarefully": 1240,
    "Ġbigg": 1241,
    "Ġdr": 1242,
    "Mommy": 1243,
    "Ġheld": 1244,
    "Ġcake": 1245,
    "Ġrest": 1246,
    "Ġanother": 1247,
    "andy": 1248,
    "aring": 1249,
    "cess": 1250,
    "Ġused": 1251,
    "ins": 1252,
    "oring": 1253,
    "Ġhappily": 1254,
    "Ġhair": 1255,
    "Ġfriendly": 1256,
    "aby": 1257,
    "Ġfollowed": 1258,
    "Ġfunny": 1259,
    "icy": 1260,
    "ĠDo": 1261,
    "Ġfull": 1262,
    "Ġfavor": 1263,
    "Ġpen": 1264,
    "Ġgone": 1265,
    "hy": 1266,
    "Ġable": 1267,
    "Ġtouch": 1268,
    "Ġel": 1269,
    "Ġsurprised": 1270,
    "Ġherself": 1271,
    "Ġbutterf": 1272,
    "ul": 1273,
    "Ġworry": 1274,
    "Ġdir": 1275,
    "Ġpart": 1276,
    "Ġfavorite": 1277,
    "Ġhear": 1278,
    "Ġdeep": 1279,
    "Ġsear": 1280,
    "inally": 1281,
    "erous": 1282,
    "Ġstrange": 1283,
    "Ġfox": 1284,
    "ens": 1285,
    "Ġwindow": 1286,
    "unny": 1287,
    "pe": 1288,
    "Ġprom": 1289,
    "Ġpuppy": 1290,
    "Ġmight": 1291,
    "Ġarri": 1292,
    "Ġtable": 1293,
    "rel": 1294,
    "Ġsomeone": 1295,
    "ated": 1296,
    "sp": 1297,
    "Ġelse": 1298,
    "Ġunderstand": 1299,
    "Ġmagical": 1300,
    "Ġtight": 1301,
    "ĠCan": 1302,
    "ĠNow": 1303,
    "Ġlost": 1304,
    "pping": 1305,
    "Ġenough": 1306,
    "Ġbag": 1307,
    "Wow": 1308,
    "Ġperfect": 1309,
    "sy": 1310,
    "Ġgent": 1311,
    "Ġvis": 1312,
    "ken": 1313,
    "Don": 1314,
    "ey": 1315,
    "ation": 1316,
    "Ġbooks": 1317,
    "Ġarrived": 1318,
    "Ġturn": 1319,
    "Ġwall": 1320,
    "reed": 1321,
    "Ġfloor": 1322,
    "Ġeverything": 1323,
    "red": 1324,
    "Ġbow": 1325,
    "Ġcried": 1326,
    "ually": 1327,
    "From": 1328,
    "atter": 1329,
    "Ġwoods": 1330,
    "Ġdream": 1331,
    "Ġbroken": 1332,
    "Ġpond": 1333,
    "Ġmakes": 1334,
    "ask": 1335,
    "Ġair": 1336,
    "Ġfight": 1337,
    "ds": 1338,
    "Ġcontin": 1339,
    "Ġcut": 1340,
    "Ġcount": 1341,
    "row": 1342,
    "Ġyes": 1343,
    "Ġfinally": 1344,
    "Ġneeded": 1345,
    "ĠTo": 1346,
    "'re": 1347,
    "Ġbunny": 1348,
    "Ġwhite": 1349,
    "apped": 1350,
    "ater": 1351,
    "Ġgetting": 1352,
    "Ġdelicious": 1353,
    "me": 1354,
    "Ġcreat": 1355,
    "Ġhold": 1356,
    "amp": 1357,
    "Ġbee": 1358,
    "Ġsmiles": 1359,
    "As": 1360,
    "At": 1361,
    "Then": 1362,
    "Ġteac": 1363,
    "Ġhun": 1364,
    "Ġcontinued": 1365,
    "shed": 1366,
    "asure": 1367,
    "ons": 1368,
    "Ġswim": 1369,
    "Hell": 1370,
    "Hello": 1371,
    "Ġmet": 1372,
    "co": 1373,
    "Ġdinner": 1374,
    "Ġseem": 1375,
    "lf": 1376,
    "Ġcomp": 1377,
    "Ġju": 1378,
    "ĠJen": 1379,
    "Ġsec": 1380,
    "Ġbrought": 1381,
    "irrel": 1382,
    "Ġarm": 1383,
    "Ġfew": 1384,
    "ama": 1385,
    "Can": 1386,
    "Ġcool": 1387,
    "Ġbaby": 1388,
    "Ġtail": 1389,
    "Ġbigger": 1390,
    "Ġbel": 1391,
    "air": 1392,
    "Ġstepped": 1393,
    "Ġfur": 1394,
    "Ġbreak": 1395,
    "Ġmost": 1396,
    "Ġpi": 1397,
    "Ġstayed": 1398,
    "Ġfair": 1399,
    "Ġmar": 1400,
    "Ġplan": 1401,
    "ĠAll": 1402,
    "Ġteacher": 1403,
    "Ġhill": 1404,
    "ventually": 1405,
    "This": 1406,
    "ire": 1407,
    "ister": 1408,
    "Ġspark": 1409,
    "Ġfarmer": 1410,
    "Ġlake": 1411,
    "Ġclose": 1412,
    "Ġmoment": 1413,
    "oom": 1414,
    "Ġsquirrel": 1415,
    "Ġbeach": 1416,
    "ctor": 1417,
    "iet": 1418,
    "Ġside": 1419,
    "Ġdang": 1420,
    "ĠGra": 1421,
    "Ġwaited": 1422,
    "Ġslowly": 1423,
    "Ġplease": 1424,
    "Ġcolors": 1425,
    "Ġcloud": 1426,
    "av": 1427,
    "Ġclot": 1428,
    "Ġamazed": 1429,
    "ling": 1430,
    "der": 1431,
    "Ġpaint": 1432,
    "Ġclimbed": 1433,
    "Ġbutterfly": 1434,
    "Ġpulled": 1435,
    "Ġagreed": 1436,
    "Ġwet": 1437,
    "Ġhot": 1438,
    "ence": 1439,
    "ames": 1440,
    "bo": 1441,
    "Ġclothes": 1442,
    "Ġblack": 1443,
    "Ġjoy": 1444,
    "Ġroll": 1445,
    "Ġvisit": 1446,
    "oup": 1447,
    "Ġfaster": 1448,
    "Ġduck": 1449,
    "Ġkite": 1450,
    "Ġlistened": 1451,
    "Ġpap": 1452,
    "Ġbuy": 1453,
    "ĠJill": 1454,
    "Ġsister": 1455,
    "ises": 1456,
    "Ġsong": 1457,
    "rag": 1458,
    "Timmy": 1459,
    "Ġalone": 1460,
    "Ġmonster": 1461,
    "Ġsu": 1462,
    "Ġflying": 1463,
    "His": 1464,
    "Ġwants": 1465,
    "Ġlon": 1466,
    "Ġhorse": 1467,
    "ze": 1468,
    "Ġwon": 1469,
    "Ġsometimes": 1470,
    "Ġpol": 1471,
    "Ġturned": 1472,
    "Ġadventures": 1473,
    "Ġpro": 1474,
    "Ġstu": 1475,
    "Ġpictures": 1476,
    "Ġtrying": 1477,
    "ĠThis": 1478,
    "ĠEm": 1479,
    "'ll": 1480,
    "Maybe": 1481,
    "itty": 1482,
    "ower": 1483,
    "Ġlonely": 1484,
    "ĠK": 1485,
    "Ġfall": 1486,
    "ries": 1487,
    "Ġquiet": 1488,
    "Ġgrow": 1489,
    "oney": 1490,
    "ours": 1491,
    "Ġwasn": 1492,
    "Ġswing": 1493,
    "Ġbath": 1494,
    "Ġscary": 1495,
    "ĠBenny": 1496,
    "Ġleave": 1497,
    "Ġtowards": 1498,
    "Ġje": 1499,
    "Ġforgot": 1500,
    "Ġnap": 1501,
    "ĠSally": 1502,
    "Ġve": 1503,
    "Ġbuild": 1504,
    "Ġdoing": 1505,
    "Ġpoin": 1506,
    "Ġexploring": 1507,
    "Ġhide": 1508,
    "Ġneigh": 1509,
    "Ġneighb": 1510,
    "Ġworried": 1511,
    "Ġsmo": 1512,
    "Ġpiec": 1513,
    "Ġpieces": 1514,
    "eared": 1515,
    "Ġatt": 1516,
    "Ġthre": 1517,
    "Ġdolls": 1518,
    "Ġtalk": 1519,
    "Ġsuch": 1520,
    "ĠJim": 1521,
    "ich": 1522,
    "Ġliving": 1523,
    "Ġfree": 1524,
    "Ġpa": 1525,
    "Ġbar": 1526,
    "Ġhungry": 1527,
    "Ġhig": 1528,
    "Ġsame": 1529,
    "ield": 1530,
    "ike": 1531,
    "Ġtown": 1532,
    "Ġlonger": 1533,
    "Ġdanc": 1534,
    "ĠDaddy": 1535,
    "ps": 1536,
    "Ġshared": 1537,
    "Ġprincess": 1538,
    "Ġsilly": 1539,
    "Ġpromised": 1540,
    "Ġgu": 1541,
    "ney": 1542,
    "Ġblank": 1543,
    "Ġthinks": 1544,
    "Ġland": 1545,
    "Ġcast": 1546,
    "Ġclapped": 1547,
    "ix": 1548,
    "unch": 1549,
    "ever": 1550,
    "Ġsuddenly": 1551,
    "Ġblanket": 1552,
    "Ġdirty": 1553,
    "uit": 1554,
    "Ġeverywhere": 1555,
    "Ġothers": 1556,
    "mb": 1557,
    "Ġpink": 1558,
    "Ġorange": 1559,
    "Ġdangerous": 1560,
    "Ġseemed": 1561,
    "Ġshoes": 1562,
    "Ġshap": 1563,
    "Ġcray": 1564,
    "Ġow": 1565,
    "Ġsecret": 1566,
    "ek": 1567,
    "Ġhigher": 1568,
    "ment": 1569,
    "avy": 1570,
    "set": 1571,
    "Ġsit": 1572,
    "Ġshapes": 1573,
    "Ġjob": 1574,
    "Ġsea": 1575,
    "Ġcookies": 1576,
    "Ġpat": 1577,
    "Ġscre": 1578,
    "vered": 1579,
    "Ġacross": 1580,
    "Ġhoped": 1581,
    "OK": 1582,
    "Ġcave": 1583,
    "Ġfruit": 1584,
    "Ġhelping": 1585,
    "Ġrace": 1586,
    "elc": 1587,
    "Ġriver": 1588,
    "Ġpaper": 1589,
    "Ġplant": 1590,
    "Ġfield": 1591,
    "Ġtrain": 1592,
    "Ġjoin": 1593,
    "uffy": 1594,
    "ssed": 1595,
    "iting": 1596,
    "Ġbelie": 1597,
    "ĠMaybe": 1598,
    "Ġsack": 1599,
    "Finally": 1600,
    "Ġpra": 1601,
    "Ġgrandma": 1602,
    "Ġsmart": 1603,
    "zz": 1604,
    "Ġjuice": 1605,
    "Ġstre": 1606,
    "de": 1607,
    "Ġstories": 1608,
    "Ġyoung": 1609,
    "app": 1610,
    "Ġob": 1611,
    "ĠMary": 1612,
    "Ġstars": 1613,
    "ott": 1614,
    "Ġclosed": 1615,
    "Ġwag": 1616,
    "Ġpath": 1617,
    "Ġcheered": 1618,
    "orm": 1619,
    "Ġnaught": 1620,
    "Ġdisapp": 1621,
    "Ġheavy": 1622,
    "Ġwoke": 1623,
    "Ġcoll": 1624,
    "Ġnoises": 1625,
    "ĠWhat": 1626,
    "Ġride": 1627,
    "Ġmoral": 1628,
    "Ġmust": 1629,
    "Ġra": 1630,
    "Oh": 1631,
    "Ġgentle": 1632,
    "weet": 1633,
    "Ġsign": 1634,
    "Ġwelc": 1635,
    "Why": 1636,
    "eddy": 1637,
    "ountain": 1638,
    "Ġmoved": 1639,
    "Ġdisco": 1640,
    "umb": 1641,
    "ored": 1642,
    "Ġtreasure": 1643,
    "Ġdoctor": 1644,
    "ĠTommy": 1645,
    "br": 1646,
    "Sure": 1647,
    "chool": 1648,
    "Ġwar": 1649,
    "fused": 1650,
    "ained": 1651,
    "ugg": 1652,
    "Ġalong": 1653,
    "Ġcrying": 1654,
    "oun": 1655,
    "Ġcastle": 1656,
    "Ġwords": 1657,
    "Ġyard": 1658,
    "Ġrelie": 1659,
    "Ġbelieve": 1660,
    "Ġnaughty": 1661,
    "adow": 1662,
    "Ġmother": 1663,
    "Ġeating": 1664,
    "Ġfence": 1665,
    "Ġdrove": 1666,
    "een": 1667,
    "Ġschool": 1668,
    "Ġhappen": 1669,
    "ph": 1670,
    "ĠBilly": 1671,
    "Lucy": 1672,
    "Ġyear": 1673,
    "ateful": 1674,
    "Ġcandy": 1675,
    "Ġcor": 1676,
    "Ġcream": 1677,
    "Ġrope": 1678,
    "Ġtwins": 1679,
    "Ġcolorful": 1680,
    "Ġcaught": 1681,
    "Ġrelieved": 1682,
    "outh": 1683,
    "less": 1684,
    "Ġbucket": 1685,
    "fort": 1686,
    "alm": 1687,
    "oc": 1688,
    "Ġruns": 1689,
    "Ġcra": 1690,
    "Ġwithout": 1691,
    "And": 1692,
    "Ġbroke": 1693,
    "ocked": 1694,
    "Ġes": 1695,
    "Ġresp": 1696,
    "Ġ3": 1697,
    "igg": 1698,
    "Ġgrateful": 1699,
    "Ġparty": 1700,
    "eter": 1701,
    "Ġbott": 1702,
    "Ġrel": 1703,
    "Ġmix": 1704,
    "Ġcraw": 1705,
    "Ġpushed": 1706,
    "Ġmark": 1707,
    "Ġeventually": 1708,
    "Ġtou": 1709,
    "Ġtouched": 1710,
    "sw": 1711,
    "ipped": 1712,
    "yard": 1713,
    "Ġpers": 1714,
    "cked": 1715,
    "Ġdrag": 1716,
    "Do": 1717,
    "Ġwear": 1718,
    "Ġplac": 1719,
    "Ġmus": 1720,
    "Ġdry": 1721,
    "Ġbring": 1722,
    "Ġansw": 1723,
    "Ġthrew": 1724,
    "Ġpurp": 1725,
    "Ġrocks": 1726,
    "ions": 1727,
    "rot": 1728,
    "Ġboun": 1729,
    "Ġheal": 1730,
    "Ġowl": 1731,
    "Ġcour": 1732,
    "Ġpres": 1733,
    "Ġlunch": 1734,
    "per": 1735,
    "ĠSoon": 1736,
    "Ġinst": 1737,
    "Ġimag": 1738,
    "Ġbugs": 1739,
    "Ġpurple": 1740,
    "Ġbackyard": 1741,
    "Ġsnack": 1742,
    ".\"<|": 1743,
    "Ġcou": 1744,
    "thy": 1745,
    "ining": 1746,
    "epend": 1747,
    "ĠAmy": 1748,
    "Ġcourse": 1749,
    "Ġtoday": 1750,
    "ased": 1751,
    "Ġgift": 1752,
    "Ġpocket": 1753,
    "Ġsearch": 1754,
    "Ġwell": 1755,
    "Ġbubb": 1756,
    "Ġdaddy": 1757,
    "itting": 1758,
    "Ġbelong": 1759,
    "Ġjour": 1760,
    "cle": 1761,
    "Ġwild": 1762,
    "Ġupset": 1763,
    "Ġcomes": 1764,
    "Hi": 1765,
    "Ġce": 1766,
    "ost": 1767,
    "Ġwelcome": 1768,
    "Ġtiny": 1769,
    "Ġpresent": 1770,
    "Ġbush": 1771,
    "Ġmouth": 1772,
    "Ġbite": 1773,
    "Ġnothing": 1774,
    "Ġfig": 1775,
    "Ġowner": 1776,
    "Ġexciting": 1777,
    "Ġpack": 1778,
    "Ġheart": 1779,
    "ucky": 1780,
    "Ġfeels": 1781,
    "Ġcup": 1782,
    "Lila": 1783,
    "ĠFl": 1784,
    "leph": 1785,
    "Ġmoney": 1786,
    "Ġwondered": 1787,
    "Ġsnow": 1788,
    "Ġmin": 1789,
    "Ġbusy": 1790,
    "itch": 1791,
    "vel": 1792,
    "Ġwin": 1793,
    "ĠInside": 1794,
    "Ġmusic": 1795,
    "Ġturns": 1796,
    "ilk": 1797,
    "Ġthough": 1798,
    "Ġcolour": 1799,
    "orrow": 1800,
    "Ġdropped": 1801,
    "Ġnearby": 1802,
    "ts": 1803,
    "Ġph": 1804,
    "bby": 1805,
    "Ġreach": 1806,
    "Ġben": 1807,
    "Ġspr": 1808,
    "Ġspe": 1809,
    "Ġlaughing": 1810,
    "ead": 1811,
    "Ġmilk": 1812,
    "Ġfold": 1813,
    "Ġcozy": 1814,
    "ĠBe": 1815,
    "Ġbrown": 1816,
    "Ġpeace": 1817,
    "Ġear": 1818,
    "issed": 1819,
    "Ġstuck": 1820,
    "Ġgather": 1821,
    "Ġwings": 1822,
    "Ġtreat": 1823,
    "gs": 1824,
    "Ġsitting": 1825,
    "Ġarms": 1826,
    "Molly": 1827,
    "Ġcir": 1828,
    "Ġpract": 1829,
    "Ġang": 1830,
    "Ġtun": 1831,
    "ĠTweet": 1832,
    "Ġbutt": 1833,
    "Ġsplash": 1834,
    "Ġstreet": 1835,
    "Ġug": 1836,
    "Ġugly": 1837,
    "Ġteddy": 1838,
    "Ġtasted": 1839,
    "Ġret": 1840,
    "Ġshy": 1841,
    "to": 1842,
    "Ġinc": 1843,
    "ows": 1844,
    "Ġsmooth": 1845,
    "Ġhope": 1846,
    "Ġcollect": 1847,
    "Ġcarrot": 1848,
    "Ġnet": 1849,
    "Ġdes": 1850,
    "Ġsmiling": 1851,
    "Ġbreat": 1852,
    "Ġstar": 1853,
    "Ġapple": 1854,
    "Ġlem": 1855,
    "ming": 1856,
    "Max": 1857,
    "Ġneighbor": 1858,
    "Ġsearched": 1859,
    "Ġkiss": 1860,
    "Ġclouds": 1861,
    "Ġretur": 1862,
    "Ġjourney": 1863,
    "Ġtaking": 1864,
    "Ġgrab": 1865,
    "Ġsandw": 1866,
    "Ġbran": 1867,
    "Ġbranch": 1868,
    "ĠWith": 1869,
    "Ġtakes": 1870,
    "Ġonto": 1871,
    "Ġpass": 1872,
    "'d": 1873,
    "idge": 1874,
    "Ġkick": 1875,
    "Ġign": 1876,
    "Ġhit": 1877,
    "Ġjar": 1878,
    "Ġmad": 1879,
    "Ġstand": 1880,
    "ize": 1881,
    "Ġmyster": 1882,
    "Ġmiss": 1883,
    "Ġpatient": 1884,
    "Ġlife": 1885,
    "atch": 1886,
    "Ġwatching": 1887,
    "Ġdelight": 1888,
    "Ġadm": 1889,
    "Ġhours": 1890,
    "Ġsunsh": 1891,
    "Ġsunshine": 1892,
    "Ġkey": 1893,
    "Ġdragon": 1894,
    "Ġtrou": 1895,
    "Ġlate": 1896,
    "Ġrespect": 1897,
    "!\"<|": 1898,
    "Ġfit": 1899,
    "ier": 1900,
    "ped": 1901,
    "Ġacc": 1902,
    "ĠCome": 1903,
    "Ġsinging": 1904,
    "ĠSomet": 1905,
    "Ġdrink": 1906,
    "ĠMr": 1907,
    "Ġsplas": 1908,
    "Ġhugs": 1909,
    "Ġrocket": 1910,
    "irt": 1911,
    "Ġswam": 1912,
    "Ġrolled": 1913,
    "thday": 1914,
    "Ġconfused": 1915,
    "Ġwish": 1916,
    "Ġfoot": 1917,
    "Ġfigure": 1918,
    "Ġrob": 1919,
    "Ġdays": 1920,
    "Ġholding": 1921,
    "Ġmail": 1922,
    "itten": 1923,
    "ung": 1924,
    "Ġletter": 1925,
    "Ġshining": 1926,
    "Ġforever": 1927,
    "Ġspent": 1928,
    "Ġmist": 1929,
    "Ġmeet": 1930,
    "Ġgar": 1931,
    "llo": 1932,
    "Ġstorm": 1933,
    "izz": 1934,
    "Ġrobot": 1935,
    "Every": 1936,
    "Ġoce": 1937,
    "Ġocean": 1938,
    "Ġshook": 1939,
    "Ġaf": 1940,
    "Ġfeet": 1941,
    "Okay": 1942,
    "light": 1943,
    "Ġlad": 1944,
    "Ġladder": 1945,
    "og": 1946,
    "Ġlemon": 1947,
    "Ġknee": 1948,
    "dle": 1949,
    "Ġrainb": 1950,
    "ale": 1951,
    "Ġplaces": 1952,
    "Ġspoon": 1953,
    "Ġinv": 1954,
    "Ġexplained": 1955,
    "ten": 1956,
    "Ġmeadow": 1957,
    "Ġspotted": 1958,
    "Ġneck": 1959,
    "cept": 1960,
    "Ġshr": 1961,
    "ground": 1962,
    "sc": 1963,
    "Ġstone": 1964,
    "Ġwhole": 1965,
    "Ġsol": 1966,
    "Ġap": 1967,
    "Ġwrite": 1968,
    "urse": 1969,
    "Ġmine": 1970,
    "Ġones": 1971,
    "Ġangel": 1972,
    "uts": 1973,
    "Ġcrayons": 1974,
    "ond": 1975,
    "Ġbirthday": 1976,
    "Ġnose": 1977,
    "iver": 1978,
    "Ġbedroom": 1979,
    "Ġgames": 1980,
    "Ġbus": 1981,
    "Ġfron": 1982,
    "Ġfront": 1983,
    "ĠJimmy": 1984,
    "Ġpast": 1985,
    "ÅĵI": 1986,
    "Ġasleep": 1987,
    "Ġwhich": 1988,
    "ord": 1989,
    "Ġstir": 1990,
    "Ġminut": 1991,
    "Ġvill": 1992,
    "Ġcomet": 1993,
    "Ġperson": 1994,
    "ipp": 1995,
    "Ġrac": 1996,
    "Ġqueen": 1997,
    "Ġpot": 1998,
    "ward": 1999,
    "Ġinstead": 2000,
    "ert": 2001,
    "sting": 2002,
    "Ġforget": 2003,
    "Ġrec": 2004,
    "Hey": 2005,
    "Ġafra": 2006,
    "Ġafraid": 2007,
    "Ġgroup": 2008,
    "Ġhang": 2009,
    "Ġbike": 2010,
    "Ġsang": 2011,
    "ery": 2012,
    "ident": 2013,
    "Tommy": 2014,
    "ĠSome": 2015,
    "ats": 2016,
    "Ġasks": 2017,
    "Ġpudd": 2018,
    "Ġcele": 2019,
    "Ġcelebr": 2020,
    "Ġdriver": 2021,
    "Ġrainbow": 2022,
    "Ġdance": 2023,
    "Ġcute": 2024,
    "ĠGrace": 2025,
    "Ġgarage": 2026,
    "Ġhuge": 2027,
    "Ġshop": 2028,
    "ness": 2029,
    "Jim": 2030,
    "Ġinte": 2031,
    "Ġintere": 2032,
    "la": 2033,
    "Ġappeared": 2034,
    "Ġplayground": 2035,
    "Ġtower": 2036,
    "Ġspicy": 2037,
    "Ġpower": 2038,
    "Ġbought": 2039,
    "Ġdi": 2040,
    "Ġbask": 2041,
    "Ġbasket": 2042,
    "Ġthrow": 2043,
    "Ġchick": 2044,
    "Ġbench": 2045,
    "Ġpig": 2046,
    "Ġlar": 2047,
    "Ġmoon": 2048,
    "ope": 2049,
    "Ġloves": 2050,
    "Ġspid": 2051,
    "Ġsunny": 2052,
    "Ġround": 2053,
    "Ġash": 2054,
    "blem": 2055,
    "Ġbell": 2056,
    "owed": 2057,
    "Ġsounds": 2058,
    "ible": 2059,
    "Ġfairy": 2060,
    "Ġpenny": 2061,
    "Ġzoom": 2062,
    "ĠThank": 2063,
    "Ġgives": 2064,
    "Ġpool": 2065,
    "man": 2066,
    "ĠJake": 2067,
    "Ġshore": 2068,
    "Ġwise": 2069,
    "Good": 2070,
    "Ġeas": 2071,
    "Ġscreamed": 2072,
    "ĠEverywhere": 2073,
    "Ġproblem": 2074,
    "Ġsparkly": 2075,
    "Ġact": 2076,
    "aur": 2077,
    "Ġcalm": 2078,
    "Ġhello": 2079,
    "erry": 2080,
    "key": 2081,
    "ity": 2082,
    "Ġwhe": 2083,
    "Ġdrive": 2084,
    "Ġlift": 2085,
    "Ġbur": 2086,
    "Ġpuzz": 2087,
    "Ġfountain": 2088,
    "Ġlarge": 2089,
    "Ġcross": 2090,
    "Ġaccident": 2091,
    "ĠTheir": 2092,
    "Ġsleepy": 2093,
    "Of": 2094,
    "ĠFluffy": 2095,
    "Ġsick": 2096,
    "Ġthin": 2097,
    "Ġesc": 2098,
    "Ġeleph": 2099,
    "Ġelephant": 2100,
    "ancy": 2101,
    "ĠCh": 2102,
    "Ġmind": 2103,
    "Ġgem": 2104,
    "Ġcreature": 2105,
    "Ġwouldn": 2106,
    "Ġseek": 2107,
    "fortable": 2108,
    "Ġchest": 2109,
    "Ġstronger": 2110,
    "ĠMama": 2111,
    "Ġphone": 2112,
    "ĠEmma": 2113,
    "ball": 2114,
    "Ġplane": 2115,
    "In": 2116,
    "ĠTogether": 2117,
    "Ġhelpful": 2118,
    "Ġmysterious": 2119,
    "Ġsoup": 2120,
    "mer": 2121,
    "Ġgathered": 2122,
    "Ġkitty": 2123,
    "Ġgigg": 2124,
    "Ġsailed": 2125,
    "urry": 2126,
    "Ġcarry": 2127,
    "Ġlit": 2128,
    "Jane": 2129,
    "Ġvillage": 2130,
    "Ġswings": 2131,
    "St": 2132,
    "Ġcarried": 2133,
    "Ġjung": 2134,
    "Ġjungle": 2135,
    "Ġstream": 2136,
    "Ġser": 2137,
    "Ġcouch": 2138,
    "ĠSometimes": 2139,
    "Ġtape": 2140,
    "Ġteach": 2141,
    "Ġ'": 2142,
    "Ġchew": 2143,
    "ĠFinally": 2144,
    "ual": 2145,
    "Ġsnee": 2146,
    "Ġmatter": 2147,
    "Ġinteresting": 2148,
    "Ġstudy": 2149,
    "Ġsmelled": 2150,
    "Ġdist": 2151,
    "ĠAndy": 2152,
    "orn": 2153,
    "Ġpicn": 2154,
    "Ġpicnic": 2155,
    "Ġprot": 2156,
    "Ġent": 2157,
    "ove": 2158,
    "Ġbreath": 2159,
    "Ġjeal": 2160,
    "Ġjealous": 2161,
    "ĠSt": 2162,
    "aser": 2163,
    "hin": 2164,
    "ĠKitty": 2165,
    "Ġshar": 2166,
    "Ġsharp": 2167,
    "Ġwaiting": 2168,
    "Ġclever": 2169,
    "Mia": 2170,
    "Now": 2171,
    "Ġdanced": 2172,
    "Later": 2173,
    "Ġspo": 2174,
    "Ġjumping": 2175,
    "Ġpointed": 2176,
    "Ġba": 2177,
    "Ġpile": 2178,
    "Ġval": 2179,
    "Ġcolourful": 2180,
    "Ġlovely": 2181,
    "Ġgas": 2182,
    "Ġcheer": 2183,
    "umber": 2184,
    "Ġsur": 2185,
    "let": 2186,
    "Ġprotect": 2187,
    "board": 2188,
    "Ġspin": 2189,
    "Ġwander": 2190,
    "Ġband": 2191,
    "ano": 2192,
    "Ġpean": 2193,
    "Ġputs": 2194,
    "Ġhears": 2195,
    "ular": 2196,
    "iddle": 2197,
    "read": 2198,
    "ighed": 2199,
    "Ġeag": 2200,
    "Ġarrow": 2201,
    "Bob": 2202,
    "Ġfac": 2203,
    "Ġshelf": 2204,
    "Come": 2205,
    "ones": 2206,
    "Ġtrip": 2207,
    "Ġwave": 2208,
    "Ġfing": 2209,
    "Ġgiant": 2210,
    "Ġseat": 2211,
    "Ġgrand": 2212,
    "Ġring": 2213,
    "Ġlucky": 2214,
    "Ġthankful": 2215,
    "ittens": 2216,
    "Ġbone": 2217,
    "Ġpurse": 2218,
    "Ġfork": 2219,
    "ĠGrandma": 2220,
    "Ġmed": 2221,
    "Ġkitten": 2222,
    "Ġflash": 2223,
    "Ġpolice": 2224,
    "Ġshirt": 2225,
    "Ġtrust": 2226,
    "Ġpaw": 2227,
    "Ġpie": 2228,
    "Ġmud": 2229,
    "Ġwide": 2230,
    "Ġspread": 2231,
    "Ġlaw": 2232,
    "Ġtalking": 2233,
    "Ġsaf": 2234,
    "ush": 2235,
    "uce": 2236,
    "Ġtasty": 2237,
    "Ġsour": 2238,
    "Ġbecome": 2239,
    "Ġexp": 2240,
    "anny": 2241,
    "Ġmach": 2242,
    "Ġmole": 2243,
    "Ġwheel": 2244,
    "Ġorgan": 2245,
    "Ġgently": 2246,
    "Ġcrack": 2247,
    "ors": 2248,
    "Ġmighty": 2249,
    "Ġlamp": 2250,
    "Ġcab": 2251,
    "Ġcabin": 2252,
    "Ġbull": 2253,
    "Ġswimming": 2254,
    "ependable": 2255,
    "Ġself": 2256,
    "Ġthese": 2257,
    "Ġsuc": 2258,
    "Ġpretended": 2259,
    "Ġwash": 2260,
    "Ġeager": 2261,
    "Ġwra": 2262,
    "Ġdirt": 2263,
    "Ġbal": 2264,
    "Ġstood": 2265,
    "Ġtom": 2266,
    "Ġanyone": 2267,
    "land": 2268,
    "Ġrecord": 2269,
    "ĠHow": 2270,
    "Ġpill": 2271,
    "Ġmummy": 2272,
    "Ġgen": 2273,
    "Ġbowl": 2274,
    "Ġfurry": 2275,
    "ĠTV": 2276,
    "Ġhel": 2277,
    "und": 2278,
    "Ġexam": 2279,
    "Ġdest": 2280,
    "Ġfighting": 2281,
    "Ġchoc": 2282,
    "Ġchocol": 2283,
    "Ġchocolate": 2284,
    "Ġcush": 2285,
    "Ġcage": 2286,
    "Ġhealthy": 2287,
    "Ġweak": 2288,
    "Ġspider": 2289,
    "Ġpeaceful": 2290,
    "Ġhopping": 2291,
    "Ġselfish": 2292,
    "Ġknocked": 2293,
    "Ġsmelly": 2294,
    "Ġcoin": 2295,
    "Ġpiece": 2296,
    "Ġlater": 2297,
    "Ġgun": 2298,
    "hile": 2299,
    "Ġtalked": 2300,
    "Ġunus": 2301,
    "Ġunusual": 2302,
    "Ġblew": 2303,
    "Ġwip": 2304,
    "Ġtie": 2305,
    "Ġtid": 2306,
    "Sarah": 2307,
    "Their": 2308,
    "Ġreturned": 2309,
    "Ġasking": 2310,
    "Ġgenerous": 2311,
    "Ġwearing": 2312,
    "Ġsticks": 2313,
    "Ġscr": 2314,
    "Ġbathroom": 2315,
    "itement": 2316,
    "Ġhiding": 2317,
    "ĠEven": 2318,
    "oof": 2319,
    "up": 2320,
    "Ġapples": 2321,
    "Ġsailor": 2322,
    "Ġgoat": 2323,
    "Ġcookie": 2324,
    "Ġnuts": 2325,
    "Ġboard": 2326,
    "Ġgoes": 2327,
    "Ġpuddle": 2328,
    "Ġtest": 2329,
    "Ġclass": 2330,
    "Ġemb": 2331,
    "Ġmessy": 2332,
    "Ġtaste": 2333,
    "Ġfixed": 2334,
    "Ġmatch": 2335,
    "Ġcovered": 2336,
    "Ġruined": 2337,
    "Ġfrown": 2338,
    "Ġdisappeared": 2339,
    "Ġicy": 2340,
    "Ġstep": 2341,
    "Ġtask": 2342,
    "Ġtightly": 2343,
    "Ġunderstood": 2344,
    "den": 2345,
    "Ġpin": 2346,
    "Ġisland": 2347,
    "port": 2348,
    "Ġcorner": 2349,
    "Mummy": 2350,
    "Ġrude": 2351,
    "inted": 2352,
    "Ġhar": 2353,
    "Ġmonkey": 2354,
    "Ġimpre": 2355,
    "Ġwhist": 2356,
    "Ġexcitement": 2357,
    "Dad": 2358,
    "ese": 2359,
    "Ġglow": 2360,
    "ella": 2361,
    "Ġfeed": 2362,
    "Ġbald": 2363,
    "Ġbounc": 2364,
    "Ġflashlight": 2365,
    "Ġtrucks": 2366,
    "ĠTweety": 2367,
    "Please": 2368,
    "Ġkay": 2369,
    "Ġlast": 2370,
    "Ġmiddle": 2371,
    "Ġgh": 2372,
    "Ġghost": 2373,
    "Ġrelax": 2374,
    "Ġstret": 2375,
    "Ġstring": 2376,
    "Ġescape": 2377,
    "Ġembar": 2378,
    "Ġembarra": 2379,
    "Ġshape": 2380,
    "Ġfancy": 2381,
    "Ġanc": 2382,
    "box": 2383,
    "ĠOn": 2384,
    "Ġtak": 2385,
    "Ġtaken": 2386,
    "Ġbrush": 2387,
    "Ġobed": 2388,
    "ĠJust": 2389,
    "Just": 2390,
    "Ġsandwich": 2391,
    "usie": 2392,
    "als": 2393,
    "unk": 2394,
    "ĠMummy": 2395,
    "Ġcirc": 2396,
    "Ġslid": 2397,
    "imp": 2398,
    "Ġtells": 2399,
    "ork": 2400,
    "eth": 2401,
    "Ġanswer": 2402,
    "enry": 2403,
    "orant": 2404,
    "Ġfeather": 2405,
    "Ġwagon": 2406,
    "ĠFred": 2407,
    "Ġsplashed": 2408,
    "Ġweek": 2409,
    "Ġdogs": 2410,
    "ult": 2411,
    "Ġgrew": 2412,
    "Ġrid": 2413,
    "Ġline": 2414,
    "Ġremind": 2415,
    "Ġancient": 2416,
    "Ġcard": 2417,
    "Soon": 2418,
    "Ġbottle": 2419,
    "Ġtidy": 2420,
    "Ġobedient": 2421,
    "ĠLittle": 2422,
    "Ġhidden": 2423,
    "Ġtrouble": 2424,
    "ating": 2425,
    "Ġwhenever": 2426,
    "Ġaccept": 2427,
    "Ġbrill": 2428,
    "Ġbrilli": 2429,
    "Ġbrilliant": 2430,
    "Ġdiscovered": 2431,
    "Ġliz": 2432,
    "osaur": 2433,
    "Ġpar": 2434,
    "rated": 2435,
    "aughter": 2436,
    "ĠAl": 2437,
    "Ġstuff": 2438,
    "Ġter": 2439,
    "ĠJenny": 2440,
    "act": 2441,
    "Ġsongs": 2442,
    "Ġblow": 2443,
    "Ġdull": 2444,
    "Ġclay": 2445,
    "Ġsock": 2446,
    "Ġwhis": 2447,
    "Ġwalks": 2448,
    "Ġwolf": 2449,
    "Ġsoap": 2450,
    "Ġcart": 2451,
    "Ġforgive": 2452,
    "ĠRos": 2453,
    "ĠRosie": 2454,
    "Ġcrab": 2455,
    "Ġfinish": 2456,
    "Ġpour": 2457,
    "Ġlay": 2458,
    "Ġflut": 2459,
    "Joe": 2460,
    "Ġext": 2461,
    "lla": 2462,
    "Ġtomorrow": 2463,
    "Jimmy": 2464,
    "Ġpromise": 2465,
    "Ġbrightly": 2466,
    "Ġtaught": 2467,
    "Ġdinosaur": 2468,
    "Ġfaces": 2469,
    "Ġdisappo": 2470,
    "ear": 2471,
    "Sally": 2472,
    "Ġwalls": 2473,
    "Ġoften": 2474,
    "Ġnote": 2475,
    "Ġignorant": 2476,
    "Ġhon": 2477,
    "Ġquest": 2478,
    "Ġcrown": 2479,
    "Ġterri": 2480,
    "Ġdrum": 2481,
    "Ġlaund": 2482,
    "Ġlaundry": 2483,
    "Ġnods": 2484,
    "Ġbutton": 2485,
    "To": 2486,
    "Ġkayak": 2487,
    "Ġroad": 2488,
    "Ġwaves": 2489,
    "Ġcann": 2490,
    "Ġcannot": 2491,
    "Ġembarrassed": 2492,
    "Ġplate": 2493,
    "ured": 2494,
    "Ġav": 2495,
    "Ġextra": 2496,
    "berry": 2497,
    "Ġsearching": 2498,
    "aw": 2499,
    "erp": 2500,
    "Ġgets": 2501,
    "Ġjew": 2502,
    "Ġjewel": 2503,
    "Ġbarber": 2504,
    "ĠEnd": 2505,
    "lex": 2506,
    "Ġcomfortable": 2507,
    "Ġneckl": 2508,
    "Ġcrawled": 2509,
    "Ġwom": 2510,
    "Ġwoman": 2511,
    "ird": 2512,
    "Ġforward": 2513,
    "ĠBr": 2514,
    "Ġwrot": 2515,
    "Ġwrote": 2516,
    "Ġleaf": 2517,
    "Ġdisappointed": 2518,
    "eterm": 2519,
    "Ġdancing": 2520,
    "zed": 2521,
    "ĠNo": 2522,
    "Ġpri": 2523,
    "Ġteeth": 2524,
    "Ġcheese": 2525,
    "Ġord": 2526,
    "Ġjam": 2527,
    "Ġmistake": 2528,
    "Ġwitch": 2529,
    "Ġdecor": 2530,
    "Ġmot": 2531,
    "Ġboring": 2532,
    "Ġaccidentally": 2533,
    "Ġjell": 2534,
    "Ġjelly": 2535,
    "Ġlock": 2536,
    "Ġbees": 2537,
    "obby": 2538,
    "Ġdolp": 2539,
    "Ġspeed": 2540,
    "Ġstanding": 2541,
    "Ġdependable": 2542,
    "Ġwore": 2543,
    "Ġplants": 2544,
    "gy": 2545,
    "Ġdiz": 2546,
    "Ġdizzy": 2547,
    "Ġeng": 2548,
    "Ġcaterp": 2549,
    "Ġcaterpill": 2550,
    "Ġcaterpillar": 2551,
    "Ġchair": 2552,
    "ror": 2553,
    "Ġshowing": 2554,
    "Ġstones": 2555,
    "Ġseed": 2556,
    "Ġsell": 2557,
    "ense": 2558,
    "Ġlizard": 2559,
    "Mama": 2560,
    "Ġminutes": 2561,
    "Ġskipped": 2562,
    "Ġdeterm": 2563,
    "ustrated": 2564,
    "Ġdaughter": 2565,
    "Ġrub": 2566,
    "Ġmachine": 2567,
    "ĠMum": 2568,
    "Ġnumber": 2569,
    "Ġpas": 2570,
    "Ġpassed": 2571,
    "unt": 2572,
    "ination": 2573,
    "oph": 2574,
    "Ġfis": 2575,
    "Ġskin": 2576,
    "Ġpuzzle": 2577,
    "Ġpicks": 2578,
    "ffe": 2579,
    "Ġcher": 2580,
    "Ġknowing": 2581,
    "Ġchased": 2582,
    "Ġpole": 2583,
    "Ġsuccess": 2584,
    "ĠElly": 2585,
    "Ġtwist": 2586,
    "Ġchain": 2587,
    "Ġrubbed": 2588,
    "Ġdrank": 2589,
    "Ġtrue": 2590,
    "ĠWhy": 2591,
    "Ġvide": 2592,
    "Ġmanag": 2593,
    "oose": 2594,
    "Ġwis": 2595,
    "Ġmir": 2596,
    "Ġbelonged": 2597,
    "Ġkissed": 2598,
    "Mary": 2599,
    "ife": 2600,
    "Ġcreative": 2601,
    "umbled": 2602,
    "Ġrose": 2603,
    "Ġincred": 2604,
    "Ġmoving": 2605,
    "Ġnest": 2606,
    "Ġfrustrated": 2607,
    "Ġpicking": 2608,
    "Ġleash": 2609,
    "work": 2610,
    "anged": 2611,
    "Ġpush": 2612,
    "Ġmeasure": 2613,
    "Ġvi": 2614,
    "rn": 2615,
    "Stop": 2616,
    "Ġtears": 2617,
    "Ġcrayon": 2618,
    "Ġroof": 2619,
    "Ġjack": 2620,
    "Ġjacket": 2621,
    "Ġmill": 2622,
    "iff": 2623,
    "Ġpeanut": 2624,
    "Ġrepe": 2625,
    "Ġveil": 2626,
    "ĠMittens": 2627,
    "lower": 2628,
    "Ġdolphin": 2629,
    "Ġfu": 2630,
    "Ġpop": 2631,
    "Ġreli": 2632,
    "Ġreliable": 2633,
    "Ġguil": 2634,
    "Ġguilty": 2635,
    "My": 2636,
    "Ġclear": 2637,
    "Ġlive": 2638,
    "Ġgiving": 2639,
    "Ġmarket": 2640,
    "shing": 2641,
    "Ġrep": 2642,
    "Ġbubble": 2643,
    "Ġcloth": 2644,
    "Ġimagined": 2645,
    "Ġmirror": 2646,
    "Ġmanaged": 2647,
    "Ġsil": 2648,
    "Ġnecklace": 2649,
    "Ġaw": 2650,
    "Ġadded": 2651,
    "Ġbalance": 2652,
    "Ġpacked": 2653,
    "Ġsnacks": 2654,
    "ately": 2655,
    "Ġincredible": 2656,
    "Ġskip": 2657,
    "rank": 2658,
    "ĠLe": 2659,
    "Ġfridge": 2660,
    "Ġvine": 2661,
    "Ġsupp": 2662,
    "Ġbuilding": 2663,
    "loo": 2664,
    "ĠSandy": 2665,
    "Ġlanded": 2666,
    "ilt": 2667,
    "Ġfootball": 2668,
    "Ġsal": 2669,
    "Ġrich": 2670,
    "olog": 2671,
    "Ġperform": 2672,
    "Ġreg": 2673,
    "Ġjog": 2674,
    "Ġsquare": 2675,
    "Ġshoot": 2676,
    "Ġnod": 2677,
    "Ġmotor": 2678,
    "Ġjoke": 2679,
    "Ġterrible": 2680,
    "Ġtea": 2681,
    "ub": 2682,
    "Ġdead": 2683,
    "Ġbounce": 2684,
    "Ġteam": 2685,
    "Ġhorn": 2686,
    "Ġtick": 2687,
    "angle": 2688,
    "sel": 2689,
    "selves": 2690,
    "Ġhurts": 2691,
    "ĠO": 2692,
    "Sue": 2693,
    "Ġsave": 2694,
    "Ġmixed": 2695,
    "Ġsmoke": 2696,
    "Ġfan": 2697,
    "Ġvend": 2698,
    "Ġsounded": 2699,
    "There": 2700,
    "Ġfear": 2701,
    "Ġglass": 2702,
    "Mum": 2703,
    "Ġmod": 2704,
    "Ġgasped": 2705,
    "Ġpointing": 2706,
    "Ġharder": 2707,
    "Ġed": 2708,
    "ying": 2709,
    "âĤ¬âĢ": 2710,
    "Ġpatter": 2711,
    "Ġpoor": 2712,
    "Ġneeds": 2713,
    "Ġengine": 2714,
    "Ġsolve": 2715,
    "Ġind": 2716,
    "Ġlog": 2717,
    "Ġcarrots": 2718,
    "umpy": 2719,
    "Ġapolog": 2720,
    "Ġcalling": 2721,
    "Ġdestro": 2722,
    "Ġcand": 2723,
    "Ġmama": 2724,
    "Ġserious": 2725,
    "Ġbubbles": 2726,
    "Ġoven": 2727,
    "Ġtuna": 2728,
    "Ġmedic": 2729,
    "Ġmedicine": 2730,
    "Ġmov": 2731,
    "Ġchim": 2732,
    "fish": 2733,
    "Ġdrawing": 2734,
    "Ġload": 2735,
    "Ġpizz": 2736,
    "ĠSammy": 2737,
    "Ġsharing": 2738,
    "Be": 2739,
    "Ġtriangle": 2740,
    "Ġbottom": 2741,
    "ĠToday": 2742,
    "Me": 2743,
    "oop": 2744,
    "Ġsmaller": 2745,
    "Ġbarked": 2746,
    "Ġmeant": 2747,
    "Ġner": 2748,
    "Ġmissed": 2749,
    "cream": 2750,
    "Ġvendor": 2751,
    "Ġmountain": 2752,
    "ĠEmily": 2753,
    "Ġdelicate": 2754,
    "ĠGo": 2755,
    "Ġalre": 2756,
    "Ġalready": 2757,
    "ded": 2758,
    "ĠDon": 2759,
    "Well": 2760,
    "Ġexcitedly": 2761,
    "Ġmetal": 2762,
    "sist": 2763,
    "Ġpainted": 2764,
    "ola": 2765,
    "ĠSusie": 2766,
    "Ġneighbour": 2767,
    "oe": 2768,
    "Ġexplored": 2769,
    "Ġcompass": 2770,
    "Ġadventur": 2771,
    "Ġadventurous": 2772,
    "Ġsight": 2773,
    "Ġpattern": 2774,
    "Ġbridge": 2775,
    "Ġpir": 2776,
    "Ġbored": 2777,
    "Ġsquee": 2778,
    "Ġexpens": 2779,
    "Ġexpensive": 2780,
    "Ġfil": 2781,
    "airs": 2782,
    "urch": 2783,
    "Ġtummy": 2784,
    "Ġrealised": 2785,
    "Ġsorts": 2786,
    "Ġdestroy": 2787,
    "Ġsaved": 2788,
    "ention": 2789,
    "itter": 2790,
    "lies": 2791,
    "Ġstamp": 2792,
    "Ġalm": 2793,
    "Ġalmost": 2794,
    "Ġtreats": 2795,
    "apping": 2796,
    "Ġhook": 2797,
    "Ġtowel": 2798,
    "Ġvol": 2799,
    "Ġvolc": 2800,
    "Ġvolcano": 2801,
    "Ġer": 2802,
    "astic": 2803,
    "Ġsciss": 2804,
    "Ġscissors": 2805,
    "Ġchimney": 2806,
    "era": 2807,
    "orry": 2808,
    "Ġtries": 2809,
    "ĠRe": 2810,
    "isa": 2811,
    "fic": 2812,
    "Ġword": 2813,
    "Amy": 2814,
    "Ġveget": 2815,
    "Ġvegetable": 2816,
    "Ġshell": 2817,
    "Ġspend": 2818,
    "Ġeasy": 2819,
    "Ġnerv": 2820,
    "Ġnervous": 2821,
    "Ġears": 2822,
    "mp": 2823,
    "Ġfluffy": 2824,
    "ĠBl": 2825,
    "ents": 2826,
    "Ġadmire": 2827,
    "?\".": 2828,
    "Ġlegs": 2829,
    "Ġonce": 2830,
    "asing": 2831,
    "Ġhappening": 2832,
    "ÅĵLet": 2833,
    "Ġprint": 2834,
    "Ġref": 2835,
    "Ġstumbled": 2836,
    "Ġsauce": 2837,
    "Ġbreakf": 2838,
    "Ġbreakfast": 2839,
    "Ġdelighted": 2840,
    "Ġfinger": 2841,
    "Ġloudly": 2842,
    "Ġsco": 2843,
    "Ġjuicy": 2844,
    "Ġdetermined": 2845,
    "Ġok": 2846,
    "Ġrubb": 2847,
    "Ġshrimp": 2848,
    "Ġleaving": 2849,
    "Ġdecide": 2850,
    "ĠHenry": 2851,
    "Ġgrumpy": 2852,
    "Ġchange": 2853,
    "ĠMrs": 2854,
    "Ġviol": 2855,
    "Ġfeathers": 2856,
    "Ġpebb": 2857,
    "Ġpil": 2858,
    "ete": 2859,
    "Ġcrane": 2860,
    "Ġeraser": 2861,
    "illie": 2862,
    "Ġcushion": 2863,
    "Ġtank": 2864,
    "Ġchurch": 2865,
    "Ġfactor": 2866,
    "Ġfactory": 2867,
    "Ġshark": 2868,
    "Ġlemonade": 2869,
    "Ġkang": 2870,
    "Ġkangar": 2871,
    "Ġkangaroo": 2872,
    "Ġdiffic": 2873,
    "Ġfuel": 2874,
    "Ġbeg": 2875,
    "Ġbody": 2876,
    "Ġdrew": 2877,
    "Ġpolite": 2878,
    "Ġspray": 2879,
    "Ġmaybe": 2880,
    "Ġpeek": 2881,
    "Ġemp": 2882,
    "Ġempty": 2883,
    "Ġwarned": 2884,
    "Ġple": 2885,
    "Ġscreen": 2886,
    "Ġashamed": 2887,
    "indy": 2888,
    "ĠdonÃ¢": 2889,
    "Ġwishes": 2890,
    "Ġtoug": 2891,
    "orge": 2892,
    "ĠPlease": 2893,
    "Ġcoat": 2894,
    "ache": 2895,
    "ÅĵLetÃ¢": 2896,
    "Ġpainter": 2897,
    "ipping": 2898,
    "Ġcheerful": 2899,
    "ince": 2900,
    "aul": 2901,
    "Ġchose": 2902,
    "Ġadd": 2903,
    "Ġhosp": 2904,
    "Ġhospit": 2905,
    "Ġhospital": 2906,
    "Ġmask": 2907,
    "Ġshine": 2908,
    "Ġturt": 2909,
    "Ġturtle": 2910,
    "Ġdiscover": 2911,
    "Ġyourself": 2912,
    "Ġsafely": 2913,
    "Ġbuttons": 2914,
    "Ġcontent": 2915,
    "Ġpractice": 2916,
    "Ġkinds": 2917,
    "Ġgrown": 2918,
    "Ġscream": 2919,
    "Ġbuilt": 2920,
    "Ġviolin": 2921,
    "Ġlicked": 2922,
    "Ġeg": 2923,
    "cks": 2924,
    "Ġhoney": 2925,
    "Ġrice": 2926,
    "Ġthick": 2927,
    "Ġboys": 2928,
    "Ġborrow": 2929,
    "ophie": 2930,
    "Ġnicely": 2931,
    "Ġtunn": 2932,
    "Ġtunnel": 2933,
    "ipe": 2934,
    "Ġcorn": 2935,
    "Sorry": 2936,
    "Ġma": 2937,
    "ĠSm": 2938,
    "Ġpizza": 2939,
    "Ġdifficult": 2940,
    "Ġshone": 2941,
    "Ġraced": 2942,
    "Ġpenc": 2943,
    "Ġpencil": 2944,
    "Ġchase": 2945,
    "Ġvegetables": 2946,
    "Ġwhale": 2947,
    "Ġcloset": 2948,
    "heart": 2949,
    "Ġstrang": 2950,
    "iness": 2951,
    "Ġfavour": 2952,
    "Ġusing": 2953,
    "Ġuni": 2954,
    "Ġuniqu": 2955,
    "Ġunique": 2956,
    "Ġtough": 2957,
    "Ġrushed": 2958,
    "âĤ¬.": 2959,
    "iest": 2960,
    "Ġclum": 2961,
    "Ġanswered": 2962,
    "Ġkindness": 2963,
    "Ġknife": 2964,
    "Ġworking": 2965,
    "Ġlazy": 2966,
    "Ġcompassion": 2967,
    "Ġpay": 2968,
    "Ġsighed": 2969,
    "Ġwake": 2970,
    "Ġplayful": 2971,
    "Ġcircles": 2972,
    "Ġlights": 2973,
    "inary": 2974,
    "ines": 2975,
    "Ġprince": 2976,
    "Ġimpressed": 2977,
    "Ġcleaned": 2978,
    "Ġattic": 2979,
    "Ġdesk": 2980,
    "Ġcurt": 2981,
    "Ġcurtain": 2982,
    "ief": 2983,
    "Ġabove": 2984,
    "Ġhelic": 2985,
    "Ġhelicop": 2986,
    "Ġhelicopter": 2987,
    "Ġfool": 2988,
    "Ġfoolish": 2989,
    "Ġshocked": 2990,
    "Ġclock": 2991,
    "Ġtrade": 2992,
    "Ġbitter": 2993,
    "Ġbutterflies": 2994,
    "Ġfrag": 2995,
    "Ġfragile": 2996,
    "Ġearly": 2997,
    "Ġbump": 2998,
    "Ġgold": 2999,
    "ĠPolly": 3000,
    "Ġtreasures": 3001,
    "ĠBrown": 3002,
    "Ġspill": 3003,
    "iv": 3004,
    "Ġeld": 3005,
    "pa": 3006,
    "Ġzoo": 3007,
    "Ġmoder": 3008,
    "Ġmodern": 3009,
    "Ġroar": 3010,
    "Ġlocked": 3011,
    "Ġship": 3012,
    "Ġsport": 3013,
    "Ġbranc": 3014,
    "Ġbranches": 3015,
    "Ġdisg": 3016,
    "Ġboxes": 3017,
    "Ġleg": 3018,
    "Ġcrawl": 3019,
    "Ġbloom": 3020,
    "Ġsweetheart": 3021,
    "Ġdoesn": 3022,
    "Ġvideo": 3023,
    "Ġstraw": 3024,
    "Ġfavourite": 3025,
    "Ġcrow": 3026,
    "Ġvalu": 3027,
    "Ġclumsy": 3028,
    "Ġhurry": 3029,
    "Ġeye": 3030,
    "Ġducks": 3031,
    "Ġpee": 3032,
    "hood": 3033,
    "Ġcries": 3034,
    "Ġedge": 3035,
    "Ġlying": 3036,
    "loe": 3037,
    "ugged": 3038,
    "ory": 3039,
    "Ġant": 3040,
    "Ġcircle": 3041,
    "Ġtimes": 3042,
    "Ġsaying": 3043,
    "ĠDanny": 3044,
    "Ġmessage": 3045,
    "Ġhairy": 3046,
    "Ġindepend": 3047,
    "Ġindependent": 3048,
    "Ġcoo": 3049,
    "ict": 3050,
    "Ġax": 3051,
    "Ġaxe": 3052,
    "Ġchicken": 3053,
    "Ġhay": 3054,
    "Ġrug": 3055,
    "uggled": 3056,
    "ches": 3057,
    "Ġpad": 3058,
    "Ġquestions": 3059,
    "Ġleak": 3060,
    "Ġfour": 3061,
    "ĠPete": 3062,
    "Ġtravel": 3063,
    "Ġmovie": 3064,
    "Ġelder": 3065,
    "Ġpalm": 3066,
    "Ġstarts": 3067,
    "Ġsniff": 3068,
    "Ġlaughs": 3069,
    "Ġloops": 3070,
    "Ġcell": 3071,
    "Ġpainting": 3072,
    "ĠSmith": 3073,
    "ĠLisa": 3074,
    "Ġneedle": 3075,
    "bled": 3076,
    "Ġthemselves": 3077,
    "Ġbirdc": 3078,
    "Ġbirdcage": 3079,
    "Ġdisgust": 3080,
    "Ġflute": 3081,
    "Ġgray": 3082,
    "Billy": 3083,
    "Ġcelebrate": 3084,
    "yer": 3085,
    "Ġprep": 3086,
    "ĠAnn": 3087,
    "Ġmay": 3088,
    "vice": 3089,
    "Ġcho": 3090,
    "Ġchoose": 3091,
    "pack": 3092,
    "Ġagainst": 3093,
    "Ġvaluable": 3094,
    "Ġsteal": 3095,
    "Ġgiggled": 3096,
    "Ġorig": 3097,
    "Ġorigin": 3098,
    "Ġoriginal": 3099,
    "ecially": 3100,
    "Ġzip": 3101,
    "Ġpeeked": 3102,
    "Ġenjoying": 3103,
    "Ġlead": 3104,
    "Ġtrunk": 3105,
    "Ġpale": 3106,
    "Ġboss": 3107,
    "Ġbiggest": 3108,
    "Ġpirate": 3109,
    "Ġchir": 3110,
    "ested": 3111,
    "Ġcri": 3112,
    "rage": 3113,
    "ĠWhenever": 3114,
    "Ġgate": 3115,
    "ĠEverything": 3116,
    "Ġcover": 3117,
    "ĠDave": 3118,
    "Ġcolours": 3119,
    "Ġdiam": 3120,
    "Ġdiamond": 3121,
    "Ġsheet": 3122,
    "Ġdig": 3123,
    "Ġpebble": 3124,
    "Ġchickens": 3125,
    "Ġhunt": 3126,
    "laire": 3127,
    "Ġsheep": 3128,
    "Ġuseful": 3129,
    "Ġordinary": 3130,
    "Ġreading": 3131,
    "Ġfloated": 3132,
    "Ġweather": 3133,
    "Ġinvited": 3134,
    "Ġsquash": 3135,
    "Ġdreamed": 3136,
    "Ġcane": 3137,
    "Ġfishing": 3138,
    "eorge": 3139,
    "Ġguard": 3140,
    "zing": 3141,
    "Ġmic": 3142,
    "ugar": 3143,
    "Ġshows": 3144,
    "Ġsy": 3145,
    "Ġelderly": 3146,
    "Ġcact": 3147,
    "Ġcactus": 3148,
    "Ġdishes": 3149,
    "Ġpit": 3150,
    "Ġthread": 3151,
    "Ġsalad": 3152,
    "ĠBobby": 3153,
    "Ġbeep": 3154,
    "Ġlearning": 3155,
    "Ġagree": 3156,
    "Ġhoop": 3157,
    "Ġclap": 3158,
    "Ġwagged": 3159,
    "Ġspoke": 3160,
    "Ġmoms": 3161,
    "Ġways": 3162,
    "Ġballoons": 3163,
    "Ġfake": 3164,
    "Ġlawyer": 3165,
    "ĠIf": 3166,
    "Ġahe": 3167,
    "Ġahead": 3168,
    "Ġcounted": 3169,
    "ips": 3170,
    "Ġalert": 3171,
    "Ġbushes": 3172,
    "Ġcarp": 3173,
    "Ġcarpet": 3174,
    "Ġrules": 3175,
    "Ġhadn": 3176,
    "Ġesp": 3177,
    "Ġespecially": 3178,
    "ging": 3179,
    "ĠChloe": 3180,
    "Ġshake": 3181,
    "Ġpassport": 3182,
    "Ġfinding": 3183,
    "ÅĵIt": 3184,
    "ĠEventually": 3185,
    "Ġhung": 3186,
    "How": 3187,
    "Ġending": 3188,
    "Ġbeet": 3189,
    "Ġarg": 3190,
    "Ġmailbox": 3191,
    "Ġintell": 3192,
    "Ġintellig": 3193,
    "Ġspace": 3194,
    "Ġsleeping": 3195,
    "Little": 3196,
    "ĠFrank": 3197,
    "wards": 3198,
    "Ġparade": 3199,
    "anic": 3200,
    "Ġur": 3201,
    "Ġcourage": 3202,
    "ĠJames": 3203,
    "Ġthinking": 3204,
    "Ġpracticed": 3205,
    "Ġsugg": 3206,
    "Ġchanged": 3207,
    "Ġlean": 3208,
    "Ġslipped": 3209,
    "Ġyog": 3210,
    "Ġregular": 3211,
    "Ġcheck": 3212,
    "Ġtag": 3213,
    "Ġbat": 3214,
    "ĠBella": 3215,
    "Ġjokes": 3216,
    "ina": 3217,
    "ots": 3218,
    "Ġsub": 3219,
    "Ġsparkled": 3220,
    "ĠMillie": 3221,
    "Ġcow": 3222,
    "Ġsugar": 3223,
    "Ġcomb": 3224,
    "Ġsandwic": 3225,
    "Ġsandwiches": 3226,
    "Ġhipp": 3227,
    "Ġhippo": 3228,
    "Ġfruits": 3229,
    "Ġmicro": 3230,
    "Ġmicrosc": 3231,
    "Ġmicroscope": 3232,
    "Ġletters": 3233,
    "Ġtent": 3234,
    "Ġleop": 3235,
    "Ġleopard": 3236,
    "Ġstickers": 3237,
    "Ġten": 3238,
    "Ġmarble": 3239,
    "Ġoffice": 3240,
    "Ġmarch": 3241,
    "Ġfolder": 3242,
    "Ġdish": 3243,
    "addy": 3244,
    "bbie": 3245,
    "una": 3246,
    "ĠAlex": 3247,
    "ĠFin": 3248,
    "Ġcelebrated": 3249,
    "ĠAt": 3250,
    "Ġwindows": 3251,
    "Ġdisgusting": 3252,
    "Ġstretch": 3253,
    "Ġclassroom": 3254,
    "Ġsuccessful": 3255,
    "Ġgum": 3256,
    "Ġraz": 3257,
    "Ġrazor": 3258,
    "Ġspeak": 3259,
    "Ġgiven": 3260,
    "Ġrepair": 3261,
    "Ġshopke": 3262,
    "Ġshopkeep": 3263,
    "Ġshopkeeper": 3264,
    "Ġadvice": 3265,
    "!\".": 3266,
    "Ġwrapped": 3267,
    "ject": 3268,
    "Ġwiped": 3269,
    "Ġtem": 3270,
    "Ġsadly": 3271,
    "Ġdreaming": 3272,
    "Ġmagn": 3273,
    "Ġsudden": 3274,
    "Ġped": 3275,
    "ĠMy": 3276,
    "Ġweird": 3277,
    "Ġanywhere": 3278,
    "aled": 3279,
    "Ġtrap": 3280,
    "Em": 3281,
    "Ġstarting": 3282,
    "une": 3283,
    "Ġprov": 3284,
    "Ġreminded": 3285,
    "Ġhelpless": 3286,
    "Ġbeetle": 3287,
    "Ġled": 3288,
    "ĠGive": 3289,
    "Ġintelligent": 3290,
    "Ġhats": 3291,
    "Ġyelled": 3292,
    "ĠPeter": 3293,
    "uss": 3294,
    "Gra": 3295,
    "ices": 3296,
    "Ġthief": 3297,
    "Ġmap": 3298,
    "Ġunl": 3299,
    "Ġfrowned": 3300,
    "Ġrough": 3301,
    "Ġuniver": 3302,
    "Ġwhisp": 3303,
    "Ġwhispered": 3304,
    "Ġwandered": 3305,
    "Ġbags": 3306,
    "ĠSophie": 3307,
    "iron": 3308,
    "Ġpackage": 3309,
    "Ġnail": 3310,
    "Ġspoil": 3311,
    "Ġtied": 3312,
    "Ġsubway": 3313,
    "Ġbark": 3314,
    "Ġrode": 3315,
    "ses": 3316,
    "Ġcost": 3317,
    "Ġcartoon": 3318,
    "Ġber": 3319,
    "Ġberries": 3320,
    "Ġtaller": 3321,
    "Ġtut": 3322,
    "Ġballs": 3323,
    "Ġberry": 3324,
    "Ġveh": 3325,
    "Ġvehic": 3326,
    "Ġcomput": 3327,
    "Ġlic": 3328,
    "Ġlicense": 3329,
    "Ġsnake": 3330,
    "Ġcree": 3331,
    "Ġcoffe": 3332,
    "Ġcoffee": 3333,
    "Ġpray": 3334,
    "ĠLuna": 3335,
    "Ġdriving": 3336,
    "Ġenv": 3337,
    "Ġtroubled": 3338,
    "Ġsecond": 3339,
    "kin": 3340,
    "Ġrece": 3341,
    "umble": 3342,
    "par": 3343,
    "Ġglue": 3344,
    "alk": 3345,
    "arlie": 3346,
    "Ġexper": 3347,
    "Ġhanded": 3348,
    "Ġener": 3349,
    "ÅĵThat": 3350,
    "ĠElla": 3351,
    "Ġblin": 3352,
    "ha": 3353,
    "Ġobject": 3354,
    "Ġallowed": 3355,
    "imed": 3356,
    "Ġbent": 3357,
    "Ġmelt": 3358,
    "Ġmagnet": 3359,
    "Ġquietly": 3360,
    "Ġyours": 3361,
    "ÅĵYes": 3362,
    "ĠLola": 3363,
    "ĠJoy": 3364,
    "ĠWh": 3365,
    "Ġmem": 3366,
    "Ġstubb": 3367,
    "Ġstubborn": 3368,
    "Ġolder": 3369,
    "apa": 3370,
    "\",": 3371,
    "âĤ¬âĢľ": 3372,
    "Ġsett": 3373,
    "Ġfort": 3374,
    "Ġbossy": 3375,
    "Ġfather": 3376,
    "Ġbase": 3377,
    "sing": 3378,
    "old": 3379,
    "Ġringing": 3380,
    "Ġincl": 3381,
    "Ġinclu": 3382,
    "Ġclimbing": 3383,
    "Ġsuggested": 3384,
    "umbers": 3385,
    "ĠOK": 3386,
    "Ġminute": 3387,
    "Ġcounting": 3388,
    "abel": 3389,
    "erc": 3390,
    "Ġtwig": 3391,
    "Ġpowerful": 3392,
    "hip": 3393,
    "Ġsold": 3394,
    "Ġmuff": 3395,
    "uring": 3396,
    "Ġtorn": 3397,
    "Ġhonest": 3398,
    "Ġstack": 3399,
    "ser": 3400,
    "Ġenorm": 3401,
    "Ġenormous": 3402,
    "Ġpand": 3403,
    "ĠSn": 3404,
    "Ġcube": 3405,
    "Ġgifted": 3406,
    "ĠLeo": 3407,
    "ages": 3408,
    "Ġnoisy": 3409,
    "Ġchar": 3410,
    "Ġvase": 3411,
    "Ġfinds": 3412,
    "Ġbake": 3413,
    "Ġenvel": 3414,
    "yal": 3415,
    "Ġorn": 3416,
    "Ġornam": 3417,
    "Ġornaments": 3418,
    "book": 3419,
    "Ġlose": 3420,
    "Ġcone": 3421,
    "Ġmissile": 3422,
    "Ġtutor": 3423,
    "Sp": 3424,
    "Spot": 3425,
    "Ġbatter": 3426,
    "Ġcop": 3427,
    "Ġmaze": 3428,
    "Ġdiary": 3429,
    "ĠRed": 3430,
    "Ġcreek": 3431,
    "Ġoy": 3432,
    "Ġoyster": 3433,
    "Ġscoot": 3434,
    "ĠJu": 3435,
    "Ġpoppy": 3436,
    "iger": 3437,
    "ĠTweetie": 3438,
    "Ġcherry": 3439,
    "'.": 3440,
    "Ġoct": 3441,
    "Ġoctop": 3442,
    "Ġoctopus": 3443,
    "Ġexplain": 3444,
    "af": 3445,
    "Ġham": 3446,
    "ĠWhile": 3447,
    "ience": 3448,
    "Ġthirst": 3449,
    "Ġthirsty": 3450,
    "Ġsepar": 3451,
    "Ġpleased": 3452,
    "Ġsneeze": 3453,
    "Ġblinked": 3454,
    "Where": 3455,
    "Ġcase": 3456,
    "Ġrake": 3457,
    "Ġadmired": 3458,
    "icer": 3459,
    "adi": 3460,
    "ature": 3461,
    "Ġdistance": 3462,
    "ising": 3463,
    "Ġrefused": 3464,
    "Jill": 3465,
    "Ġrefre": 3466,
    "Ġoffered": 3467,
    "Ġribb": 3468,
    "Ġbears": 3469,
    "Ġitself": 3470,
    "Ġcrib": 3471,
    "Ġpaid": 3472,
    "Ġnumbers": 3473,
    "Ġwhistle": 3474,
    "ĠMay": 3475,
    "Al": 3476,
    "Jen": 3477,
    "Ġmarried": 3478,
    "Ġvisited": 3479,
    "ĠGary": 3480,
    "ado": 3481,
    "Ġlifted": 3482,
    "Ġvan": 3483,
    "Ġtrash": 3484,
    "Ġsuitc": 3485,
    "Ġshadow": 3486,
    "Ġharm": 3487,
    "pper": 3488,
    "Ġobser": 3489,
    "Ġhoping": 3490,
    "Ġcompet": 3491,
    "Ġcompetit": 3492,
    "Ġfurn": 3493,
    "Ġfurnit": 3494,
    "Ġfurniture": 3495,
    "Ġbreaks": 3496,
    "Ġplastic": 3497,
    "Ġloyal": 3498,
    "Ġlow": 3499,
    "Ġyach": 3500,
    "Ġyacht": 3501,
    "ĠJerry": 3502,
    "Ġcompl": 3503,
    "Ġtray": 3504,
    "Ġhous": 3505,
    "Ġhouses": 3506,
    "Ġcollar": 3507,
    "Ġstation": 3508,
    "ah": 3509,
    "Ġscale": 3510,
    "Ġking": 3511,
    "Ġree": 3512,
    "Ġreef": 3513,
    "Ġperfu": 3514,
    "Ġperfume": 3515,
    "Ġcomputer": 3516,
    "alley": 3517,
    "Ġpeng": 3518,
    "Ġpengu": 3519,
    "Ġmule": 3520,
    "Ġsymb": 3521,
    "Ġsymbol": 3522,
    "Ġiron": 3523,
    "flower": 3524,
    "Ġenvious": 3525,
    "Ġspring": 3526,
    "Ġsize": 3527,
    "If": 3528,
    "Ġdeaf": 3529,
    "Ġchewed": 3530,
    "Ġvest": 3531,
    "Ġsuper": 3532,
    "time": 3533,
    "Ġyet": 3534,
    "Here": 3535,
    "Ġlearnt": 3536,
    "Ġgrace": 3537,
    "Ġweighed": 3538,
    "Ġsent": 3539,
    "Ġvie": 3540,
    "Ġview": 3541,
    "Ġbelow": 3542,
    "Ġclosely": 3543,
    "rop": 3544,
    "Ġpopped": 3545,
    "Ġstrawberry": 3546,
    "Ġfre": 3547,
    "Ġfresh": 3548,
    "Ġenergy": 3549,
    "Ġnosy": 3550,
    "Ġstud": 3551,
    "Ġrememb": 3552,
    "Ġremembers": 3553,
    "med": 3554,
    "Ġmug": 3555,
    "Ġbeauty": 3556,
    "Ġsum": 3557,
    "Ġfurther": 3558,
    "izzie": 3559,
    "Ġsunset": 3560,
    "Ġsilver": 3561,
    "ctive": 3562,
    "Ġstreng": 3563,
    "Ġstrength": 3564,
    "Everyone": 3565,
    "Ġhut": 3566,
    "Ġwand": 3567,
    "Ġcompassionate": 3568,
    "See": 3569,
    "Ġscare": 3570,
    "ĠitÃ¢": 3571,
    "Ġdispl": 3572,
    "Ġdisplay": 3573,
    "Ġflag": 3574,
    "Ġharb": 3575,
    "Ġharbor": 3576,
    "Ġteleph": 3577,
    "Ġtelephone": 3578,
    "Ġgloom": 3579,
    "Ġgloomy": 3580,
    "Ġprize": 3581,
    "Ġscar": 3582,
    "Ġdust": 3583,
    "Ġdanger": 3584,
    "Ġimpat": 3585,
    "Ġimpatient": 3586,
    "Ġnorm": 3587,
    "Ġnormal": 3588,
    "Ġorganized": 3589,
    "Ġig": 3590,
    "Ġigloo": 3591,
    "Ġmech": 3592,
    "Ġmechanic": 3593,
    "Ġrare": 3594,
    "Ġsplit": 3595,
    "Ġsend": 3596,
    "eath": 3597,
    "ari": 3598,
    "Ġlid": 3599,
    "Ġtelling": 3600,
    "Ġrequ": 3601,
    "Ġstranger": 3602,
    "Ġfamous": 3603,
    "low": 3604,
    "Ġresc": 3605,
    "Ġboats": 3606,
    "Ġjet": 3607,
    "Ġshooting": 3608,
    "ets": 3609,
    "Ġrelaxed": 3610,
    "Ġspade": 3611,
    "Ġdess": 3612,
    "ĠGeorge": 3613,
    "Ġthumb": 3614,
    "ues": 3615,
    "Ġspilled": 3616,
    "Ġsomewhere": 3617,
    "Ġexamine": 3618,
    "Ġeggs": 3619,
    "Ġscatter": 3620,
    "aid": 3621,
    "edy": 3622,
    "Ġspit": 3623,
    "Ġoats": 3624,
    "Ġcows": 3625,
    "enty": 3626,
    "ĠBlue": 3627,
    "Ġstruc": 3628,
    "Ġstructure": 3629,
    "ĠBu": 3630,
    "lara": 3631,
    "Ġsunflower": 3632,
    "Ġpopular": 3633,
    "Ġdreams": 3634,
    "arsh": 3635,
    "Ġdug": 3636,
    "Ġlend": 3637,
    "Ġweep": 3638,
    "Benny": 3639,
    "Ġsaving": 3640,
    "elp": 3641,
    "ĠLul": 3642,
    "ĠLulu": 3643,
    "Ġbeak": 3644,
    "Ġinf": 3645,
    "Ġpushing": 3646,
    "Ġrespectful": 3647,
    "Ġshel": 3648,
    "Ġcareless": 3649,
    "body": 3650,
    "urried": 3651,
    "Ġmis": 3652,
    "Ġcleaning": 3653,
    "omed": 3654,
    "Ġexcla": 3655,
    "Ġexclaimed": 3656,
    "Ġchasing": 3657,
    "ĠBear": 3658,
    "Ġreind": 3659,
    "Ġreinde": 3660,
    "Ġreindeer": 3661,
    "Ġsummer": 3662,
    "cc": 3663,
    "Ġpastry": 3664,
    "Ġimpro": 3665,
    "Ġpersist": 3666,
    "Ġpersistent": 3667,
    "Ġshaking": 3668,
    "Ġhappens": 3669,
    "Ġaccepted": 3670,
    "Ġpetals": 3671,
    "ÅĵYou": 3672,
    "Ġsurround": 3673,
    "ĠPapa": 3674,
    "ĠU": 3675,
    "Ġsquirrels": 3676,
    "Ġkicked": 3677,
    "Ġrever": 3678,
    "Ġfilthy": 3679,
    "zer": 3680,
    "Ġcomplet": 3681,
    "Daisy": 3682,
    "robe": 3683,
    "Ġach": 3684,
    "By": 3685,
    "Ġexerc": 3686,
    "Ġwheels": 3687,
    "Ġcudd": 3688,
    "Ġglove": 3689,
    "Ġmeans": 3690,
    "Ġitch": 3691,
    "Ġquit": 3692,
    "Ġtoast": 3693,
    "Ġhive": 3694,
    "ĠClaire": 3695,
    "Ġsnuggled": 3696,
    "Ġlibr": 3697,
    "Ġunk": 3698,
    "Ġsuitcase": 3699,
    "Ġstared": 3700,
    "Ġbeef": 3701,
    "aff": 3702,
    "Ġtool": 3703,
    "Ġcats": 3704,
    "Ġdessert": 3705,
    "Ġcharming": 3706,
    "cast": 3707,
    "Ġart": 3708,
    "Ġsplashing": 3709,
    "Ġworm": 3710,
    "Ġhol": 3711,
    "Ġholid": 3712,
    "Ġholiday": 3713,
    "Ġphot": 3714,
    "ĠJoey": 3715,
    "night": 3716,
    "Ġpraised": 3717,
    "Ġbounced": 3718,
    "Ġavoc": 3719,
    "Ġenvelope": 3720,
    "mare": 3721,
    "Ġlions": 3722,
    "Ġcostum": 3723,
    "Ġbread": 3724,
    "Ġnotebook": 3725,
    "Ġstat": 3726,
    "Ġstatue": 3727,
    "ĠWhere": 3728,
    "Ġguess": 3729,
    "Ġjellyfish": 3730,
    "owy": 3731,
    "Ġfalls": 3732,
    "Ġknight": 3733,
    "Ġgrandpa": 3734,
    "ges": 3735,
    "Ġputting": 3736,
    "Ġpulls": 3737,
    "Ġpatch": 3738,
    "Ġvehicle": 3739,
    "Ġbuck": 3740,
    "Re": 3741,
    "oppy": 3742,
    "ations": 3743,
    "Ġcaul": 3744,
    "Ġcaulif": 3745,
    "Ġoat": 3746,
    "Ġvalley": 3747,
    "Ġtiger": 3748,
    "Ġpine": 3749,
    "ĠBun": 3750,
    "Go": 3751,
    "Ow": 3752,
    "Ġthanks": 3753,
    "Ġmush": 3754,
    "Ġmushroom": 3755,
    "Ġpoured": 3756,
    "igz": 3757,
    "igzag": 3758,
    "Ġtwisted": 3759,
    "Ġhammer": 3760,
    "Help": 3761,
    "inky": 3762,
    "ecause": 3763,
    "Ġweigh": 3764,
    "Ġspun": 3765,
    "ected": 3766,
    "Ġavail": 3767,
    "Ġavailable": 3768,
    "Ġsandbox": 3769,
    "berries": 3770,
    "ĠCindy": 3771,
    "Ġfright": 3772,
    "Ġshort": 3773,
    "ĠcouldnÃ¢": 3774,
    "Ġmodest": 3775,
    "Ġoffer": 3776,
    "Ġattra": 3777,
    "Ġframe": 3778,
    "achel": 3779,
    "Ġneighbourhood": 3780,
    "Ġreturn": 3781,
    "Ġcur": 3782,
    "Ġstirred": 3783,
    "Ġgrowing": 3784,
    "Ġappro": 3785,
    "Ġluck": 3786,
    "Ġplaced": 3787,
    "While": 3788,
    "Ġknows": 3789,
    "Ġhappiness": 3790,
    "dge": 3791,
    "Ġwaist": 3792,
    "Ġslides": 3793,
    "sit": 3794,
    "ĠIÃ¢": 3795,
    "Ġfingers": 3796,
    "Ġchirp": 3797,
    "Ġbrothers": 3798,
    "Alice": 3799,
    "Ġfreezer": 3800,
    "Ġevening": 3801,
    "Ġscarf": 3802,
    "Ġsupply": 3803,
    "Ġcel": 3804,
    "Ġcelery": 3805,
    "Ġachie": 3806,
    "rick": 3807,
    "Yay": 3808,
    "Ġhelm": 3809,
    "Ġjumps": 3810,
    "Ġentered": 3811,
    "Ġstretched": 3812,
    "Ġsir": 3813,
    "Ġblueberry": 3814,
    "Ġsneezed": 3815,
    "ÅĵItÃ¢": 3816,
    "ĠTed": 3817,
    "Ġimagination": 3818,
    "Ġcandle": 3819,
    "Ġcurtains": 3820,
    "Ġsweetie": 3821,
    "Ġyoga": 3822,
    "Ġpanda": 3823,
    "Ġcoins": 3824,
    "Ġcap": 3825,
    "Ġairport": 3826,
    "Ġstaff": 3827,
    "Ġclapping": 3828,
    "Ġnotice": 3829,
    "Ġjeep": 3830,
    "Ġsof": 3831,
    "Ġsofa": 3832,
    "Ġyaw": 3833,
    "Ġyawned": 3834,
    "Ġsandcast": 3835,
    "Ġstup": 3836,
    "Ġstupid": 3837,
    "seum": 3838,
    "ony": 3839,
    "cky": 3840,
    "Ġorganize": 3841,
    "Ġlaser": 3842,
    "nown": 3843,
    "spap": 3844,
    "Ġdict": 3845,
    "Ġdiction": 3846,
    "Ġdictionary": 3847,
    "Ġpolish": 3848,
    "Ġfireman": 3849,
    "Ġcupboard": 3850,
    "Ġpoked": 3851,
    "Ġliqu": 3852,
    "Ġliquid": 3853,
    "Ġnightmare": 3854,
    "Ġraise": 3855,
    "Ġmarry": 3856,
    "Ġmixer": 3857,
    "Ġfest": 3858,
    "Ġpiano": 3859,
    "Ġpapers": 3860,
    "Ġfier": 3861,
    "Ġfierce": 3862,
    "Ġpear": 3863,
    "ĠSnowy": 3864,
    "Ġdough": 3865,
    "Ġapologized": 3866,
    "Ġfrogs": 3867,
    "Ġshouts": 3868,
    "Ġknock": 3869,
    "Ġopens": 3870,
    "izes": 3871,
    "Ġcrash": 3872,
    "Ġdecorate": 3873,
    "Ġsort": 3874,
    "Ġwashed": 3875,
    "Ġsings": 3876,
    "Ġfirework": 3877,
    "Ġlightning": 3878,
    "Ġopera": 3879,
    "Ġmanage": 3880,
    "ites": 3881,
    "Ġrubber": 3882,
    "ĠFloppy": 3883,
    "ĠFurry": 3884,
    "Ġscooter": 3885,
    "ĠMark": 3886,
    "Ġzipp": 3887,
    "Ġzipper": 3888,
    "eb": 3889,
    "Ġfastest": 3890,
    "ĠWill": 3891,
    "Ġshells": 3892,
    "Ġfloat": 3893,
    "gn": 3894,
    "Ġmistakes": 3895,
    "Inside": 3896,
    "Ġbadly": 3897,
    "Ġmeas": 3898,
    "aused": 3899,
    "Ġpressed": 3900,
    "atched": 3901,
    "ÅĵThatÃ¢": 3902,
    "isten": 3903,
    "Ġthoughtful": 3904,
    "Ġnowhere": 3905,
    "Eventually": 3906,
    "Ġpow": 3907,
    "Ġbree": 3908,
    "Ġbreeze": 3909,
    "Ġtwirl": 3910,
    "Ġinsist": 3911,
    "Ġdiscovery": 3912,
    "Ġdem": 3913,
    "Ġsince": 3914,
    "ÅĵWhat": 3915,
    "Ġworries": 3916,
    "Ġmild": 3917,
    "Ġseeds": 3918,
    "Ġappl": 3919,
    "Ġapplau": 3920,
    "Ġprovide": 3921,
    "Ġmiser": 3922,
    "Ġmiserable": 3923,
    "Ġgiggle": 3924,
    "Ġfeelings": 3925,
    "Ġfearful": 3926,
    "Ġlip": 3927,
    "Ġfat": 3928,
    "Ġshut": 3929,
    "ray": 3930,
    "year": 3931,
    "Ġnetwork": 3932,
    "Ġhandle": 3933,
    "Ġdisc": 3934,
    "Ġmen": 3935,
    "Daddy": 3936,
    "Ġaftern": 3937,
    "Ġafternoon": 3938,
    "Grandma": 3939,
    "ĠIs": 3940,
    "Ġexercise": 3941,
    "Ġsolved": 3942,
    "Ġstairs": 3943,
    "Ġapart": 3944,
    "Ġinvest": 3945,
    "Ġinvestig": 3946,
    "Ġinvestigate": 3947,
    "Ġnames": 3948,
    "Ġbelongs": 3949,
    "Ġattractive": 3950,
    "Ġunpack": 3951,
    "Ġrise": 3952,
    "Ġshade": 3953,
    "Ġfriendship": 3954,
    "Ġbarn": 3955,
    "iers": 3956,
    "Ġchance": 3957,
    "Ġmuffin": 3958,
    "Ġrequest": 3959,
    "'ve": 3960,
    "Mr": 3961,
    "Ġdestroyed": 3962,
    "Ġresist": 3963,
    "Ġmodel": 3964,
    "Ġskill": 3965,
    "Ġpilot": 3966,
    "Ġwhisper": 3967,
    "Ġtremb": 3968,
    "ĠFreddy": 3969,
    "Ġbelt": 3970,
    "Ġtricks": 3971,
    "Ġlibrary": 3972,
    "lowly": 3973,
    "stairs": 3974,
    "Ġshiver": 3975,
    "Ġcollecting": 3976,
    "Ġdove": 3977,
    "ĠEmmy": 3978,
    "Ġattach": 3979,
    "Ġdistant": 3980,
    "cy": 3981,
    "Ġriding": 3982,
    "Ġlouder": 3983,
    "Next": 3984,
    "Ġunite": 3985,
    "Ġtherm": 3986,
    "Ġthermomet": 3987,
    "Ġthermometer": 3988,
    "Ġmention": 3989,
    "Ġlaught": 3990,
    "Ġlaughter": 3991,
    "Ġappre": 3992,
    "Ġapprec": 3993,
    "Ġappreci": 3994,
    "Ġmuseum": 3995,
    "ĠTeddy": 3996,
    "Ġslipp": 3997,
    "Ġslippery": 3998,
    "Ġjoined": 3999,
    "Ġspinning": 4000,
    "Ġunknown": 4001,
    "Ġnewspap": 4002,
    "ates": 4003,
    "eros": 4004,
    "Ġsuff": 4005,
    "pes": 4006,
    "Ġtowers": 4007,
    "ĠMilly": 4008,
    "Ġblackboard": 4009,
    "Ġfestiv": 4010,
    "Ġcomplain": 4011,
    "Ġcoco": 4012,
    "Ġcocoa": 4013,
    "Ġgrabs": 4014,
    "Ġstops": 4015,
    "Ġtrains": 4016,
    "Ġholds": 4017,
    "Ġsink": 4018,
    "Give": 4019,
    "bbing": 4020,
    "Ġsting": 4021,
    "ron": 4022,
    "Ġholes": 4023,
    "ĠRex": 4024,
    "ither": 4025,
    "Ġmakeup": 4026,
    "Ġvroom": 4027,
    "Ġburn": 4028,
    "Ġbuckle": 4029,
    "Ġuncle": 4030,
    "Ġbrace": 4031,
    "ison": 4032,
    "Ġpenguin": 4033,
    "Ġsniffed": 4034,
    "Ġol": 4035,
    "Ġcable": 4036,
    "Ġjolly": 4037,
    "Ġhunter": 4038,
    "ĠMaddy": 4039,
    "ple": 4040,
    "ĠRemy": 4041,
    "Ġpastel": 4042,
    "ĠRose": 4043,
    "Ġshower": 4044,
    "Ġnation": 4045,
    "ĠStar": 4046,
    "Ġpipe": 4047,
    "Ġfine": 4048,
    "Ġbegin": 4049,
    "Ġreco": 4050,
    "Ġrecogn": 4051,
    "ĠZ": 4052,
    "Ġpump": 4053,
    "Ġinfant": 4054,
    "place": 4055,
    "ĠCharlie": 4056,
    "Ch": 4057,
    "Ġshouldn": 4058,
    "Qu": 4059,
    "Wh": 4060,
    "Ġfrightened": 4061,
    "ores": 4062,
    "Ġeasier": 4063,
    "Ġshoulder": 4064,
    "Ġprett": 4065,
    "Ġwarri": 4066,
    "Ġwarrior": 4067,
    "Ġunc": 4068,
    "Ġuncom": 4069,
    "Ġuncomfortable": 4070,
    "Ġweal": 4071,
    "ĠLizzie": 4072,
    "Ġmarched": 4073,
    "Ġknown": 4074,
    "Ġawe": 4075,
    "Ġeart": 4076,
    "Ġearth": 4077,
    "Ġbrighter": 4078,
    "Ġquite": 4079,
    "Ġreve": 4080,
    "unately": 4081,
    "Ġchip": 4082,
    "Ġpresents": 4083,
    "Ġknob": 4084,
    "Ġremain": 4085,
    "Ġprepare": 4086,
    "Ġbury": 4087,
    "Ġburied": 4088,
    "Ġignored": 4089,
    "Ġhelps": 4090,
    "hell": 4091,
    "medi": 4092,
    "mediately": 4093,
    "Ġdemand": 4094,
    "Ġletting": 4095,
    "isk": 4096,
    "kelet": 4097,
    "Ġhall": 4098,
    "Ġmeeting": 4099,
    "Ġwhistling": 4100,
    "Ġdesign": 4101,
    "Ġsle": 4102,
    "Ġbicy": 4103,
    "Ġgrowled": 4104,
    "ĠAlice": 4105,
    "Ġleaned": 4106,
    "Ġchu": 4107,
    "Ġchubby": 4108,
    "Ġblowing": 4109,
    "Andy": 4110,
    "Ġsunlight": 4111,
    "Ġfloating": 4112,
    "Ġsoldiers": 4113,
    "aded": 4114,
    "Ġraven": 4115,
    "Ġended": 4116,
    "Ġsailing": 4117,
    "Ġproudly": 4118,
    "eople": 4119,
    "Ġwid": 4120,
    "Ġattention": 4121,
    "Ġblankets": 4122,
    "Because": 4123,
    "Ġglowing": 4124,
    "Ġrescue": 4125,
    "Ġson": 4126,
    "Ġbehave": 4127,
    "Ġattached": 4128,
    "Ġlines": 4129,
    "Ġmotorcy": 4130,
    "Ġmotorcycle": 4131,
    "Ġsurre": 4132,
    "Ġsurrender": 4133,
    "Ġcups": 4134,
    "Ġbumped": 4135,
    "Ġobserve": 4136,
    "Ġcrossed": 4137,
    "Ġsmells": 4138,
    "Ġblueberries": 4139,
    "Ġimagine": 4140,
    "Ġcompetitive": 4141,
    "Ġbrus": 4142,
    "Ġsparkling": 4143,
    "Ġfields": 4144,
    "Ġtheater": 4145,
    "Ġrhin": 4146,
    "Ġrhinoc": 4147,
    "Ġrhinoceros": 4148,
    "Ġcrazy": 4149,
    "Ġshot": 4150,
    "Ġstudied": 4151,
    "Ġcomfort": 4152,
    "Ġimpress": 4153,
    "Ġplays": 4154,
    "Ġfestival": 4155,
    "ĠLilly": 4156,
    "Ġgrin": 4157,
    "zzy": 4158,
    "Ġcam": 4159,
    "Ġcamera": 4160,
    "Ġskipping": 4161,
    "Ġcheek": 4162,
    "Ġstudying": 4163,
    "Ġwashing": 4164,
    "Tweet": 4165,
    "Ġfollows": 4166,
    "Ġhopes": 4167,
    "Ġdrawings": 4168,
    "Ġrepeats": 4169,
    "Ġcushions": 4170,
    "Ġpulling": 4171,
    "Ġzooming": 4172,
    "Ġthu": 4173,
    "Ġgir": 4174,
    "Ġgolf": 4175,
    "Ġclub": 4176,
    "Ġink": 4177,
    "Ġcauliflower": 4178,
    "Ġtemple": 4179,
    "ĠCar": 4180,
    "Ġseal": 4181,
    "Ġhotel": 4182,
    "Ġscru": 4183,
    "Ġstarfish": 4184,
    "Ġot": 4185,
    "Ġotter": 4186,
    "Ġsew": 4187,
    "Together": 4188,
    "ĠBeep": 4189,
    "Ġfalling": 4190,
    "Ġcherries": 4191,
    "Ġpuddles": 4192,
    "Ouch": 4193,
    "Ġthose": 4194,
    "Ġgoal": 4195,
    "Ġhumble": 4196,
    "ĠHere": 4197,
    "Ġcards": 4198,
    "Ġbet": 4199,
    "Ġwipe": 4200,
    "ĠAre": 4201,
    "ĠEach": 4202,
    "ĠBill": 4203,
    "Ġcre": 4204,
    "Ġcrept": 4205,
    "Ġsteps": 4206,
    "Ġstrugg": 4207,
    "Ġdeer": 4208,
    "Ġperm": 4209,
    "ÅĵDo": 4210,
    "Ġtwirled": 4211,
    "ĠdidnÃ¢": 4212,
    "ĠRachel": 4213,
    "Ġstra": 4214,
    "iring": 4215,
    "Ġmemor": 4216,
    "Ġmemories": 4217,
    "Ġdrop": 4218,
    "Ġshrugged": 4219,
    "Ġplanted": 4220,
    "ÅĵIÃ¢": 4221,
    "Ġapproached": 4222,
    "Ġfut": 4223,
    "Ġfuture": 4224,
    "Ġamazem": 4225,
    "Ġamazement": 4226,
    "ans": 4227,
    "ĠJune": 4228,
    "Ġsoar": 4229,
    "Ġwing": 4230,
    "nfort": 4231,
    "nfortunately": 4232,
    "ĠInst": 4233,
    "Ġhanger": 4234,
    "With": 4235,
    "Ġposs": 4236,
    "Ġseas": 4237,
    "Ġcoloured": 4238,
    "Ġdrawer": 4239,
    "ding": 4240,
    "Ġraft": 4241,
    "osity": 4242,
    "keleton": 4243,
    "icing": 4244,
    "Ġcreate": 4245,
    "ress": 4246,
    "ĠKate": 4247,
    "Ġbicycle": 4248,
    "enise": 4249,
    "Ġeff": 4250,
    "Ġeffort": 4251,
    "Ġdiscovering": 4252,
    "Ġpair": 4253,
    "uct": 4254,
    "Ġhills": 4255,
    "Ġheads": 4256,
    "Ġsnapped": 4257,
    "Ġboom": 4258,
    "Ġflutter": 4259,
    "Ġheaded": 4260,
    "Ġappear": 4261,
    "ĠSee": 4262,
    "aked": 4263,
    "Ġunlock": 4264,
    "Ġinstr": 4265,
    "Ġchat": 4266,
    "Will": 4267,
    "ĠPeople": 4268,
    "Ġearl": 4269,
    "Ġearlier": 4270,
    "Ġskills": 4271,
    "Ġenc": 4272,
    "ĠMan": 4273,
    "looking": 4274,
    "Ġtuck": 4275,
    "Ġstri": 4276,
    "Ġcamp": 4277,
    "These": 4278,
    "Thanks": 4279,
    "Today": 4280,
    "Ġuniverse": 4281,
    "Ġvalue": 4282,
    "Ġthrowing": 4283,
    "Ġspoiled": 4284,
    "Ġmissing": 4285,
    "Ġtwigs": 4286,
    "Ġcollected": 4287,
    "Ġincluded": 4288,
    "Ġsurprises": 4289,
    "Ġspag": 4290,
    "Ġspaghe": 4291,
    "Ġspaghet": 4292,
    "Ġspaghett": 4293,
    "Ġspaghetti": 4294,
    "ision": 4295,
    "Ġphoto": 4296,
    "Ġcandles": 4297,
    "Ġripe": 4298,
    "Ġpoem": 4299,
    "Ġcounter": 4300,
    "Ġsne": 4301,
    "Ġherb": 4302,
    "Ġhearts": 4303,
    "Ġavocado": 4304,
    "Ġvel": 4305,
    "Ġvelv": 4306,
    "Ġvelvet": 4307,
    "Ġgrill": 4308,
    "Ġfilm": 4309,
    "Ġrag": 4310,
    "Ġtrop": 4311,
    "Ġbang": 4312,
    "Ġitem": 4313,
    "ĠNem": 4314,
    "ĠNemo": 4315,
    "att": 4316,
    "Ġpeanuts": 4317,
    "ĠYour": 4318,
    "Ġreac": 4319,
    "Ġreaches": 4320,
    "Ġflies": 4321,
    "Ġsticker": 4322,
    "Ġshakes": 4323,
    "Ġcomple": 4324,
    "Ġwags": 4325,
    "Ġbarks": 4326,
    "Ġsizes": 4327,
    "Ġrubs": 4328,
    "Ġcham": 4329,
    "Ġchamber": 4330,
    "Ġpuzzles": 4331,
    "Ġgro": 4332,
    "Ġgroc": 4333,
    "Ġplayer": 4334,
    "Ġgira": 4335,
    "Ġgiraffe": 4336,
    "Ġrestaur": 4337,
    "Ġrestaurant": 4338,
    "Ġcous": 4339,
    "Ġrockets": 4340,
    "Yum": 4341,
    "Ġswitch": 4342,
    "Ġclown": 4343,
    "First": 4344,
    "ĠSlowly": 4345,
    "ĠJulie": 4346,
    "Ġbracelet": 4347,
    "Ġbattery": 4348,
    "ĠDot": 4349,
    "ĠDotty": 4350,
    "Ġtooth": 4351,
    "Ġpitch": 4352,
    "eve": 4353,
    "atrick": 4354,
    "rnie": 4355,
    "bee": 4356,
    "Ġacorn": 4357,
    "Ġfixing": 4358,
    "Ġrolling": 4359,
    "Ġpaws": 4360,
    "ĠNext": 4361,
    "ĠBinky": 4362,
    "Ġweight": 4363,
    "Ġseparate": 4364,
    "Ġisn": 4365,
    "Ġdressed": 4366,
    "ced": 4367,
    "Ġshelves": 4368,
    "Cindy": 4369,
    "Ġsip": 4370,
    "Ġclearing": 4371,
    "Ġchoice": 4372,
    "Ġstove": 4373,
    "Ġador": 4374,
    "Ġadorable": 4375,
    "Ġchores": 4376,
    "Ġagreement": 4377,
    "oming": 4378,
    "Ġdisag": 4379,
    "ÅĵNo": 4380,
    "Ġnature": 4381,
    "eside": 4382,
    "Ġlively": 4383,
    "Ġcaut": 4384,
    "Ġfireplace": 4385,
    "Ġcrawling": 4386,
    "Ġwealthy": 4387,
    "Ġstraight": 4388,
    "Ġrealize": 4389,
    "Ġhalf": 4390,
    "ĠLook": 4391,
    "Ġlumber": 4392,
    "Ġrefreshed": 4393,
    "Ġcreatures": 4394,
    "Ġunderstanding": 4395,
    "Ġsense": 4396,
    "Would": 4397,
    "Ġlips": 4398,
    "Ġpatterns": 4399,
    "Ġargue": 4400,
    "Ġorang": 4401,
    "Ġoranges": 4402,
    "ĠIts": 4403,
    "Ġlect": 4404,
    "Ġlecture": 4405,
    "Ġoak": 4406,
    "Ġdive": 4407,
    "Ġsqueezed": 4408,
    "Ġswinging": 4409,
    "Ġsqueeze": 4410,
    "Ġimmediately": 4411,
    "Ġeagerly": 4412,
    "Ġrubbing": 4413,
    "Ġdemanded": 4414,
    "Ġhesit": 4415,
    "Ġalive": 4416,
    "Ġintro": 4417,
    "Ġintrod": 4418,
    "Ġslept": 4419,
    "Ġmoments": 4420,
    "Ġcomplete": 4421,
    "Ġyar": 4422,
    "Ġyarn": 4423,
    "Ġward": 4424,
    "Ġwardrobe": 4425,
    "Ġing": 4426,
    "Ġingred": 4427,
    "Ġingredient": 4428,
    "Ġingredients": 4429,
    "ĠSomething": 4430,
    "Ġhelmet": 4431,
    "Ġpor": 4432,
    "sters": 4433,
    "Ġwire": 4434,
    "inn": 4435,
    "innie": 4436,
    "Ġroared": 4437,
    "ives": 4438,
    "Ġhanging": 4439,
    "Ġgotten": 4440,
    "Ġwrap": 4441,
    "Ah": 4442,
    "Ġda": 4443,
    "Ġgust": 4444,
    "Ġnurse": 4445,
    "Ġkindly": 4446,
    "Ġslip": 4447,
    "Ġskull": 4448,
    "..": 4449,
    "Ġmeal": 4450,
    "ĠTr": 4451,
    "Ġrested": 4452,
    "Ġencou": 4453,
    "Ġquestion": 4454,
    "Fred": 4455,
    "ĠSu": 4456,
    "arian": 4457,
    "Ġpaused": 4458,
    "dled": 4459,
    "Ġpup": 4460,
    "Ġcrowd": 4461,
    "Ġlistening": 4462,
    "ases": 4463,
    "Ġsque": 4464,
    "All": 4465,
    "Ġbravely": 4466,
    "Ġshadows": 4467,
    "Ġwanting": 4468,
    "Ġcooking": 4469,
    "Ġbathe": 4470,
    "Ġtar": 4471,
    "Ġproblems": 4472,
    "ĠAb": 4473,
    "Ġorder": 4474,
    "Ġsurf": 4475,
    "Ġsaus": 4476,
    "Ġexperience": 4477,
    "Ġurge": 4478,
    "ussel": 4479,
    "Ġtrail": 4480,
    "Ġwriting": 4481,
    "Ġboots": 4482,
    "Ġunha": 4483,
    "Ġunhappy": 4484,
    "Ġbaking": 4485,
    "Ġharmless": 4486,
    "Ġpillows": 4487,
    "Ġvac": 4488,
    "Ġgrandb": 4489,
    "Ġgrandbaby": 4490,
    "Ġstable": 4491,
    "ĠGrand": 4492,
    "Ġsuffer": 4493,
    "Ġhappier": 4494,
    "Ġtrack": 4495,
    "Ġimpressive": 4496,
    "Ġbouncy": 4497,
    "igned": 4498,
    "Ġprevent": 4499,
    "aped": 4500,
    "coon": 4501,
    "anan": 4502,
    "Ġga": 4503,
    "Ġpoke": 4504,
    "Ġforgave": 4505,
    "Bye": 4506,
    "Ġcompleted": 4507,
    "Ġrepeat": 4508,
    "Ġbrid": 4509,
    "Ġflour": 4510,
    "riage": 4511,
    "Ġnewspaper": 4512,
    "Ġcartoons": 4513,
    "Ġthunder": 4514,
    "Ġmonkeys": 4515,
    "Ġpaddle": 4516,
    "ato": 4517,
    "Ġwhip": 4518,
    "Ġcabinet": 4519,
    "Ġtire": 4520,
    "Ġshovel": 4521,
    "illa": 4522,
    "Ġwrites": 4523,
    "Ġcanv": 4524,
    "Ġcanvas": 4525,
    "Ġdra": 4526,
    "Ġpoison": 4527,
    "Ġwast": 4528,
    "Ġwaste": 4529,
    "Ġbouncing": 4530,
    "Ġhero": 4531,
    "ĠBuzz": 4532,
    "Ġtrave": 4533,
    "Ġdishw": 4534,
    "Ġdishwas": 4535,
    "Ġdishwasher": 4536,
    "Ġmi": 4537,
    "Ġsteam": 4538,
    "ĠClara": 4539,
    "Ġfireworks": 4540,
    "Ġranch": 4541,
    "ĠPandy": 4542,
    "Ġshamp": 4543,
    "Ġshampoo": 4544,
    "utty": 4545,
    "Ġtwenty": 4546,
    "Ġthir": 4547,
    "Ġthirty": 4548,
    "Ġforty": 4549,
    "Ġharsh": 4550,
    "Ġrot": 4551,
    "Ġdelay": 4552,
    "liver": 4553,
    "Ġpumpkin": 4554,
    "Ġreceive": 4555,
    "ĠBloom": 4556,
    "Ġgraceful": 4557,
    "Ġsoaring": 4558,
    "Ġflav": 4559,
    "ĊĠ": 4560,
    "fit": 4561,
    "Ġperfectly": 4562,
    "Who": 4563,
    "Ġforth": 4564,
    "cut": 4565,
    "Ġloll": 4566,
    "Ġlollip": 4567,
    "Ġlollipop": 4568,
    "Ġbalanc": 4569,
    "Ġobjects": 4570,
    "Ġnicer": 4571,
    "Ġwelcomed": 4572,
    "Ġdisagreed": 4573,
    "Ġradi": 4574,
    "Ġradio": 4575,
    "Ġprettiest": 4576,
    "Ġbeside": 4577,
    "Ġflame": 4578,
    "Ġspiders": 4579,
    "Ġtoes": 4580,
    "Ġdistur": 4581,
    "Ġdisturb": 4582,
    "Ġpedal": 4583,
    "Ġadmiring": 4584,
    "Ġcutting": 4585,
    "ÅĵCan": 4586,
    "Ġzipping": 4587,
    "Ġmeowed": 4588,
    "Mor": 4589,
    "Moral": 4590,
    "Ġbrings": 4591,
    "Ġselling": 4592,
    "Ġladyb": 4593,
    "Ġladybug": 4594,
    "Ġeveryday": 4595,
    "ĠMike": 4596,
    "Ġworks": 4597,
    "Ġweren": 4598,
    "Ġsettle": 4599,
    "Ġfas": 4600,
    "Ġfasc": 4601,
    "Ġlandsc": 4602,
    "Ġlandscape": 4603,
    "Ġribbons": 4604,
    "Ġbecoming": 4605,
    "ĠGr": 4606,
    "Ġeaten": 4607,
    "terday": 4608,
    "Ġtwink": 4609,
    "Ġfolding": 4610,
    "Ġchecked": 4611,
    "âĤ¬âĢĿ": 4612,
    "ĠWould": 4613,
    "Ġtastes": 4614,
    "Ġrecei": 4615,
    "Ġreceived": 4616,
    "ĠHave": 4617,
    "Ġcuriosity": 4618,
    "Ġshouting": 4619,
    "Ġonwards": 4620,
    "Ġrust": 4621,
    "ĠDenise": 4622,
    "Ġdiscuss": 4623,
    "Ġmenu": 4624,
    "Ġordered": 4625,
    "Ġswamp": 4626,
    "Ġskirt": 4627,
    "ĠIsabel": 4628,
    "Ġcooked": 4629,
    "Henry": 4630,
    "Ġmyself": 4631,
    "Ġwigg": 4632,
    "Ġmonsters": 4633,
    "aces": 4634,
    "Ġbeginning": 4635,
    "Ġbeneath": 4636,
    "Ġfought": 4637,
    "Ġanyway": 4638,
    "ĠNot": 4639,
    "Ġonion": 4640,
    "Ġrides": 4641,
    "Ġhappiest": 4642,
    "Ġglowed": 4643,
    "Ġhedge": 4644,
    "Ġclick": 4645,
    "Ġtrembling": 4646,
    "Ġwaving": 4647,
    "Ġpretending": 4648,
    "Ġprec": 4649,
    "Ġtodd": 4650,
    "Ġtoddl": 4651,
    "Ġarrows": 4652,
    "Ġtools": 4653,
    "ae": 4654,
    "Ġvet": 4655,
    "Ġexamined": 4656,
    "ĠRussel": 4657,
    "Ġreplace": 4658,
    "ĠAc": 4659,
    "Ġbarrel": 4660,
    "Ġdestination": 4661,
    "Ġants": 4662,
    "Ġzeb": 4663,
    "Ġzebra": 4664,
    "Ġgolden": 4665,
    "uby": 4666,
    "Ġdeeper": 4667,
    "Ġdrift": 4668,
    "Ġmeat": 4669,
    "Ġumb": 4670,
    "Ġumbre": 4671,
    "Ġumbrella": 4672,
    "Ġrecording": 4673,
    "Ġhorses": 4674,
    "Ġdreamt": 4675,
    "Ġplanes": 4676,
    "ĠBet": 4677,
    "Ġlotion": 4678,
    "Ġshrink": 4679,
    "Ġya": 4680,
    "Ġyawn": 4681,
    "Ġdresser": 4682,
    "Ġbanan": 4683,
    "Ġgrinned": 4684,
    "Ġsurrounded": 4685,
    "bbled": 4686,
    "Ġtrophy": 4687,
    "Ġkneel": 4688,
    "Ġgain": 4689,
    "Ġstem": 4690,
    "Ġspending": 4691,
    "Ġbones": 4692,
    "Ġhelper": 4693,
    "Ġpoints": 4694,
    "Ġkisses": 4695,
    "ĠMiss": 4696,
    "Ġtug": 4697,
    "Ġthrows": 4698,
    "Ġseeker": 4699,
    "Ġhider": 4700,
    "Ġdancer": 4701,
    "Ġpiles": 4702,
    "Ġapologize": 4703,
    "Ġscratch": 4704,
    "Ġroaring": 4705,
    "Ġwaits": 4706,
    "Ġdrops": 4707,
    "Ġpillow": 4708,
    "riends": 4709,
    "Ġapron": 4710,
    "Ġnapkin": 4711,
    "Ġsunr": 4712,
    "Ġsunrise": 4713,
    "Ġreads": 4714,
    "Ġparts": 4715,
    "Ġdare": 4716,
    "gen": 4717,
    "Ġbreathe": 4718,
    "Ġsupport": 4719,
    "Ġloaded": 4720,
    "Ġcooler": 4721,
    "cope": 4722,
    "iously": 4723,
    "Ġticket": 4724,
    "arl": 4725,
    "ikes": 4726,
    "Ġolive": 4727,
    "Ġraccoon": 4728,
    "arry": 4729,
    "Ġpepp": 4730,
    "Ġpeppers": 4731,
    "Ġchess": 4732,
    "Ġdecorations": 4733,
    "obbie": 4734,
    "ĠSun": 4735,
    "iskers": 4736,
    "Ġamb": 4737,
    "Ġambul": 4738,
    "Ġambulance": 4739,
    "ĠBunny": 4740,
    "ĠToby": 4741,
    "ĠPatrick": 4742,
    "Sammy": 4743,
    "ilda": 4744,
    "hnn": 4745,
    "hnny": 4746,
    "Ġinch": 4747,
    "artin": 4748,
    "ĠKim": 4749,
    "Ġbookc": 4750,
    "Ġbookcase": 4751,
    "Ġnovel": 4752,
    "Ġsprayed": 4753,
    "Ġrecognized": 4754,
    "Ġfauc": 4755,
    "Ġfaucet": 4756,
    "Ġwarning": 4757,
    "Ġmeasured": 4758,
    "Are": 4759,
    "Ġbetw": 4760,
    "Ġbetween": 4761,
    "Ann": 4762,
    "ÅĵThank": 4763,
    "Ġfash": 4764,
    "Ġfashion": 4765,
    "Ġoutfit": 4766,
    "ears": 4767,
    "Ġflapped": 4768,
    "Ġbackpack": 4769,
    "Ġgems": 4770,
    "Ġsoil": 4771,
    "Ġalr": 4772,
    "Ġalright": 4773,
    "Ġhaircut": 4774,
    "Ġwinter": 4775,
    "Ġfir": 4776,
    "Ġfirm": 4777,
    "Ġpowder": 4778,
    "Ġoverjoy": 4779,
    "Ġoverjoyed": 4780,
    "ĠLetÃ¢": 4781,
    "Ġsoftly": 4782,
    "Ġchalk": 4783,
    "Lola": 4784,
    "Ġzipped": 4785,
    "Susie": 4786,
    "Ġfollowing": 4787,
    "ita": 4788,
    "Ġoas": 4789,
    "Ġoasis": 4790,
    "Ġrising": 4791,
    "ib": 4792,
    "Ġfallen": 4793,
    "Ġbeam": 4794,
    "Ġapplauded": 4795,
    "Somet": 4796,
    "Ġrevealed": 4797,
    "wo": 4798,
    "Ġtugged": 4799,
    "Ġfascin": 4800,
    "Ġspell": 4801,
    "Ġchipm": 4802,
    "Ġchipmunk": 4803,
    "ĠInstead": 4804,
    "Ġstom": 4805,
    "Ġremained": 4806,
    "Ġwarmth": 4807,
    "Ġkicking": 4808,
    "ĠGranny": 4809,
    "Ġdigg": 4810,
    "Ġdigging": 4811,
    "Frank": 4812,
    "ults": 4813,
    "Ġvent": 4814,
    "Ġfolded": 4815,
    "Ġdarkness": 4816,
    "Ġneat": 4817,
    "Danny": 4818,
    "James": 4819,
    "Ġturkey": 4820,
    "Ġtip": 4821,
    "Ġskeleton": 4822,
    "Ġpracticing": 4823,
    "Ġchirping": 4824,
    "Ġstuffed": 4825,
    "Ġarea": 4826,
    "Ġlogs": 4827,
    "Ġstaring": 4828,
    "Ġsweets": 4829,
    "Ġsimp": 4830,
    "Ġsimple": 4831,
    "Ġincre": 4832,
    "Ġitchy": 4833,
    "Ġburst": 4834,
    "aven": 4835,
    "Ġreminder": 4836,
    "Ġchop": 4837,
    "Ġjail": 4838,
    "ided": 4839,
    "Ġunivers": 4840,
    "Ġuniversity": 4841,
    "Ġegg": 4842,
    "nies": 4843,
    "Ġmall": 4844,
    "Ġribbon": 4845,
    "Ġpatiently": 4846,
    "Ġbul": 4847,
    "Ġbulb": 4848,
    "Ha": 4849,
    "Ġpaddled": 4850,
    "Ġlugg": 4851,
    "Ġluggage": 4852,
    "ĠEveryday": 4853,
    "Ġplanet": 4854,
    "Ġjogged": 4855,
    "Bella": 4856,
    "Ġobe": 4857,
    "Ġobey": 4858,
    "Ġweeks": 4859,
    "Ġtarget": 4860,
    "Le": 4861,
    "Ġfigured": 4862,
    "Ġsausage": 4863,
    "Ġshed": 4864,
    "Ġhurried": 4865,
    "Ġdire": 4866,
    "Ġdirect": 4867,
    "ĠAccept": 4868,
    "ĠAcceptor": 4869,
    "Ġnails": 4870,
    "Ġpan": 4871,
    "ĠBaby": 4872,
    "Ġtub": 4873,
    "Ġthro": 4874,
    "Ġthroat": 4875,
    "Ġtripped": 4876,
    "ooped": 4877,
    "Ġsparkles": 4878,
    "Ġsingle": 4879,
    "Ġvacation": 4880,
    "Ġbegged": 4881,
    "ĠBefore": 4882,
    "Ġbows": 4883,
    "Ġpages": 4884,
    "Ġbites": 4885,
    "ĠAli": 4886,
    "Ġrod": 4887,
    "Ġcity": 4888,
    "eterin": 4889,
    "eterinarian": 4890,
    "ĠMer": 4891,
    "ĠMeri": 4892,
    "Ġduring": 4893,
    "Ġcostumes": 4894,
    "Ġfisher": 4895,
    "Ġfisherman": 4896,
    "Ġburned": 4897,
    "Ġmachines": 4898,
    "Ġsucce": 4899,
    "Ġsucceed": 4900,
    "Ġequ": 4901,
    "Ġequip": 4902,
    "Ġequipment": 4903,
    "Ġbanana": 4904,
    "ĠGrandpa": 4905,
    "Ġmice": 4906,
    "Ġsore": 4907,
    "Ġtrut": 4908,
    "Ġtruth": 4909,
    "Ġpress": 4910,
    "Ġfirem": 4911,
    "Ġfiremen": 4912,
    "Ġgreedy": 4913,
    "Ġseeing": 4914,
    "Quack": 4915,
    "Ġsigns": 4916,
    "Ġsigh": 4917,
    "Ġswims": 4918,
    "Ġtrusted": 4919,
    "ĠGod": 4920,
    "Ġlick": 4921,
    "Ġtong": 4922,
    "Ġsigned": 4923,
    "eep": 4924,
    "Ġrooms": 4925,
    "Ġstadi": 4926,
    "Ġstadium": 4927,
    "rs": 4928,
    "Ġsneezing": 4929,
    "oed": 4930,
    "Ġeither": 4931,
    "Ġhonking": 4932,
    "Ġstirs": 4933,
    "Ġsprink": 4934,
    "Ġbuildings": 4935,
    "Ġpant": 4936,
    "Ġpants": 4937,
    "Ġofficer": 4938,
    "Ġcoach": 4939,
    "Ġox": 4940,
    "Ġoxy": 4941,
    "Ġoxygen": 4942,
    "ups": 4943,
    "Ġbirdie": 4944,
    "Ġcircus": 4945,
    "Ġgor": 4946,
    "Ġgorilla": 4947,
    "Ġtweet": 4948,
    "Ġfiref": 4949,
    "Ġsty": 4950,
    "Ġteles": 4951,
    "Ġtelescope": 4952,
    "Ġpopc": 4953,
    "Ġpopcorn": 4954,
    "Ġanx": 4955,
    "ongo": 4956,
    "Ġcere": 4957,
    "Ġburning": 4958,
    "Ġsilent": 4959,
    "Ġcarrying": 4960,
    "ĠMatt": 4961,
    "Ġtu": 4962,
    "Ġtube": 4963,
    "Ġhate": 4964,
    "Ġalar": 4965,
    "Ġalarm": 4966,
    "Ġmixt": 4967,
    "Ġmixture": 4968,
    "ĠJet": 4969,
    "ĠWhiskers": 4970,
    "ĠBobo": 4971,
    "Ġinsisted": 4972,
    "lev": 4973,
    "ĠSteve": 4974,
    "ĠDucky": 4975,
    "Ġja": 4976,
    "Ġjazz": 4977,
    "nif": 4978,
    "nifer": 4979,
    "ĠJohnny": 4980,
    "ĠErnie": 4981,
    "Ġbab": 4982,
    "Ġbabies": 4983,
    "Mark": 4984,
    "ĠPit": 4985,
    "quit": 4986,
    "quito": 4987,
    "Ġcousin": 4988,
    "ichell": 4989,
    "ichelle": 4990,
    "ĠAbbie": 4991,
    "Ġdais": 4992,
    "Ġdaisies": 4993,
    "ĠNutty": 4994,
    "Ġscrew": 4995,
    "Ġfreeze": 4996,
    "ĠDependable": 4997,
    "jam": 4998,
    "jamas": 4999,
    "Ġneighbors": 5000,
    "ĠBy": 5001,
    "Ġhose": 5002,
    "ĠOliver": 5003,
    "Yuck": 5004,
    "Ġreward": 5005,
    "Ġseparated": 5006,
    "Ġmatching": 5007,
    "Ġvideos": 5008,
    "Ġsidew": 5009,
    "Ġsidewalk": 5010,
    "Ġstrangers": 5011,
    "ĠAnnie": 5012,
    "Ġsadness": 5013,
    "Ġbare": 5014,
    "Ġbarely": 5015,
    "Ġsafer": 5016,
    "Ġtrem": 5017,
    "Ġtremble": 5018,
    "Ġnobody": 5019,
    "uri": 5020,
    "Ġscurried": 5021,
    "Ġjewels": 5022,
    "Ġforgotten": 5023,
    "Ġgathering": 5024,
    "ÅĵWhy": 5025,
    "Ġpermit": 5026,
    "Ġtore": 5027,
    "Ġbowed": 5028,
    "Ġmudd": 5029,
    "Ġmuddy": 5030,
    "Sometimes": 5031,
    "Ġthird": 5032,
    "Ġactually": 5033,
    "Ġaccom": 5034,
    "Ġaccompl": 5035,
    "Sh": 5036,
    "Ġscold": 5037,
    "ÅĵHello": 5038,
    "Ġpoint": 5039,
    "Ġventured": 5040,
    "Ġurged": 5041,
    "ĠSure": 5042,
    "Ġcryst": 5043,
    "uckily": 5044,
    "ĠLeave": 5045,
    "Ġx": 5046,
    "ĠAlways": 5047,
    "Ġspike": 5048,
    "ator": 5049,
    "Ġclaw": 5050,
    "ric": 5051,
    "Peter": 5052,
    "Ġenter": 5053,
    "oss": 5054,
    "Ġentire": 5055,
    "Ġrefreshing": 5056,
    "Ġachieve": 5057,
    "Ġsafet": 5058,
    "Ġsafety": 5059,
    "Ġporch": 5060,
    "Ġfroz": 5061,
    "Ġfrozen": 5062,
    "Ġwritten": 5063,
    "Ġimprove": 5064,
    "Ġsnap": 5065,
    "Ġmystery": 5066,
    "Ġneighborhood": 5067,
    "Ġideas": 5068,
    "ces": 5069,
    "ait": 5070,
    "ĠJacky": 5071,
    "Ġvict": 5072,
    "Ġvoices": 5073,
    "iar": 5074,
    "Ġsetting": 5075,
    "Ġstro": 5076,
    "ĠMaisy": 5077,
    "Ġlily": 5078,
    "ĠyouÃ¢": 5079,
    "Ġevent": 5080,
    "though": 5081,
    "mm": 5082,
    "Ġnect": 5083,
    "Ġnectar": 5084,
    "seek": 5085,
    "Ġhi": 5086,
    "Ġtear": 5087,
    "Ġrang": 5088,
    "Ġwider": 5089,
    "ĠBee": 5090,
    "Ġtucked": 5091,
    "Ġprecious": 5092,
    "ĠSomeone": 5093,
    "Ġbuzz": 5094,
    "Ġachieved": 5095,
    "ĠOnce": 5096,
    "Ġbaseball": 5097,
    "neath": 5098,
    "irit": 5099,
    "Ġres": 5100,
    "Ġdownstairs": 5101,
    "Ġteasing": 5102,
    "ĠJackÃ¢": 5103,
    "Ġrele": 5104,
    "ixie": 5105,
    "igail": 5106,
    "Ġsurface": 5107,
    "Ġsoared": 5108,
    "izing": 5109,
    "Ġsandcastles": 5110,
    "Ġserve": 5111,
    "Ġpur": 5112,
    "Ġpaintings": 5113,
    "ĠTony": 5114,
    "ĠBecky": 5115,
    "Ġshown": 5116,
    "Ġlu": 5117,
    "Ġlux": 5118,
    "Ġbreaking": 5119,
    "Ġcared": 5120,
    "Ġcott": 5121,
    "Ġcreated": 5122,
    "Ġsettled": 5123,
    "Ġmayor": 5124,
    "Ġdeliver": 5125,
    "Ġvalued": 5126,
    "Ġraining": 5127,
    "Ġlosing": 5128,
    "Ġhopeful": 5129,
    "Ġtonight": 5130,
    "Ġlaid": 5131,
    "Ġeasily": 5132,
    "tain": 5133,
    "Ġsneak": 5134,
    "ĠRuby": 5135,
    "Ġyucky": 5136,
    "Ġrestless": 5137,
    "Ġmane": 5138,
    "Ġlives": 5139,
    "Ġcomforted": 5140,
    "Ġhated": 5141,
    "Jake": 5142,
    "Ġstruggled": 5143,
    "Bet": 5144,
    "Ġplain": 5145,
    "icia": 5146,
    "Ġbeeh": 5147,
    "Ġbeehive": 5148,
    "Ġactiv": 5149,
    "Ġbandage": 5150,
    "Ġbloomed": 5151,
    "ĠTues": 5152,
    "ĠTuesday": 5153,
    "Ġcastles": 5154,
    "ĠHowever": 5155,
    "Ġscattered": 5156,
    "Ġbrav": 5157,
    "Ġitems": 5158,
    "ales": 5159,
    "Ġdesert": 5160,
    "Ġargued": 5161,
    "Ġproper": 5162,
    "Ġproperly": 5163,
    "Ġcale": 5164,
    "Ġcalend": 5165,
    "Ġcalendar": 5166,
    "Ġcoats": 5167,
    "allow": 5168,
    "Ġdried": 5169,
    "Ġenth": 5170,
    "Ġenthus": 5171,
    "Ġenthusi": 5172,
    "Ġenthusiastic": 5173,
    "Ġhen": 5174,
    "Ġartist": 5175,
    "Ġlicks": 5176,
    "Ġdoggy": 5177,
    "Ġdecides": 5178,
    "Ġcracker": 5179,
    "Ġpretends": 5180,
    "Ġpours": 5181,
    "ĠHelp": 5182,
    "Ġhurting": 5183,
    "Ġlistens": 5184,
    "Ġpus": 5185,
    "Ġpushes": 5186,
    "ĠOr": 5187,
    "Ġmailman": 5188,
    "Ġbridges": 5189,
    "fied": 5190,
    "bles": 5191,
    "Ġdoors": 5192,
    "Ġtrapped": 5193,
    "ĠFriends": 5194,
    "Ġstole": 5195,
    "Ġappreciate": 5196,
    "Ġbrushes": 5197,
    "Ġblows": 5198,
    "Ġcaring": 5199,
    "Ġparrot": 5200,
    "Ġcostume": 5201,
    "raged": 5202,
    "Ġpetted": 5203,
    "Ġgained": 5204,
    "Ġbeard": 5205,
    "Ġpaints": 5206,
    "Ġwallet": 5207,
    "fl": 5208,
    "Ġescaped": 5209,
    "Ġcode": 5210,
    "Ġbandages": 5211,
    "Ġscore": 5212,
    "Ġbasement": 5213,
    "Ġplanets": 5214,
    "Ġmarching": 5215,
    "Ġworse": 5216,
    "ĠTrue": 5217,
    "Ġcoral": 5218,
    "Ġcreamy": 5219,
    "Ġanxious": 5220,
    "Ġwarn": 5221,
    "ĠBongo": 5222,
    "ancake": 5223,
    "Maddy": 5224,
    "Ġcereal": 5225,
    "ĠJudy": 5226,
    "Ġnut": 5227,
    "Ġnotes": 5228,
    "Ġmustache": 5229,
    "Ġsorting": 5230,
    "ĠCarol": 5231,
    "Ġpepper": 5232,
    "jo": 5233,
    "Ġsid": 5234,
    "Ġsides": 5235,
    "Ġveterinarian": 5236,
    "ĠSpike": 5237,
    "ĠCat": 5238,
    "Ġdrain": 5239,
    "ĠDog": 5240,
    "ĠSpe": 5241,
    "ĠSpeedy": 5242,
    "ĠRhy": 5243,
    "ĠRhyth": 5244,
    "ĠRhythm": 5245,
    "iper": 5246,
    "zie": 5247,
    "Ġjourn": 5248,
    "Ġjournal": 5249,
    "irp": 5250,
    "irpie": 5251,
    "ĠEll": 5252,
    "Ġhock": 5253,
    "Ġhockey": 5254,
    "aren": 5255,
    "Ġsandcastle": 5256,
    "arlon": 5257,
    "Ġast": 5258,
    "Ġmos": 5259,
    "Ġmosquito": 5260,
    "Ġlime": 5261,
    "Ġsports": 5262,
    "oni": 5263,
    "ĠAbby": 5264,
    "opper": 5265,
    "aty": 5266,
    "uliet": 5267,
    "aver": 5268,
    "Ġpeach": 5269,
    "Ġboards": 5270,
    "ĠFire": 5271,
    "Quackers": 5272,
    "ĠGood": 5273,
    "Fin": 5274,
    "Ġcob": 5275,
    "Ġsoak": 5276,
    "!\",": 5277,
    "ĠOw": 5278,
    "Ġpajamas": 5279,
    "Fl": 5280,
    "Fluffy": 5281,
    "Ġjug": 5282,
    "Ġsnail": 5283,
    "ĠDid": 5284,
    "ĠZigzag": 5285,
    "Ġsuperher": 5286,
    "Ġsuperhero": 5287,
    "emem": 5288,
    "emember": 5289,
    "Ġmoves": 5290,
    "Ġgrant": 5291,
    "Ġtickled": 5292,
    "Charlie": 5293,
    "Ġgreet": 5294,
    "Ġnews": 5295,
    "ĠTilly": 5296,
    "Ġstruggling": 5297,
    "Ġtasks": 5298,
    "ĠBoth": 5299,
    "umm": 5300,
    "ÅĵNow": 5301,
    "ĠcanÃ¢": 5302,
    "oor": 5303,
    "ĠletÃ¢": 5304,
    "ora": 5305,
    "usted": 5306,
    "Ġcountry": 5307,
    "Ġdear": 5308,
    "Ġhoriz": 5309,
    "Ġhorizon": 5310,
    "itely": 5311,
    "Ġonward": 5312,
    "Ġfrosting": 5313,
    "Ġimproved": 5314,
    "Ġcompan": 5315,
    "Ġcompany": 5316,
    "Ġteaching": 5317,
    "ĠWho": 5318,
    "ĠSh": 5319,
    "ĠPaul": 5320,
    "Ġmemory": 5321,
    "Ġguest": 5322,
    "Emily": 5323,
    "antly": 5324,
    "Ġbeans": 5325,
    "ĠwonÃ¢": 5326,
    "Ġfascinated": 5327,
    "ĠUnfortunately": 5328,
    "Ġcheering": 5329,
    "Ġfive": 5330,
    "Ġyesterday": 5331,
    "Ġchirped": 5332,
    "Ġcomm": 5333,
    "Ġdied": 5334,
    "immer": 5335,
    "Ġintroduc": 5336,
    "Ġhallway": 5337,
    "Ġsword": 5338,
    "Ġconn": 5339,
    "Kate": 5340,
    "Ġzoomed": 5341,
    "Ġclaws": 5342,
    "Jenny": 5343,
    "Ġbrand": 5344,
    "ĠLac": 5345,
    "ĠLacy": 5346,
    "Ġspices": 5347,
    "Ġspaces": 5348,
    "Emma": 5349,
    "xc": 5350,
    "Sandy": 5351,
    "Ġzigzag": 5352,
    "ĠRabbit": 5353,
    "Ġfamil": 5354,
    "Ġchall": 5355,
    "Ġchallen": 5356,
    "Ġchallenge": 5357,
    "pite": 5358,
    "Ġunlocked": 5359,
    "Ġheaven": 5360,
    "Ġtornado": 5361,
    "Ġwooden": 5362,
    "ÅĵHi": 5363,
    "ÅĵSure": 5364,
    "Ġracing": 5365,
    "Claire": 5366,
    "inger": 5367,
    "âĤ¬<|": 5368,
    "Ġsever": 5369,
    "Ġseveral": 5370,
    "Freddy": 5371,
    "inda": 5372,
    "fire": 5373,
    "Ġhist": 5374,
    "Ġhistory": 5375,
    "angled": 5376,
    "Ġhesitated": 5377,
    "Ġupstairs": 5378,
    "oved": 5379,
    "Ġflight": 5380,
    "Ġmission": 5381,
    "Ġdoves": 5382,
    "Ġwherever": 5383,
    "Ġunderneath": 5384,
    "Ok": 5385,
    "Ġgracefully": 5386,
    "Ġbroom": 5387,
    "Ġsitu": 5388,
    "ĠMae": 5389,
    "Ġcrunch": 5390,
    "Ġbunch": 5391,
    "Ġreleased": 5392,
    "ounting": 5393,
    "ntil": 5394,
    "Ġbeat": 5395,
    "Ġignore": 5396,
    "Ġanch": 5397,
    "Ġanchor": 5398,
    "nk": 5399,
    "Ġexit": 5400,
    "ĠGina": 5401,
    "Ġluxu": 5402,
    "inking": 5403,
    "Ġbeamed": 5404,
    "Ġsmar": 5405,
    "Ġsmarter": 5406,
    "Ġrush": 5407,
    "Ġinstruct": 5408,
    "Ġbanged": 5409,
    "Ġpossible": 5410,
    "Ġlower": 5411,
    "Ġdecision": 5412,
    "Ġperched": 5413,
    "Ġplates": 5414,
    "omes": 5415,
    "Ġsuit": 5416,
    "Ġcaptain": 5417,
    "Polly": 5418,
    "Grace": 5419,
    "ception": 5420,
    "sted": 5421,
    "osh": 5422,
    "Ġperformance": 5423,
    "Ġvanished": 5424,
    "Ġturning": 5425,
    "Ġraised": 5426,
    "Ġknot": 5427,
    "Ġcub": 5428,
    "Ġwhistled": 5429,
    "ĠLeticia": 5430,
    "Ġshoe": 5431,
    "Ġceil": 5432,
    "Ġceiling": 5433,
    "Ġvowed": 5434,
    "Ġbravest": 5435,
    "Ġwondering": 5436,
    "Ġscales": 5437,
    "Ġrespons": 5438,
    "Ġsocc": 5439,
    "Ġsoccer": 5440,
    "Ġdusty": 5441,
    "Ġwraps": 5442,
    "Ġcurly": 5443,
    "ĠLee": 5444,
    "Ġdots": 5445,
    "Ġdrinks": 5446,
    "Or": 5447,
    "Ġgrowl": 5448,
    "Ġchases": 5449,
    "Ġcrackers": 5450,
    "Ġexact": 5451,
    "Ġexactly": 5452,
    "hest": 5453,
    "Ġflap": 5454,
    "Ġscreams": 5455,
    "Ġblood": 5456,
    "Ġpets": 5457,
    "Ġgrabbing": 5458,
    "Ġripped": 5459,
    "Ġmarbles": 5460,
    "Ġprun": 5461,
    "Ġprunes": 5462,
    "Ġmouths": 5463,
    "ĠLike": 5464,
    "Ġcuddle": 5465,
    "Ġlets": 5466,
    "Ġreaching": 5467,
    "Ġbead": 5468,
    "Ġbeads": 5469,
    "choo": 5470,
    "Ġsticky": 5471,
    "Ġhugging": 5472,
    "Ġbye": 5473,
    "Your": 5474,
    "Have": 5475,
    "ĠRain": 5476,
    "Ġti": 5477,
    "Ġtipt": 5478,
    "Ġtiptoed": 5479,
    "Ġbrain": 5480,
    "Ġgrocery": 5481,
    "Ġunif": 5482,
    "Ġuniform": 5483,
    "Ġaccidents": 5484,
    "Ġencouraged": 5485,
    "Ġkeeps": 5486,
    "ĠMim": 5487,
    "ĠMimi": 5488,
    "Ġwed": 5489,
    "Ġwedding": 5490,
    "Mmm": 5491,
    "Vroom": 5492,
    "Ġwheat": 5493,
    "Ġspong": 5494,
    "Ġsponge": 5495,
    "Ġprank": 5496,
    "Ġsweeties": 5497,
    "Ġgifts": 5498,
    "Ġrip": 5499,
    "Ġopening": 5500,
    "Ġworms": 5501,
    "Ġstyle": 5502,
    "Ġtongue": 5503,
    "Ġexplorers": 5504,
    "Ġflapping": 5505,
    "Ġswung": 5506,
    "Ġann": 5507,
    "Ġplenty": 5508,
    "Listen": 5509,
    "Ġwinner": 5510,
    "Ġbikes": 5511,
    "oosh": 5512,
    "Ġchoo": 5513,
    "Ġcontro": 5514,
    "Ġcontrol": 5515,
    "Jerry": 5516,
    "Ġcontest": 5517,
    "Ġquiz": 5518,
    "Youth": 5519,
    "Ġanswers": 5520,
    "ĠBuzzy": 5521,
    "Ġmarsh": 5522,
    "Ġmarshm": 5523,
    "Ġmarshmall": 5524,
    "Ġmarshmallows": 5525,
    "Ġwink": 5526,
    "ann": 5527,
    "annah": 5528,
    "Ġscrubbing": 5529,
    "Ġscrubbed": 5530,
    "ring": 5531,
    "amie": 5532,
    "Ġrecom": 5533,
    "Ġrecomm": 5534,
    "Ġrecommend": 5535,
    "Bobby": 5536,
    "Ġmedals": 5537,
    "ĠPiper": 5538,
    "ĠSuzie": 5539,
    "ĠNancy": 5540,
    "Ġyogurt": 5541,
    "arc": 5542,
    "Ġvillag": 5543,
    "Ġvillagers": 5544,
    "athan": 5545,
    "ĠTy": 5546,
    "aple": 5547,
    "Ġreply": 5548,
    "Ġmop": 5549,
    "iley": 5550,
    "Clara": 5551,
    "Ġtricky": 5552,
    "ĠMandy": 5553,
    "Ġgrey": 5554,
    "ĠAbi": 5555,
    "ĠEmilda": 5556,
    "Ġrule": 5557,
    "ĠJennifer": 5558,
    "Ġpoliceman": 5559,
    "ĠKaren": 5560,
    "Ġtide": 5561,
    "ĠNee": 5562,
    "ĠNeeN": 5563,
    "ĠNeeNee": 5564,
    "ophia": 5565,
    "Alex": 5566,
    "ĠPam": 5567,
    "ĠKin": 5568,
    "Really": 5569,
    "ĠJokes": 5570,
    "Ãĥ": 5571,
    "Ġbeaver": 5572,
    "Ġgoose": 5573,
    "Ġacorns": 5574,
    "Ġasht": 5575,
    "Ġashtray": 5576,
    "Ġpears": 5577,
    "ibb": 5578,
    "ĠBetsy": 5579,
    "untie": 5580,
    "Ġbasketball": 5581,
    "Ġplaytime": 5582,
    "itu": 5583,
    "itude": 5584,
    "Ġinter": 5585,
    "ru": 5586,
    "Ġbehav": 5587,
    "Ġbehavi": 5588,
    "Ġwhatever": 5589,
    "Ġbottles": 5590,
    "bur": 5591,
    "ĠListen": 5592,
    "Ella": 5593,
    "urious": 5594,
    "Ġfaced": 5595,
    "Ġglasses": 5596,
    "Tilly": 5597,
    "Ġhum": 5598,
    "ĠItÃ¢": 5599,
    "Ġflex": 5600,
    "Ġflexible": 5601,
    "ÅĵOh": 5602,
    "ugs": 5603,
    "ĠNora": 5604,
    "Ġwarmly": 5605,
    "Ġpolitely": 5606,
    "Ġconv": 5607,
    "Ġrefle": 5608,
    "Ġstol": 5609,
    "Ġstolen": 5610,
    "ĠLater": 5611,
    "Ġconf": 5612,
    "Ġwaters": 5613,
    "umbling": 5614,
    "Ġwilling": 5615,
    "Ġbalancing": 5616,
    "cles": 5617,
    "you": 5618,
    "Ġbelly": 5619,
    "Ġplanning": 5620,
    "ĠTwo": 5621,
    "Ġsource": 5622,
    "June": 5623,
    "ÅĵMommy": 5624,
    "Ġbacked": 5625,
    "Ġprinting": 5626,
    "Ġthrill": 5627,
    "Ġthrilled": 5628,
    "Ġtru": 5629,
    "Ġstomped": 5630,
    "Ġscolded": 5631,
    "Ġrabbits": 5632,
    "Ġexpected": 5633,
    "Ġreverse": 5634,
    "Ġreversing": 5635,
    "Ġadults": 5636,
    "Ġwonders": 5637,
    "Ġsway": 5638,
    "Is": 5639,
    "Ġpossess": 5640,
    "Ġbringing": 5641,
    "Ġyel": 5642,
    "Ġyelped": 5643,
    "Ġsnatched": 5644,
    "Luckily": 5645,
    "Ġlang": 5646,
    "Ġlangu": 5647,
    "Ġlanguage": 5648,
    "immering": 5649,
    "Ġtallest": 5650,
    "lfie": 5651,
    "Ġbravery": 5652,
    "Before": 5653,
    "rily": 5654,
    "Ġprove": 5655,
    "Ġriddle": 5656,
    "Ġsatis": 5657,
    "action": 5658,
    "Ġcrystal": 5659,
    "Ġstruggle": 5660,
    "Ġbeha": 5661,
    "Ġunpacked": 5662,
    "Ġgall": 5663,
    "lar": 5664,
    "lariss": 5665,
    "larissa": 5666,
    "Ġmuffins": 5667,
    "ĠNothing": 5668,
    "Ġunw": 5669,
    "Ġinstrum": 5670,
    "Ġstruck": 5671,
    "ivered": 5672,
    "Ġpaintbr": 5673,
    "Mrs": 5674,
    "Unfortunately": 5675,
    "Ġfreed": 5676,
    "Ġgle": 5677,
    "Ġfeast": 5678,
    "Ġcurled": 5679,
    "Ġprepared": 5680,
    "ĠAlthough": 5681,
    "ÅĵW": 5682,
    "Ġsecrets": 5683,
    "Ġspeaking": 5684,
    "Ġcuddled": 5685,
    "ĠLinda": 5686,
    "Ġshock": 5687,
    "Ġconc": 5688,
    "Ġcampfire": 5689,
    "Ġtoddler": 5690,
    "Ġstage": 5691,
    "boo": 5692,
    "Ġoutd": 5693,
    "Ġtangled": 5694,
    "Ġslapped": 5695,
    "dom": 5696,
    "Ġsquealed": 5697,
    "elcome": 5698,
    "Ġstamps": 5699,
    "Ġscaring": 5700,
    "Sophie": 5701,
    "Ġcompletely": 5702,
    "Ġsoaked": 5703,
    "Ġleap": 5704,
    "Ġtim": 5705,
    "Ġdecorated": 5706,
    "Ġprovided": 5707,
    "Ġsituation": 5708,
    "Ġsolut": 5709,
    "Ġmarkers": 5710,
    "Ġelf": 5711,
    "Leo": 5712,
    "ĠCounting": 5713,
    "ĠPixie": 5714,
    "Ab": 5715,
    "Ġchopping": 5716,
    "Ġleaking": 5717,
    "Ġleaks": 5718,
    "Ġleader": 5719,
    "Ġorganizing": 5720,
    "Ġexha": 5721,
    "Ġexhausted": 5722,
    "Ġpun": 5723,
    "Ġscratched": 5724,
    "Ġpowers": 5725,
    "Ġgiggling": 5726,
    "Ġsank": 5727,
    "Ġmentioned": 5728,
    "Ġpurred": 5729,
    "Ġnodd": 5730,
    "Ġnodding": 5731,
    "Ġshelter": 5732,
    "Ġpout": 5733,
    "Ġluxury": 5734,
    "Ġpride": 5735,
    "Ġscooped": 5736,
    "Ġinstructions": 5737,
    "Ġwakes": 5738,
    "Ġbrushed": 5739,
    "Ġfoods": 5740,
    "Ġstrongest": 5741,
    "Ġcardboard": 5742,
    "oys": 5743,
    "Ġawake": 5744,
    "Ġgentleman": 5745,
    "imon": 5746,
    "omeday": 5747,
    "Ġowners": 5748,
    "George": 5749,
    "dad": 5750,
    "Ġgoodnight": 5751,
    "Ġdrifted": 5752,
    "Ġcough": 5753,
    "Ġstripes": 5754,
    "Millie": 5755,
    "Ġmel": 5756,
    "Ġnone": 5757,
    "Ġcomf": 5758,
    "Ġcomfy": 5759,
    "Ġreception": 5760,
    "Ġreplac": 5761,
    "Ġreplaced": 5762,
    "Ġfed": 5763,
    "Ġcontain": 5764,
    "Ġpots": 5765,
    "Ġrelease": 5766,
    "Ġinterested": 5767,
    "Happy": 5768,
    "Ġburrow": 5769,
    "Ġtracks": 5770,
    "ĠSk": 5771,
    "Ġprotected": 5772,
    "Ġpedaled": 5773,
    "Ġcombed": 5774,
    "Betty": 5775,
    "Ġpage": 5776,
    "Ġcolored": 5777,
    "Ġheat": 5778,
    "osed": 5779,
    "Ġtalent": 5780,
    "Ġpause": 5781,
    "Ġheel": 5782,
    "Ġmelting": 5783,
    "Ġscient": 5784,
    "Ġscientist": 5785,
    "Ġarmch": 5786,
    "Ġarmchair": 5787,
    "Ġtraff": 5788,
    "Ġtraffic": 5789,
    "ody": 5790,
    "Ġpouring": 5791,
    "Ġnavy": 5792,
    "ĠAnny": 5793,
    "ĠBig": 5794,
    "Ġdetermination": 5795,
    "Ġsqueezing": 5796,
    "Ġplanned": 5797,
    "Ġmint": 5798,
    "Ġcliff": 5799,
    "Ġquar": 5800,
    "Ġchef": 5801,
    "ĠBrownie": 5802,
    "Ġexplo": 5803,
    "Ġkeeping": 5804,
    "Ġspook": 5805,
    "Ġspooky": 5806,
    "Ġstays": 5807,
    "Ġwatches": 5808,
    "Ġwobb": 5809,
    "Very": 5810,
    "Ġbill": 5811,
    "Ġskips": 5812,
    "Fine": 5813,
    "Ġpeel": 5814,
    "Ġspaceship": 5815,
    "Ġwears": 5816,
    "Ġhighest": 5817,
    "Ġruining": 5818,
    "ĠYes": 5819,
    "uing": 5820,
    "Ġglo": 5821,
    "Ġgloves": 5822,
    "Ġkings": 5823,
    "Ġque": 5824,
    "Ġqueens": 5825,
    "Ġwept": 5826,
    "atches": 5827,
    "Ġmasks": 5828,
    "Ġpirates": 5829,
    "Ġbother": 5830,
    "Ġbeds": 5831,
    "Ġsocks": 5832,
    "Ġbin": 5833,
    "Ġhorns": 5834,
    "Ġtune": 5835,
    "Ġhomes": 5836,
    "Ġhood": 5837,
    "Ġshopping": 5838,
    "Ġgrocer": 5839,
    "Ġgroceries": 5840,
    "Ġtomato": 5841,
    "Ġbelts": 5842,
    "Ġplayers": 5843,
    "Ġrolls": 5844,
    "Ġeight": 5845,
    "Ġgroom": 5846,
    "Ġmarriage": 5847,
    "Ġsliding": 5848,
    "Ġprick": 5849,
    "Ġteaches": 5850,
    "Ġtrick": 5851,
    "Ġsnowfl": 5852,
    "Ġedges": 5853,
    "Ġclues": 5854,
    "Ġknelt": 5855,
    "Ġfet": 5856,
    "Ġfirefly": 5857,
    "Ġcomets": 5858,
    "Ġwest": 5859,
    "Ġlemons": 5860,
    "Ġties": 5861,
    "Ġjoking": 5862,
    "ĠVroom": 5863,
    "Ġinde": 5864,
    "Ġindeed": 5865,
    "Ġclue": 5866,
    "Ġsix": 5867,
    "Ġtips": 5868,
    "Ġhonk": 5869,
    "Ġtheirs": 5870,
    "Ġbatht": 5871,
    "Ġbathtub": 5872,
    "Tweety": 5873,
    "Ġcautiously": 5874,
    "Ġcompetition": 5875,
    "ĠBrad": 5876,
    "Ġbathrobe": 5877,
    "Ġswirl": 5878,
    "ouch": 5879,
    "Ġmountains": 5880,
    "Ġpose": 5881,
    "Ġstitch": 5882,
    "Ġactivit": 5883,
    "Ġactivities": 5884,
    "Ġnights": 5885,
    "Ġconfu": 5886,
    "Ġprayed": 5887,
    "Ġtraveled": 5888,
    "Ġlav": 5889,
    "Ġlava": 5890,
    "ĠJose": 5891,
    "ĠJoseph": 5892,
    "Ġstirring": 5893,
    "Ġbrocc": 5894,
    "Ġbroccol": 5895,
    "Ġbroccoli": 5896,
    "Ġhealed": 5897,
    "Ġprice": 5898,
    "Ġreversed": 5899,
    "ĠPancake": 5900,
    "Kitty": 5901,
    "Ġvictory": 5902,
    "ĠDoggy": 5903,
    "Ġtelev": 5904,
    "Ġtelevision": 5905,
    "Mittens": 5906,
    "Car": 5907,
    "Carla": 5908,
    "ĠCarla": 5909,
    "Ġtramp": 5910,
    "Ġtrampol": 5911,
    "Ġtrampoline": 5912,
    "ĠDoug": 5913,
    "Ducky": 5914,
    "Ġstitc": 5915,
    "Ġstitches": 5916,
    "Ġgrain": 5917,
    "Ġpotato": 5918,
    "ĠHop": 5919,
    "ĠMarc": 5920,
    "Ġfault": 5921,
    "ĠNathan": 5922,
    "ĠMaple": 5923,
    "Rose": 5924,
    "ĠRiley": 5925,
    "Ġregret": 5926,
    "Tina": 5927,
    "ĠStella": 5928,
    "Ġcoloring": 5929,
    "Ġhoo": 5930,
    "Ġmeasuring": 5931,
    "Ġmovies": 5932,
    "Ġracer": 5933,
    "Martin": 5934,
    "ÃĤ": 5935,
    "ĠJac": 5936,
    "ĠJacob": 5937,
    "ĠJuliet": 5938,
    "ĠMichelle": 5939,
    "ĠWillow": 5940,
    "ĠDina": 5941,
    "ĠMag": 5942,
    "ĠMagg": 5943,
    "ĠMaggie": 5944,
    "Ġpitchf": 5945,
    "Ġpitchfork": 5946,
    "ĠSant": 5947,
    "ĠSanta": 5948,
    "Ġbol": 5949,
    "ĠQuackers": 5950,
    "ibbit": 5951,
    "Ġcobw": 5952,
    "Ġcobweb": 5953,
    "peat": 5954,
    "Meow": 5955,
    "Ġshave": 5956,
    "Ġfilling": 5957,
    "kins": 5958,
    "Ġpatience": 5959,
    "Ġdads": 5960,
    "Remember": 5961,
    "Ġworth": 5962,
    "Ġune": 5963,
    "Ġunex": 5964,
    "Ġunexp": 5965,
    "Ġunexpected": 5966,
    "Ġdifferen": 5967,
    "Ġdifference": 5968,
    "Ġinterru": 5969,
    "Ġinterrupt": 5970,
    "Ġinvol": 5971,
    "Ġpreparing": 5972,
    "Ġwine": 5973,
    "ÅĵMy": 5974,
    "ilbur": 5975,
    "Ġimagining": 5976,
    "ĠBeing": 5977,
    "Quick": 5978,
    "Ġemer": 5979,
    "Ġfact": 5980,
    "Ġreturning": 5981,
    "ably": 5982,
    "Ġcape": 5983,
    "Ġbalanced": 5984,
    "Ġfirmly": 5985,
    "Ġstealing": 5986,
    "ĠFirst": 5987,
    "ertain": 5988,
    "ĠFollow": 5989,
    "Ġocc": 5990,
    "Ġoccas": 5991,
    "Ġdisturbed": 5992,
    "Ġheading": 5993,
    "Ġexplaining": 5994,
    "Ġblocked": 5995,
    "spect": 5996,
    "Ġneighbours": 5997,
    "Ġpinch": 5998,
    "Joy": 5999,
    "Rita": 6000,
    "ĠThom": 6001,
    "ĠThomas": 6002,
    "Ġflowing": 6003,
    "ÅĵHey": 6004,
    "Ġdecl": 6005,
    "Ġmer": 6006,
    "Ġmerma": 6007,
    "Ġmermaid": 6008,
    "Ġmuscles": 6009,
    "Ġapplaud": 6010,
    "Ġaccomplished": 6011,
    "Ġdoctors": 6012,
    "ĠMel": 6013,
    "Shh": 6014,
    "Ġpeacefully": 6015,
    "Ġprinted": 6016,
    "ĠSay": 6017,
    "!'": 6018,
    "Ġtruly": 6019,
    "Ġloc": 6020,
    "Ġhealing": 6021,
    "Ġmemb": 6022,
    "Ġmembers": 6023,
    "Ġdiving": 6024,
    "Ġbudge": 6025,
    "ĠGoodbye": 6026,
    "Ġseashell": 6027,
    "Ġseashells": 6028,
    "Ġcollection": 6029,
    "Ġusual": 6030,
    "ÅĵYouÃ¢": 6031,
    "Ġintroduced": 6032,
    "ĠAlfie": 6033,
    "ighting": 6034,
    "ils": 6035,
    "Ġconnected": 6036,
    "Ġbars": 6037,
    "Ġstorms": 6038,
    "Ġsparkle": 6039,
    "Ġreveal": 6040,
    "Ġrobb": 6041,
    "|>\"": 6042,
    "Ġadding": 6043,
    "Ġrumble": 6044,
    "Ġwiggly": 6045,
    "Ġbehaving": 6046,
    "ĠMinnie": 6047,
    "Ġreass": 6048,
    "ÅĵWell": 6049,
    "Exc": 6050,
    "Ġsnuck": 6051,
    "Ġfluttering": 6052,
    "Ġseems": 6053,
    "ĠKari": 6054,
    "Ġkittens": 6055,
    "Ġfamiliar": 6056,
    "Ġpleaded": 6057,
    "lled": 6058,
    "Ġpebbles": 6059,
    "asp": 6060,
    "ĠMouse": 6061,
    "ĠWinnie": 6062,
    "...": 6063,
    "Ġfreedom": 6064,
    "Ġglee": 6065,
    "Ġago": 6066,
    "ooks": 6067,
    "Ġghosts": 6068,
    "Ted": 6069,
    "lock": 6070,
    "Ġrow": 6071,
    "boat": 6072,
    "ĠSuzy": 6073,
    "Ġhers": 6074,
    "Ġconcent": 6075,
    "Ġperforming": 6076,
    "Ġwasted": 6077,
    "Ġoutdo": 6078,
    "Ġoutdoors": 6079,
    "Ġvanish": 6080,
    "ĠSnail": 6081,
    "Ġacted": 6082,
    "Ġbeloved": 6083,
    "Ġsisters": 6084,
    "vers": 6085,
    "Ġspirit": 6086,
    "Not": 6087,
    "Emmy": 6088,
    "ĠTaking": 6089,
    "Ġintr": 6090,
    "Ġintrig": 6091,
    "Ġintrigued": 6092,
    "Ġposit": 6093,
    "Ġsou": 6094,
    "Ġtemper": 6095,
    "Ġtemperature": 6096,
    "Ġhelmets": 6097,
    "ĠSince": 6098,
    "Ġweap": 6099,
    "Ġweapon": 6100,
    "Ġsolving": 6101,
    "ĠUntil": 6102,
    "ĠAbigail": 6103,
    "Ġsteep": 6104,
    "Ġincreased": 6105,
    "Ġnaughtiness": 6106,
    "ĠStan": 6107,
    "mag": 6108,
    "ades": 6109,
    "Ġtax": 6110,
    "Ġtaxi": 6111,
    "!'.": 6112,
    "Ġstair": 6113,
    "Ġopt": 6114,
    "Ġarrive": 6115,
    "Ġfluttered": 6116,
    "ĠAn": 6117,
    "Ġpouted": 6118,
    "Ġdrinking": 6119,
    "Ġmelted": 6120,
    "Ġcluck": 6121,
    "Ġpecked": 6122,
    "Ġdarker": 6123,
    "Ġsolution": 6124,
    "Ġcounts": 6125,
    "Ġhandk": 6126,
    "Ġhandker": 6127,
    "Ġhandkerch": 6128,
    "Ġhandkerchief": 6129,
    "well": 6130,
    "Ġforgetting": 6131,
    "Ġspoons": 6132,
    "Ġtwisting": 6133,
    "Ġfond": 6134,
    "Ġloving": 6135,
    "Ġcosy": 6136,
    "Ġrustling": 6137,
    "Ġfoal": 6138,
    "uzz": 6139,
    "Ġracers": 6140,
    "Ġinclude": 6141,
    "Ġcolder": 6142,
    "Ġdie": 6143,
    "Ġsomeday": 6144,
    "Ġhardly": 6145,
    "hee": 6146,
    "Ġmelon": 6147,
    "Ġdragons": 6148,
    "dies": 6149,
    "--": 6150,
    "Ġstall": 6151,
    "Ġstroked": 6152,
    "Ġtouching": 6153,
    "Ġspots": 6154,
    "Ġsib": 6155,
    "Ġsibl": 6156,
    "Ġsiblings": 6157,
    "Ġcowb": 6158,
    "Ġaim": 6159,
    "Ġslices": 6160,
    "Ġsalt": 6161,
    "Ġminer": 6162,
    "Ġavocad": 6163,
    "Ġavocados": 6164,
    "Ġdragged": 6165,
    "ĠJosh": 6166,
    "Ġfab": 6167,
    "Ġfabric": 6168,
    "ĠSkip": 6169,
    "Ġtheat": 6170,
    "Ġtheatre": 6171,
    "Ġtumm": 6172,
    "Ġtummies": 6173,
    "Ġtv": 6174,
    "Ġcubes": 6175,
    "Ġsyr": 6176,
    "Ġsyrup": 6177,
    "ĠwasnÃ¢": 6178,
    "Ġbelieved": 6179,
    "Ġcottage": 6180,
    "Ġsupposed": 6181,
    "Ġdet": 6182,
    "Ġworkers": 6183,
    "Ġsnugg": 6184,
    "Ġsnuggle": 6185,
    "obody": 6186,
    "Ġguessed": 6187,
    "âĤ¬,": 6188,
    "Ġintroduce": 6189,
    "Ġshined": 6190,
    "Ġgazed": 6191,
    "Ġsurroundings": 6192,
    "ading": 6193,
    "Ġgobbled": 6194,
    "Ġcrunchy": 6195,
    "Ġleaning": 6196,
    "Ġsawing": 6197,
    "ounced": 6198,
    "Ġquarrel": 6199,
    "Ġais": 6200,
    "Ġcrashed": 6201,
    "ĠHallow": 6202,
    "ĠHalloween": 6203,
    "Ġhits": 6204,
    "Ġlifts": 6205,
    "Ġcarries": 6206,
    "Miss": 6207,
    "Ġclaps": 6208,
    "Ġflat": 6209,
    "Ġeats": 6210,
    "Ġtimer": 6211,
    "Ġsighs": 6212,
    "Ġclimbs": 6213,
    "Ġcatches": 6214,
    "ĠWatch": 6215,
    "abra": 6216,
    "Boo": 6217,
    "Ġpigs": 6218,
    "Ġsinger": 6219,
    "Ġhissed": 6220,
    "Ġwipes": 6221,
    "Ġunf": 6222,
    "Ġstuffing": 6223,
    "Ġours": 6224,
    "Ġsweep": 6225,
    "Ġcarriage": 6226,
    "Ġpassing": 6227,
    "Ġweeping": 6228,
    "Ġsobbed": 6229,
    "Ġpitc": 6230,
    "Ġpitcher": 6231,
    "ĠGet": 6232,
    "Ġbells": 6233,
    "zes": 6234,
    "Ġsits": 6235,
    "Ġcreation": 6236,
    "Ġinstruments": 6237,
    "ĠEn": 6238,
    "ĠEnjoy": 6239,
    "Ġsprinkles": 6240,
    "house": 6241,
    "Ġwaff": 6242,
    "Ġwaffles": 6243,
    "Ġmailed": 6244,
    "Ġcheeks": 6245,
    "Ġzer": 6246,
    "Ġzero": 6247,
    "Ġclubs": 6248,
    "Ġsunsc": 6249,
    "Ġsunscre": 6250,
    "Ġsunscreen": 6251,
    "Ġtour": 6252,
    "iment": 6253,
    "ĠKeep": 6254,
    "Ġprickly": 6255,
    "Ġknowled": 6256,
    "Ġknowledge": 6257,
    "Ġpaths": 6258,
    "Ġsnowflakes": 6259,
    "Ġphotos": 6260,
    "ĠThese": 6261,
    "Ġtrembled": 6262,
    "Uh": 6263,
    "Ġflavor": 6264,
    "Ġparked": 6265,
    "Ġlawn": 6266,
    "Ġyells": 6267,
    "Ġgaze": 6268,
    "Ġsmas": 6269,
    "Ġsmashed": 6270,
    "Ġpenguins": 6271,
    "Ġannoy": 6272,
    "ial": 6273,
    "Ġfaded": 6274,
    "Ġeast": 6275,
    "Ġstrings": 6276,
    "Ġrepeating": 6277,
    "Ġvehicles": 6278,
    "Ġchefs": 6279,
    "Ġlett": 6280,
    "Ġlettuce": 6281,
    "Ġchooses": 6282,
    "Ġolives": 6283,
    "ĠWater": 6284,
    "ĠMany": 6285,
    "Ġsens": 6286,
    "Ġsticking": 6287,
    "Ġterrified": 6288,
    "Ġunco": 6289,
    "ays": 6290,
    "adly": 6291,
    "Ġsprang": 6292,
    "Ġhealth": 6293,
    "Ġflas": 6294,
    "Ġserved": 6295,
    "ishment": 6296,
    "Ġdriveway": 6297,
    "Ġtwin": 6298,
    "Ġunri": 6299,
    "Ġunripe": 6300,
    "ĠRob": 6301,
    "Ġawo": 6302,
    "Ġseason": 6303,
    "Ġdresses": 6304,
    "ĠYouth": 6305,
    "Ġbillboard": 6306,
    "Ġgrapes": 6307,
    "Ġgrape": 6308,
    "aig": 6309,
    "aige": 6310,
    "ynt": 6311,
    "ynth": 6312,
    "ynthia": 6313,
    "Ġinvite": 6314,
    "Ġdisappear": 6315,
    "Ġpartic": 6316,
    "Ġparticular": 6317,
    "ĠWithout": 6318,
    "Ġank": 6319,
    "Ġankle": 6320,
    "Ġcalmed": 6321,
    "Ġexpress": 6322,
    "Ġseconds": 6323,
    "Ġpoking": 6324,
    "ĠLou": 6325,
    "ĠLouise": 6326,
    "Ġwife": 6327,
    "ĠNick": 6328,
    "Ġscratches": 6329,
    "Lizzie": 6330,
    "ugging": 6331,
    "Ġstrike": 6332,
    "ĠJamie": 6333,
    "Remy": 6334,
    "ĠCow": 6335,
    "Ġshivering": 6336,
    "Ġfolders": 6337,
    "ĠChirpie": 6338,
    "Ġroo": 6339,
    "Ġrooster": 6340,
    "Ġmaid": 6341,
    "Ġdev": 6342,
    "Ġdevast": 6343,
    "Ġdevastated": 6344,
    "lish": 6345,
    "Ġquilt": 6346,
    "Ġbey": 6347,
    "Ġbeyond": 6348,
    "Ġbog": 6349,
    "ĠMabel": 6350,
    "Ġcrop": 6351,
    "Ġbun": 6352,
    "Ġbunnies": 6353,
    "Ġsilence": 6354,
    "Ġmysteries": 6355,
    "atty": 6356,
    "Ġconse": 6357,
    "Ġconsequ": 6358,
    "ences": 6359,
    "Ġrespond": 6360,
    "Ġresponded": 6361,
    "Ġgrowling": 6362,
    "Ġkingdom": 6363,
    "Ġfift": 6364,
    "Ġtoddlers": 6365,
    "Ġthrown": 6366,
    "Ġanger": 6367,
    "Ġcal": 6368,
    "Ġstew": 6369,
    "Ju": 6370,
    "Julie": 6371,
    "Ġpasta": 6372,
    "Ġyourselves": 6373,
    "Ġastron": 6374,
    "Ġastronaut": 6375,
    "ĠMarlon": 6376,
    "Ġoatme": 6377,
    "Ġoatmeal": 6378,
    "Lisa": 6379,
    "Sophia": 6380,
    "ĠDe": 6381,
    "ĠDebby": 6382,
    "ĠMartin": 6383,
    "ĠEllen": 6384,
    "Ġ1": 6385,
    "ĠMoni": 6386,
    "ĠFredd": 6387,
    "ĠFreddie": 6388,
    "ĠMaya": 6389,
    "Ġflood": 6390,
    "Abby": 6391,
    "Ġgarb": 6392,
    "Ġgarbage": 6393,
    "ĠHarry": 6394,
    "ern": 6395,
    "Ġcheet": 6396,
    "Ġcheetah": 6397,
    "Katy": 6398,
    "Ġyelling": 6399,
    "Ġshield": 6400,
    "Ġyounger": 6401,
    "ĠRust": 6402,
    "ĠRusty": 6403,
    "ĠCopper": 6404,
    "Ġpandas": 6405,
    "three": 6406,
    "Bee": 6407,
    "Ġspy": 6408,
    "Ġdinosaurs": 6409,
    "Ġcricket": 6410,
    "Ġbolt": 6411,
    "ĠHugs": 6412,
    "Ġsymbols": 6413,
    "Ġmedal": 6414,
    "ĠRibbit": 6415,
    "ĠSqu": 6416,
    "ĠSquirrel": 6417,
    "Ġchips": 6418,
    "ĠAuntie": 6419,
    "Ġsewed": 6420,
    "Ġtickle": 6421,
    "Ġlined": 6422,
    "Ġtested": 6423,
    "ĠOwl": 6424,
    "repeat": 6425,
    "'?\"": 6426,
    "Elly": 6427,
    "Ġpumpkins": 6428,
    "Ġcaused": 6429,
    "Take": 6430,
    "Ġtreated": 6431,
    "Ġgrat": 6432,
    "Ġgratitude": 6433,
    "Ġgranted": 6434,
    "Ġmatched": 6435,
    "Ġsuperm": 6436,
    "Ġsupermark": 6437,
    "Ġsupermarket": 6438,
    "Ġexperi": 6439,
    "Ġexperien": 6440,
    "Ġgreeted": 6441,
    "Ġrecognize": 6442,
    "ĠĊĠ": 6443,
    "ĠWilbur": 6444,
    "Ġinj": 6445,
    "Ġstudents": 6446,
    "Ġemerged": 6447,
    "ffled": 6448,
    "Bill": 6449,
    "Ġsteady": 6450,
    "Ġraked": 6451,
    "orking": 6452,
    "Ġtempt": 6453,
    "Ġhuman": 6454,
    "hello": 6455,
    "ÅĵMom": 6456,
    "ĠPoor": 6457,
    "Ġgorge": 6458,
    "Ġgorgeous": 6459,
    "Ġcertain": 6460,
    "itted": 6461,
    "ÅĵOf": 6462,
    "Ġsurprising": 6463,
    "Ġheav": 6464,
    "Ġheavier": 6465,
    "Ġoccasion": 6466,
    "Rachel": 6467,
    "ĠweÃ¢": 6468,
    "Ġsus": 6469,
    "Ġsusp": 6470,
    "Ġinsisting": 6471,
    "ĠRita": 6472,
    "Ġbelongings": 6473,
    "str": 6474,
    "Ġlap": 6475,
    "Ġrestore": 6476,
    "Ġtrips": 6477,
    "Ġwhirl": 6478,
    "Ġspreading": 6479,
    "ĠSharing": 6480,
    "Ġvisiting": 6481,
    "ĠBruce": 6482,
    "Ġamount": 6483,
    "Ġstepping": 6484,
    "Ġguests": 6485,
    "Ġhowever": 6486,
    "Ġvess": 6487,
    "Ġvessel": 6488,
    "Ġglows": 6489,
    "Ġfortune": 6490,
    "Ġlocal": 6491,
    "ÅĵLook": 6492,
    "Ġcuriously": 6493,
    "Ġtwinkling": 6494,
    "Ġstretching": 6495,
    "Ġmass": 6496,
    "arer": 6497,
    "Ġdolly": 6498,
    "Ġpossessions": 6499,
    "Ġclut": 6500,
    "Ġrespon": 6501,
    "Ġresponse": 6502,
    "Ġgrandm": 6503,
    "Ġgrandmother": 6504,
    "Ġnecess": 6505,
    "Ġthous": 6506,
    "Ġthousand": 6507,
    "Ġrat": 6508,
    "Ġscram": 6509,
    "Ġscrambled": 6510,
    "Ġborn": 6511,
    "Ġincluding": 6512,
    "Ġcommun": 6513,
    "ĠTodd": 6514,
    "Ġglimmering": 6515,
    "Ġrespected": 6516,
    "Ġrisk": 6517,
    "Ġrisks": 6518,
    "Ġdecis": 6519,
    "Ġdecisions": 6520,
    "ĠSkeleton": 6521,
    "Since": 6522,
    "Ġhearing": 6523,
    "Paul": 6524,
    "Ġexch": 6525,
    "Ġaddress": 6526,
    "Ġdesigns": 6527,
    "Ġtripping": 6528,
    "Ġcovering": 6529,
    "Ġoper": 6530,
    "Ġcelebration": 6531,
    "Ġgrassy": 6532,
    "Ġangrily": 6533,
    "Ġdiscussing": 6534,
    "Ġpetting": 6535,
    "Ġglitt": 6536,
    "arles": 6537,
    "Ġwound": 6538,
    "Ġembarrass": 6539,
    "Ġbrick": 6540,
    "Ġstreets": 6541,
    "Ġroads": 6542,
    "Ġreassured": 6543,
    "Ġknives": 6544,
    "Ġcaution": 6545,
    "Ġpencils": 6546,
    "Ġconfident": 6547,
    "Afterwards": 6548,
    "Ġtwinkle": 6549,
    "Clarissa": 6550,
    "Ġtoward": 6551,
    "Ġreaction": 6552,
    "Ġcelebrating": 6553,
    "Ġgon": 6554,
    "Ġgonn": 6555,
    "Ġgonna": 6556,
    "ĠJohns": 6557,
    "ĠJohnson": 6558,
    "Ġthreat": 6559,
    "espite": 6560,
    "Ġlifting": 6561,
    "Ġshivered": 6562,
    "Ġsplashes": 6563,
    "Ġpaintbrush": 6564,
    "Ġchopped": 6565,
    "ĠPut": 6566,
    "Ġtrump": 6567,
    "Ġtrumpet": 6568,
    "Like": 6569,
    "Ġsalty": 6570,
    "Sk": 6571,
    "Ġdisturbing": 6572,
    "Ġsav": 6573,
    "Ġwandering": 6574,
    "Ġshall": 6575,
    "ĠGinger": 6576,
    "Ginger": 6577,
    "Ġencourag": 6578,
    "Ġencouraging": 6579,
    "Ġsi": 6580,
    "Ġbank": 6581,
    "Ġech": 6582,
    "Ġfain": 6583,
    "Ġfaint": 6584,
    "Ġclearly": 6585,
    "Ġparted": 6586,
    "Ġvibr": 6587,
    "Ġvibrant": 6588,
    "Su": 6589,
    "Ġconcentrated": 6590,
    "Ġfloats": 6591,
    "Ġcreating": 6592,
    "Ġmunch": 6593,
    "Ġunable": 6594,
    "Ġamong": 6595,
    "ĠSw": 6596,
    "ĠSwim": 6597,
    "\".<|": 6598,
    "Sn": 6599,
    "Ġowned": 6600,
    "Ġjunk": 6601,
    "Ġcompared": 6602,
    "Ġactive": 6603,
    "Ġsnar": 6604,
    "Ġconvers": 6605,
    "Ġconversation": 6606,
    "Ġdeclared": 6607,
    "Ġresult": 6608,
    "stick": 6609,
    "Yesterday": 6610,
    "Ġplanting": 6611,
    "Mae": 6612,
    "Ġobeyed": 6613,
    "Ġtease": 6614,
    "Ġteased": 6615,
    "Ġtargets": 6616,
    "Wait": 6617,
    "Ġdespite": 6618,
    "ÅĵThis": 6619,
    "ĠWed": 6620,
    "ĠWedn": 6621,
    "ĠWednes": 6622,
    "ĠWednesday": 6623,
    "Ġmotion": 6624,
    "Abigail": 6625,
    "Ġsurrendered": 6626,
    "ĠwouldnÃ¢": 6627,
    "ĠmomÃ¢": 6628,
    "ĠPerc": 6629,
    "ĠPercy": 6630,
    "ĠRal": 6631,
    "ĠRalph": 6632,
    "Ġteap": 6633,
    "Ġteapot": 6634,
    "Ġfara": 6635,
    "Ġfaraway": 6636,
    "Ġdirection": 6637,
    "Ġobserving": 6638,
    "ĠSueÃ¢": 6639,
    "Ġtunnels": 6640,
    "Tony": 6641,
    "Ġpuff": 6642,
    "Ġfrowning": 6643,
    "Ġbehavior": 6644,
    "Ġprettier": 6645,
    "Ġthumbs": 6646,
    "Ġcotton": 6647,
    "Ġtails": 6648,
    "Ġcro": 6649,
    "Ġyoungest": 6650,
    "Ġ2": 6651,
    "Ġcheap": 6652,
    "Ġrainbows": 6653,
    "Ġrainy": 6654,
    "Even": 6655,
    "Ġfare": 6656,
    "Ġfarewell": 6657,
    "Ġtiss": 6658,
    "Ġnewspapers": 6659,
    "Ġwidened": 6660,
    "Ġtasting": 6661,
    "Ġspat": 6662,
    "ishing": 6663,
    "Ġcleared": 6664,
    "Ġreflect": 6665,
    "Ġreflection": 6666,
    "Ġclicked": 6667,
    "Ġfeeding": 6668,
    "Ġhomeless": 6669,
    "Ġjackets": 6670,
    "Ġtidying": 6671,
    "Ġinse": 6672,
    "Ġsneaky": 6673,
    "ĠSimon": 6674,
    "Ġgoodby": 6675,
    "Ġgoodbyes": 6676,
    "Ġpops": 6677,
    "Ġswooped": 6678,
    "Ġgranddad": 6679,
    "years": 6680,
    "Ġsneaked": 6681,
    "Ġpedals": 6682,
    "Ġdiamonds": 6683,
    "no": 6684,
    "Ġsquirt": 6685,
    "Ġaimed": 6686,
    "Ġgy": 6687,
    "Ġgym": 6688,
    "Ġsoapy": 6689,
    "ĠBir": 6690,
    "ĠBirthday": 6691,
    "Ġduckling": 6692,
    "Ġparties": 6693,
    "ĠBetty": 6694,
    "Ġstorybook": 6695,
    "Ġpanic": 6696,
    "Ġfilms": 6697,
    "Milly": 6698,
    "Ġbride": 6699,
    "Ġnoon": 6700,
    "Ġsweetest": 6701,
    "Ġspilling": 6702,
    "Ġtwinkled": 6703,
    "Ġimposs": 6704,
    "Ġimpossible": 6705,
    "Ġtaped": 6706,
    "Ġdeli": 6707,
    "Ġdelivery": 6708,
    "Ġdelayed": 6709,
    "Ġfreezing": 6710,
    "Ġkeys": 6711,
    "Lilly": 6712,
    "Ġdipped": 6713,
    "Ġcomplained": 6714,
    "Ġpetal": 6715,
    "Ġsnoo": 6716,
    "Ġsucceeded": 6717,
    "Ġfuzzy": 6718,
    "Ġappreciated": 6719,
    "Papa": 6720,
    "Ġchairs": 6721,
    "retty": 6722,
    "ĠNobody": 6723,
    "Ġcreativ": 6724,
    "Ġcreativity": 6725,
    "Ġbowls": 6726,
    "Ġremove": 6727,
    "Ġgardener": 6728,
    "Ġaisle": 6729,
    "Ġresponsib": 6730,
    "Ġresponsibil": 6731,
    "Ġresponsibility": 6732,
    "ĠOh": 6733,
    "Ġexploded": 6734,
    "Ġscattering": 6735,
    "Ġwobbly": 6736,
    "Ġdraws": 6737,
    "Ġuses": 6738,
    "Ġquack": 6739,
    "Ġchews": 6740,
    "Ġsniffs": 6741,
    "Ġcares": 6742,
    "Ġbegs": 6743,
    "Ġspits": 6744,
    "Ġbom": 6745,
    "Ġbomb": 6746,
    "ĠHello": 6747,
    "Ġswimsuit": 6748,
    "Ġcovers": 6749,
    "cad": 6750,
    "cadabra": 6751,
    "Ġfills": 6752,
    "Too": 6753,
    "Ġallow": 6754,
    "Ġpeck": 6755,
    "Ġseesaw": 6756,
    "Ġlicking": 6757,
    "Ġenvelop": 6758,
    "Ġenvelopes": 6759,
    "dles": 6760,
    "Ġpiled": 6761,
    "Ye": 6762,
    "Yeah": 6763,
    "rr": 6764,
    "Ġsatisfied": 6765,
    "Ġmatters": 6766,
    "Ġarguing": 6767,
    "Ġforgives": 6768,
    "Ġboo": 6769,
    "Ġrains": 6770,
    "mered": 6771,
    "ĠSpirit": 6772,
    "Ġsale": 6773,
    "Ġpennies": 6774,
    "Ġaunt": 6775,
    "Ġdrivers": 6776,
    "Ġraises": 6777,
    "Ġdragging": 6778,
    "Ġmast": 6779,
    "Ġlocks": 6780,
    "Ġfairies": 6781,
    "Ġgiggles": 6782,
    "Ġtalks": 6783,
    "Ġdips": 6784,
    "ĠIsn": 6785,
    "Ġlioness": 6786,
    "ĠPudd": 6787,
    "ĠPuddles": 6788,
    "Ġgest": 6789,
    "Ġgesture": 6790,
    "Ġanytime": 6791,
    "Ġruin": 6792,
    "Ġdollhouse": 6793,
    "Ġease": 6794,
    "Ġage": 6795,
    "Ġafar": 6796,
    "Ġsoldier": 6797,
    "Ġscra": 6798,
    "Ġexperiment": 6799,
    "Ġweb": 6800,
    "Ġelephants": 6801,
    "During": 6802,
    "Ġblocking": 6803,
    "Ġscoop": 6804,
    "Ġwiggle": 6805,
    "Ġbak": 6806,
    "Ġbakery": 6807,
    "Ġshoo": 6808,
    "Ġcopy": 6809,
    "Ġfetch": 6810,
    "Ġcousins": 6811,
    "Ġheadache": 6812,
    "Ġnecklaces": 6813,
    "Ġmater": 6814,
    "Ġflavors": 6815,
    "Ġherbs": 6816,
    "Ġsprings": 6817,
    "Ġenem": 6818,
    "Ġenemies": 6819,
    "Ġattack": 6820,
    "Ġpost": 6821,
    "Ġannoyed": 6822,
    "Ġsquaw": 6823,
    "Ġrealizes": 6824,
    "Ġneither": 6825,
    "Ġpuck": 6826,
    "Ġunderstands": 6827,
    "Ready": 6828,
    "Ġwhoosh": 6829,
    "Ġdetail": 6830,
    "Ġuntied": 6831,
    "Ġowns": 6832,
    "Ġtapping": 6833,
    "woof": 6834,
    "Ġcrawls": 6835,
    "Ġwatered": 6836,
    "Ġbumps": 6837,
    "creams": 6838,
    "Ġscrub": 6839,
    "Days": 6840,
    "Ġconvince": 6841,
    "Ġmineral": 6842,
    "Ġache": 6843,
    "Excited": 6844,
    "Excitedly": 6845,
    "Ġcrossing": 6846,
    "Ġflown": 6847,
    "Ġaff": 6848,
    "Ġafford": 6849,
    "Ġrushing": 6850,
    "ĠBird": 6851,
    "Ġboil": 6852,
    "Back": 6853,
    "Ġspikes": 6854,
    "Ġporc": 6855,
    "Ġporcup": 6856,
    "Ġporcupine": 6857,
    "match": 6858,
    "ĠYum": 6859,
    "Ġdirections": 6860,
    "Ġresults": 6861,
    "Ġfireflies": 6862,
    "ĠSweet": 6863,
    "Ġdrying": 6864,
    "Bu": 6865,
    "Buzzy": 6866,
    "ĠPaige": 6867,
    "ĠCynthia": 6868,
    "Ġbuzzed": 6869,
    "ĠOut": 6870,
    "Ġstormy": 6871,
    "ĠDan": 6872,
    "ĠDani": 6873,
    "ĠDaniel": 6874,
    "Ġtidied": 6875,
    "Ġteachers": 6876,
    "Ġcalmly": 6877,
    "Ġsurfboard": 6878,
    "Ġsunsets": 6879,
    "Ġting": 6880,
    "Ġpizzas": 6881,
    "Ġprayer": 6882,
    "anw": 6883,
    "anwhile": 6884,
    "anted": 6885,
    "Ġfinal": 6886,
    "Ġsecure": 6887,
    "Ġbushy": 6888,
    "ĠZizz": 6889,
    "Ġconfusing": 6890,
    "Ġlie": 6891,
    "Ġexpression": 6892,
    "Ġunited": 6893,
    "Ġrejo": 6894,
    "ĠHannah": 6895,
    "Ġstalk": 6896,
    "Ġstalks": 6897,
    "yes": 6898,
    "Ġleapt": 6899,
    "Ġflames": 6900,
    "Ġcatc": 6901,
    "Ġcatcher": 6902,
    "Ġentr": 6903,
    "Ġentrance": 6904,
    "Ġstur": 6905,
    "Ġsturdy": 6906,
    "May": 6907,
    "Ġscurry": 6908,
    "Ġscurrying": 6909,
    "Ġwillow": 6910,
    "ĠJojo": 6911,
    "Ġstomach": 6912,
    "Ġcauliflow": 6913,
    "Ġcauliflowers": 6914,
    "Ġpadlock": 6915,
    "ĠRy": 6916,
    "ĠRyan": 6917,
    "Bobo": 6918,
    "Ġresting": 6919,
    "Ġhitting": 6920,
    "Ġcreations": 6921,
    "Ġresponsible": 6922,
    "Ġpockets": 6923,
    "Chirpie": 6924,
    "Ġuns": 6925,
    "Ġunsure": 6926,
    "Nancy": 6927,
    "Ġdiscu": 6928,
    "Ġdiscussed": 6929,
    "Ġopin": 6930,
    "ĠEllie": 6931,
    "Ell": 6932,
    "ĠJody": 6933,
    "Ġsacks": 6934,
    "Ġunderw": 6935,
    "Ġunderwater": 6936,
    "Ġcourageous": 6937,
    "Ġefforts": 6938,
    "Ġseah": 6939,
    "Ġseahor": 6940,
    "Ġseahorse": 6941,
    "Ġpupils": 6942,
    "However": 6943,
    "atie": 6944,
    "Ġbookshe": 6945,
    "ĠSol": 6946,
    "Toby": 6947,
    "Ġafterwards": 6948,
    "Ġrecorded": 6949,
    "ushed": 6950,
    "Ġleast": 6951,
    "Ġexpect": 6952,
    "Ġrepeated": 6953,
    "rees": 6954,
    "ĠMatty": 6955,
    "Ġconsequences": 6956,
    "Ġshallow": 6957,
    "Ġpal": 6958,
    "Ġpalace": 6959,
    "Emilda": 6960,
    "Ġgallery": 6961,
    "ipes": 6962,
    "ÅĵWhere": 6963,
    "Ġpolar": 6964,
    "Ġprod": 6965,
    "Ġproduc": 6966,
    "Ġdripping": 6967,
    "Ġguardi": 6968,
    "Ġguardian": 6969,
    "Ġcrashing": 6970,
    "Ġelev": 6971,
    "Ġelevator": 6972,
    "ger": 6973,
    "Ġteasp": 6974,
    "Ġteaspoon": 6975,
    "Ernie": 6976,
    "ÅĵSt": 6977,
    "Ġpinched": 6978,
    "Marlon": 6979,
    "Ġcatching": 6980,
    "ĠDV": 6981,
    "ĠDVD": 6982,
    "Mike": 6983,
    "Ġroars": 6984,
    "Ġinvit": 6985,
    "Ġpluck": 6986,
    "Ġwarnings": 6987,
    "Ġble": 6988,
    "Ġrum": 6989,
    "Ġrumour": 6990,
    "Ġprey": 6991,
    "Ġstern": 6992,
    "ĠBobbie": 6993,
    "Bobbie": 6994,
    "ĠKaty": 6995,
    "Ġsqueak": 6996,
    "Ġsailboat": 6997,
    "ĠStop": 6998,
    "Michelle": 6999,
    "Abbie": 7000,
    "Ġacting": 7001,
    "Mandy": 7002,
    "Ġpastels": 7003,
    "Ġmitten": 7004,
    "uction": 7005,
    "Ġrepa": 7006,
    "Ġrepaired": 7007,
    "Ġattend": 7008,
    "Ġattendant": 7009,
    "Ġcalls": 7010,
    "Ġsadd": 7011,
    "Ġsaddle": 7012,
    "Ġbridle": 7013,
    "Ġlabel": 7014,
    "Ġsnowman": 7015,
    "ĠBoo": 7016,
    "ĠEng": 7017,
    "ĠEnglish": 7018,
    "ĠSpan": 7019,
    "ĠSpanish": 7020,
    "Â±": 7021,
    "eca": 7022,
    "ĠBoom": 7023,
    "ĠStay": 7024,
    "Tweetie": 7025,
    "Ġtoil": 7026,
    "Ġtoilet": 7027,
    "Ġcoc": 7028,
    "Ġcocon": 7029,
    "Ġcoconut": 7030,
    "Ġjogging": 7031,
    "Ġsideways": 7032,
    "two": 7033,
    "four": 7034,
    "five": 7035,
    "six": 7036,
    "seven": 7037,
    "eight": 7038,
    "nine": 7039,
    "Ġbud": 7040,
    "Ġlizards": 7041,
    "Ġneedles": 7042,
    "Ġrefr": 7043,
    "Ġrefriger": 7044,
    "Ġrefrigerator": 7045,
    "Ġkayaking": 7046,
    "ĠDory": 7047,
    "Ġcalf": 7048,
    "Ġspeeding": 7049,
    "we": 7050,
    "Ġrelaxing": 7051,
    "Ġtwisty": 7052,
    "Zigzag": 7053,
    "Ġguy": 7054,
    "Ġguys": 7055,
    "Watch": 7056,
    "ĠDang": 7057,
    "ĠBecause": 7058,
    "Ġrewarded": 7059,
    "Ġpeak": 7060,
    "Ġinviting": 7061,
    "Ġinterrupting": 7062,
    "Ġinvolved": 7063,
    "Ġbehaviour": 7064,
    "Ġbubbleg": 7065,
    "Ġbubblegum": 7066,
    "Ġrelief": 7067,
    "Ġstrawberries": 7068,
    "Ġexperienced": 7069,
    "rible": 7070,
    "ĠĊ": 7071,
    "Ġbusiness": 7072,
    "Ġinjured": 7073,
    "Annie": 7074,
    "Ġcrowded": 7075,
    "ĠQuick": 7076,
    "Ġbaffled": 7077,
    "ĠCurious": 7078,
    "Ġbellowed": 7079,
    "cat": 7080,
    "Ġshyly": 7081,
    "Ġfacing": 7082,
    "Ġrewarding": 7083,
    "Ġmisbe": 7084,
    "Ġtrim": 7085,
    "Ġtrimmed": 7086,
    "ĠWorking": 7087,
    "Ġtempted": 7088,
    "Ġvisitor": 7089,
    "Åĵh": 7090,
    "Åĵhi": 7091,
    "ĠJimmyÃ¢": 7092,
    "Ġquicker": 7093,
    "ĠNort": 7094,
    "ĠNorth": 7095,
    "Ġchilly": 7096,
    "Ġcautious": 7097,
    "Ġpermitted": 7098,
    "Ġchuck": 7099,
    "Ġchuckled": 7100,
    "Ġmini": 7101,
    "Ġwealth": 7102,
    "Ġstopping": 7103,
    "Ġfooting": 7104,
    "Ġadj": 7105,
    "ended": 7106,
    "Ġconvin": 7107,
    "cing": 7108,
    "Ġreflective": 7109,
    "Ġpinching": 7110,
    "ĠpeopleÃ¢": 7111,
    "onstr": 7112,
    "Ġnewf": 7113,
    "Ġnewfound": 7114,
    "Ġconfid": 7115,
    "Ġconfidence": 7116,
    "ndered": 7117,
    "Ġswell": 7118,
    "Ġrumbled": 7119,
    "Ġcrou": 7120,
    "Ġcrouched": 7121,
    "Ġearthqu": 7122,
    "Ġearthquake": 7123,
    "Chloe": 7124,
    "Ġrumbling": 7125,
    "Ġhoot": 7126,
    "Ġwhirlp": 7127,
    "Ġwhirlpool": 7128,
    "Ġpleasure": 7129,
    "Ġsurrounding": 7130,
    "Ġsights": 7131,
    "Ġouting": 7132,
    "ĠDin": 7133,
    "Ġinstantly": 7134,
    "Ġport": 7135,
    "hoo": 7136,
    "Ġquietest": 7137,
    "ĠGem": 7138,
    "Ġworksh": 7139,
    "Ġworkshop": 7140,
    "ĠmeÃ¢": 7141,
    "Ġdisplayed": 7142,
    "Ġopp": 7143,
    "Ġhour": 7144,
    "Ġflags": 7145,
    "Ġadult": 7146,
    "Ġswaying": 7147,
    "Ġmerry": 7148,
    "Ġcaref": 7149,
    "Ġcarefree": 7150,
    "Ġnearer": 7151,
    "Ġneatly": 7152,
    "Ġlitt": 7153,
    "ler": 7154,
    "Ġclutch": 7155,
    "Ġclutching": 7156,
    "iciest": 7157,
    "Ġcrystals": 7158,
    "isted": 7159,
    "Ġswayed": 7160,
    "otion": 7161,
    "Ġreun": 7162,
    "Ġreunited": 7163,
    "Ġhesitant": 7164,
    "Ġcommunic": 7165,
    "Ġcommunicate": 7166,
    "Ġbond": 7167,
    "Ġspraying": 7168,
    "Ġengines": 7169,
    "ĠHi": 7170,
    "Gl": 7171,
    "Glad": 7172,
    "Ġchill": 7173,
    "Ġbeating": 7174,
    "Ġimproving": 7175,
    "Ġexchanged": 7176,
    "Ġhur": 7177,
    "Ġhurric": 7178,
    "Ġhurricane": 7179,
    "Denise": 7180,
    "Honey": 7181,
    "Ġblink": 7182,
    "Ġbloss": 7183,
    "Ġgardening": 7184,
    "Ġsatisf": 7185,
    "Ġsatisfaction": 7186,
    "Ġmac": 7187,
    "Ġglittered": 7188,
    "Poor": 7189,
    "Ġrobbers": 7190,
    "ĠCharles": 7191,
    "Ġsomebody": 7192,
    "Ġdaring": 7193,
    "Ġshorts": 7194,
    "Ġembarrassment": 7195,
    "Ġattem": 7196,
    "Ġattempt": 7197,
    "Ġattempts": 7198,
    "Ġigloos": 7199,
    "Minnie": 7200,
    "Whenever": 7201,
    "Ġoil": 7202,
    "Out": 7203,
    "Ġincrease": 7204,
    "Ġwishing": 7205,
    "iders": 7206,
    "ition": 7207,
    "Ġmes": 7208,
    "Ġmesmer": 7209,
    "Ġmesmerized": 7210,
    "Ġups": 7211,
    "Kari": 7212,
    "Ġdaily": 7213,
    "Jacky": 7214,
    "Ġgallop": 7215,
    "Ġvictor": 7216,
    "Ġvictorious": 7217,
    "ĠClarissa": 7218,
    "Ġstartled": 7219,
    "Bless": 7220,
    "ĠTake": 7221,
    "Ġsips": 7222,
    "ently": 7223,
    "Ġnervously": 7224,
    "ighing": 7225,
    "Ġthreatened": 7226,
    "its": 7227,
    "Ġsweetly": 7228,
    "Put": 7229,
    "Oliver": 7230,
    "Ġfluff": 7231,
    "Ġcocked": 7232,
    "Goodbye": 7233,
    "Ġarom": 7234,
    "Ġaroma": 7235,
    "Ġheavenly": 7236,
    "Ġwindowsill": 7237,
    "ÅĵYay": 7238,
    "Ġkeen": 7239,
    "Ġdryer": 7240,
    "ÅĵJack": 7241,
    "Ġguided": 7242,
    "Ġhund": 7243,
    "Ġhundred": 7244,
    "Ġsavored": 7245,
    "Ġbellies": 7246,
    "ĠTruck": 7247,
    "Ġdart": 7248,
    "Ġdarted": 7249,
    "Ġhidea": 7250,
    "Ġhideaway": 7251,
    "ords": 7252,
    "Ġseven": 7253,
    "Ġexamining": 7254,
    "Ġinfants": 7255,
    "Ġslim": 7256,
    "Ġslimy": 7257,
    "Ġyield": 7258,
    "Ġbi": 7259,
    "Ġbiking": 7260,
    "Ġtext": 7261,
    "Ġtexture": 7262,
    "Ġtwel": 7263,
    "Ġtwelve": 7264,
    "ĠWow": 7265,
    "Ġwinning": 7266,
    "Ġhardest": 7267,
    "hind": 7268,
    "Ġsiren": 7269,
    "Ġrustled": 7270,
    "Curious": 7271,
    "Ġantic": 7272,
    "Ġanticip": 7273,
    "Ġanticipation": 7274,
    "Ġaside": 7275,
    "Suzy": 7276,
    "Ġoperation": 7277,
    "DonÃ¢": 7278,
    "Ġfeature": 7279,
    "Ġfeatures": 7280,
    "Ġpapa": 7281,
    "Ġstriking": 7282,
    "that": 7283,
    "Ġotherw": 7284,
    "Ġotherwise": 7285,
    "Ġlibrarian": 7286,
    "Ġbam": 7287,
    "Ġbamboo": 7288,
    "Ġpuzzled": 7289,
    "Slowly": 7290,
    "Ġhurrying": 7291,
    "Ġpersonal": 7292,
    "Ġprocess": 7293,
    "Ġunkind": 7294,
    "Ġpossession": 7295,
    "cts": 7296,
    "Ġthanking": 7297,
    "Ġjunkyard": 7298,
    "Ġsuitcases": 7299,
    "Coo": 7300,
    "pr": 7301,
    "Ġdip": 7302,
    "ÅĵMummy": 7303,
    "ĠThatÃ¢": 7304,
    "ĠfriendÃ¢": 7305,
    "Ġsnarled": 7306,
    "Ġtrustw": 7307,
    "Ġtrustwort": 7308,
    "Ġtrustworthy": 7309,
    "ÅĵWait": 7310,
    "Ġenviron": 7311,
    "Ġenvironment": 7312,
    "Ġstreamers": 7313,
    "Ġapprov": 7314,
    "Ġapproval": 7315,
    "Ġblouse": 7316,
    "Ġpositive": 7317,
    "Ġcrunching": 7318,
    "ÅĵOnce": 7319,
    "Ġfires": 7320,
    "ances": 7321,
    "Ġsouven": 7322,
    "Ġsouvenir": 7323,
    "Ġcond": 7324,
    "Ġattitude": 7325,
    "Pixie": 7326,
    "Ġsausages": 7327,
    "Ġdecre": 7328,
    "Imag": 7329,
    "Imagine": 7330,
    "Ġmarve": 7331,
    "Ġsquish": 7332,
    "Ġsquishy": 7333,
    "Ġchatted": 7334,
    "Ġitches": 7335,
    "Ġactions": 7336,
    "Inst": 7337,
    "Instead": 7338,
    "Ġlonel": 7339,
    "Ġloneliness": 7340,
    "Ġhooks": 7341,
    "Until": 7342,
    "Ġappreciation": 7343,
    "Ġrequested": 7344,
    "ĠPinky": 7345,
    "Teddy": 7346,
    "Ġjigg": 7347,
    "Ġclucked": 7348,
    "Ġdesc": 7349,
    "Ġdescri": 7350,
    "Ġslower": 7351,
    "',": 7352,
    "Ahh": 7353,
    "ĠExc": 7354,
    "Ġbumpy": 7355,
    "Ġsuggest": 7356,
    "Ġsuggestion": 7357,
    "Ġsoaking": 7358,
    "Ġmassage": 7359,
    "Ġbubbled": 7360,
    "Ġdesper": 7361,
    "Ġdesperately": 7362,
    "Ġdelivered": 7363,
    "Ġmixing": 7364,
    "Ġairpl": 7365,
    "Ġairplane": 7366,
    "Ġdrums": 7367,
    "Ġeverybody": 7368,
    "Ġspoonful": 7369,
    "Ġappears": 7370,
    "Ġpolishing": 7371,
    "Ġfog": 7372,
    "ĠToys": 7373,
    "Ġnuzz": 7374,
    "Ġnuzzled": 7375,
    "Ġdozed": 7376,
    "Ġprotecting": 7377,
    "Ruby": 7378,
    "Ġbuying": 7379,
    "Simon": 7380,
    "Ġstiff": 7381,
    "Ġgrazing": 7382,
    "Ġcontinue": 7383,
    "Ġstreaming": 7384,
    "ĠCare": 7385,
    "ĠCarefully": 7386,
    "Ġcreams": 7387,
    "Ġpopsic": 7388,
    "Ġcircled": 7389,
    "ĠGranddad": 7390,
    "Ġhungrily": 7391,
    "balls": 7392,
    "Ġted": 7393,
    "Ġteddies": 7394,
    "Ġcent": 7395,
    "Ġweightless": 7396,
    "Ġreceptionist": 7397,
    "ĠboyÃ¢": 7398,
    "Ġcontainers": 7399,
    "Ġfascinating": 7400,
    "Ġcowboys": 7401,
    "Te": 7402,
    "Josh": 7403,
    "Ġblast": 7404,
    "Ġfondly": 7405,
    "Ġdesigned": 7406,
    "Ġpeddled": 7407,
    "Ġpanc": 7408,
    "Ġpancakes": 7409,
    "Ġau": 7410,
    "Ġaud": 7411,
    "Ġaudience": 7412,
    "Ġrocked": 7413,
    "Ġbund": 7414,
    "Ġbundles": 7415,
    "Ġsmelling": 7416,
    "ĠLoo": 7417,
    "Ġsurv": 7418,
    "Ġsurvive": 7419,
    "Ġknees": 7420,
    "Ġjoining": 7421,
    "Ġill": 7422,
    "Ġcoup": 7423,
    "Ġcouple": 7424,
    "Ġlunchtime": 7425,
    "Ġsuffered": 7426,
    "hew": 7427,
    "Ġmustn": 7428,
    "ĠAfterwards": 7429,
    "Ġgasp": 7430,
    "Ġgoodies": 7431,
    "Ġrobots": 7432,
    "Ġwhoever": 7433,
    "Ġheels": 7434,
    "Ġactivity": 7435,
    "Ġbowing": 7436,
    "ĠBo": 7437,
    "End": 7438,
    "Ton": 7439,
    "Tonight": 7440,
    "Ġcandies": 7441,
    "ĠInstantly": 7442,
    "Ġcany": 7443,
    "Ġcompete": 7444,
    "Ġsnooze": 7445,
    "Ġintroducing": 7446,
    "Ġcorners": 7447,
    "Ġseag": 7448,
    "Ġseagull": 7449,
    "Ġshimmering": 7450,
    "Ġtrading": 7451,
    "Ġstored": 7452,
    "Ġblob": 7453,
    "Ġsim": 7454,
    "Ġsimil": 7455,
    "Ġsimilar": 7456,
    "Ġwrapping": 7457,
    "Ġunn": 7458,
    "Ġkneeled": 7459,
    "Ġtables": 7460,
    "ĠPretty": 7461,
    "Ġplug": 7462,
    "Ġstamped": 7463,
    "Ġrely": 7464,
    "Ġgoats": 7465,
    "Ġstumble": 7466,
    "Ġpearl": 7467,
    "Ġpounced": 7468,
    "thank": 7469,
    "Ġwindy": 7470,
    "Ġignoring": 7471,
    "Ġmatt": 7472,
    "Ġmattress": 7473,
    "Ġtig": 7474,
    "Ġtigers": 7475,
    "Ġcuddly": 7476,
    "Ġbaked": 7477,
    "lean": 7478,
    "leaning": 7479,
    "Ġlays": 7480,
    "Ġadds": 7481,
    "Ġpraises": 7482,
    "ĠFighting": 7483,
    "Ġung": 7484,
    "Ġungr": 7485,
    "Ġungrateful": 7486,
    "Ġcans": 7487,
    "Ġharmful": 7488,
    "Ġgirls": 7489,
    "gg": 7490,
    "Ġbreathes": 7491,
    "Ġgrowls": 7492,
    "Abra": 7493,
    "Abracadabra": 7494,
    "ĠEx": 7495,
    "Ġmedi": 7496,
    "Ġmedium": 7497,
    "Ġbuilders": 7498,
    "Whee": 7499,
    "Ġtissue": 7500,
    "ĠSorry": 7501,
    "Ġriddles": 7502,
    "Ġurging": 7503,
    "Ġunfair": 7504,
    "Ġwhined": 7505,
    "Ġcracked": 7506,
    "ĠCars": 7507,
    "Ġsneaks": 7508,
    "Ġtouc": 7509,
    "Ġtouches": 7510,
    "Ġlearns": 7511,
    "Ġtongues": 7512,
    "Ġhammered": 7513,
    "Welcome": 7514,
    "Ġnightst": 7515,
    "Ġnightstand": 7516,
    "Ġlands": 7517,
    "ĠChe": 7518,
    "ĠCheese": 7519,
    "Ġforks": 7520,
    "Ġtraded": 7521,
    "Ġwaists": 7522,
    "Ġreck": 7523,
    "Ġreckless": 7524,
    "emon": 7525,
    "emonade": 7526,
    "Did": 7527,
    "Ġfans": 7528,
    "Ġstung": 7529,
    "Ġswoll": 7530,
    "Ġswollen": 7531,
    "Ġsneezes": 7532,
    "Ġspills": 7533,
    "Ġgasps": 7534,
    "Ġhides": 7535,
    "Ġknocks": 7536,
    "ĠOur": 7537,
    "Ġchains": 7538,
    "Ġartists": 7539,
    "ĠBye": 7540,
    "ĠZoe": 7541,
    "ĠWelcome": 7542,
    "Ġflick": 7543,
    "Ġpurrs": 7544,
    "Rain": 7545,
    "ĠBooks": 7546,
    "Ġstaying": 7547,
    "Ġcheated": 7548,
    "Ġlied": 7549,
    "Ġuntie": 7550,
    "Ġsingers": 7551,
    "Ġhandsome": 7552,
    "Ġgestures": 7553,
    "Ġbarking": 7554,
    "Ġwagging": 7555,
    "Ġunderground": 7556,
    "ĠCuri": 7557,
    "ĠCuriosity": 7558,
    "now": 7559,
    "Ġdepend": 7560,
    "tock": 7561,
    "ĠChoose": 7562,
    "Ġoutfits": 7563,
    "Ġcharge": 7564,
    "Ġhotter": 7565,
    "Ġthud": 7566,
    "Ġdressing": 7567,
    "Ġdou": 7568,
    "Ġaren": 7569,
    "Ġscored": 7570,
    "Ġtickling": 7571,
    "Ġpermiss": 7572,
    "Ġpermission": 7573,
    "Ġjars": 7574,
    "Ġpry": 7575,
    "Ġloose": 7576,
    "Ġpotion": 7577,
    "Ġpickles": 7578,
    "Silly": 7579,
    "Ġpaintbrus": 7580,
    "Ġpaintbrushes": 7581,
    "ware": 7582,
    "Ġtablec": 7583,
    "Ġtablecl": 7584,
    "Ġtablecloth": 7585,
    "Ġsleepier": 7586,
    "Goodnight": 7587,
    "Ġleather": 7588,
    "Ġfits": 7589,
    "Ġconnect": 7590,
    "whe": 7591,
    "Ġspeaker": 7592,
    "Ġbled": 7593,
    "Ġplayroom": 7594,
    "Ġdrives": 7595,
    "Ġwoof": 7596,
    "Ġni": 7597,
    "Ġnibbled": 7598,
    "Ġrings": 7599,
    "Ġbracele": 7600,
    "Ġbracelets": 7601,
    "Ġearr": 7602,
    "Ġearrings": 7603,
    "Ġjewelry": 7604,
    "Ġbreathed": 7605,
    "Ġoh": 7606,
    "Ġmateri": 7607,
    "Ġmaterials": 7608,
    "oh": 7609,
    "ĠHalley": 7610,
    "Ġvanilla": 7611,
    "...\"": 7612,
    "Hide": 7613,
    "Ġcuts": 7614,
    "Ġourselves": 7615,
    "Ġmower": 7616,
    "Ġuseless": 7617,
    "Ġlens": 7618,
    "Ġhanding": 7619,
    "Ġsuspic": 7620,
    "Ġexplode": 7621,
    "Ġkicks": 7622,
    "Ġfootst": 7623,
    "Ġfootstep": 7624,
    "Ġfootsteps": 7625,
    "Ġblind": 7626,
    "Ġtickets": 7627,
    "Ġbinoc": 7628,
    "Ġbinocul": 7629,
    "Ġbinoculars": 7630,
    "Ġawful": 7631,
    "ĠSour": 7632,
    "Ġpucker": 7633,
    "Ġdarl": 7634,
    "Ġdarlings": 7635,
    "eat": 7636,
    "Tr": 7637,
    "True": 7638,
    "Ġrips": 7639,
    "Ġbuses": 7640,
    "ĠWhoosh": 7641,
    "Ġdetails": 7642,
    "Ġtomatoes": 7643,
    "Ġyum": 7644,
    "Ġmister": 7645,
    "Ġbru": 7646,
    "Ġcloses": 7647,
    "Ġmeets": 7648,
    "ĠX": 7649,
    "ĠCl": 7650,
    "Ġoverc": 7651,
    "Ġovercome": 7652,
    "ĠMe": 7653,
    "ĠAnother": 7654,
    "Ġfrowns": 7655,
    "Ġsensors": 7656,
    "Ġcomputers": 7657,
    "Ġbodies": 7658,
    "Ġmat": 7659,
    "igning": 7660,
    "Ġscri": 7661,
    "Ġwhir": 7662,
    "Ġchecks": 7663,
    "Ġpref": 7664,
    "Ġprefer": 7665,
    "Ġpreferred": 7666,
    "Great": 7667,
    "Ġropes": 7668,
    "ĠLuckily": 7669,
    "Joey": 7670,
    "Ġuncovered": 7671,
    "Ġexcept": 7672,
    "ĠSadly": 7673,
    "Ġrainco": 7674,
    "Ġraincoat": 7675,
    "Ġdrawn": 7676,
    "Ġgoals": 7677,
    "Ġfashionable": 7678,
    "Ġglitter": 7679,
    "ĠSund": 7680,
    "ĠSunday": 7681,
    "bed": 7682,
    "Ġannounced": 7683,
    "Ġhatched": 7684,
    "Ġdifferently": 7685,
    "Ġhealthier": 7686,
    "ĠShape": 7687,
    "ĠShapey": 7688,
    "Ġflashing": 7689,
    "ĠAg": 7690,
    "ĠAgain": 7691,
    "Ġ...": 7692,
    "Ġhiked": 7693,
    "Ġpractised": 7694,
    "ĠKid": 7695,
    "ĠKids": 7696,
    "Ġaccomplishment": 7697,
    "Ġtropic": 7698,
    "Ġtropical": 7699,
    "ĠSwimming": 7700,
    "Ġboiled": 7701,
    "âĤ¬Ë": 7702,
    "âĤ¬Ëľ": 7703,
    "aster": 7704,
    "Ġflips": 7705,
    "ĠDespite": 7706,
    "omp": 7707,
    "Ġstate": 7708,
    "Rob": 7709,
    "Ġawoke": 7710,
    "Ġfant": 7711,
    "Ġfantastic": 7712,
    "this": 7713,
    "Ġkissing": 7714,
    "Ġlessons": 7715,
    "Ġbowling": 7716,
    "Ġscooted": 7717,
    "Ġends": 7718,
    "Ġslee": 7719,
    "Ġsleeves": 7720,
    "Ġbubbly": 7721,
    "ĠLarry": 7722,
    "Larry": 7723,
    "Ġregister": 7724,
    "Ġgrouch": 7725,
    "Ġgrouchy": 7726,
    "Ġmun": 7727,
    "Ġmunched": 7728,
    "Ġbubbling": 7729,
    "Ġwaded": 7730,
    "Ġbraver": 7731,
    "Ġimagin": 7732,
    "Ġgulp": 7733,
    "Ġscent": 7734,
    "Ġuncover": 7735,
    "Ġtiring": 7736,
    "Ġsniffing": 7737,
    "ĠEverytime": 7738,
    "Ġsorted": 7739,
    "Ġrotted": 7740,
    "Ġroast": 7741,
    "Everybody": 7742,
    "ening": 7743,
    "Ġsunk": 7744,
    "Ġmessing": 7745,
    "Ġperformed": 7746,
    "Ġrescuing": 7747,
    "Meanwhile": 7748,
    "Ġparticularly": 7749,
    "ĠUnder": 7750,
    "arther": 7751,
    "Ġcloudy": 7752,
    "Ġskies": 7753,
    "Ġridden": 7754,
    "ĠBeth": 7755,
    "Ġblades": 7756,
    "Ġawhile": 7757,
    "ĠRobbie": 7758,
    "Ġprayers": 7759,
    "Ġnecessary": 7760,
    "ĠEating": 7761,
    "ĠWherever": 7762,
    "ounds": 7763,
    "Ġevenings": 7764,
    "Ġden": 7765,
    "Ġuniting": 7766,
    "Ġechoed": 7767,
    "Hannah": 7768,
    "Ġfamilies": 7769,
    "istic": 7770,
    "ĠStick": 7771,
    "Ġpacking": 7772,
    "ĠLaser": 7773,
    "Ġunwanted": 7774,
    "Ġrivers": 7775,
    "Ġbegun": 7776,
    "Ġknobs": 7777,
    "Ġrepairman": 7778,
    "used": 7779,
    "Nick": 7780,
    "Ġslither": 7781,
    "Ġfins": 7782,
    "Ġexplorer": 7783,
    "Ġcheckout": 7784,
    "Ġgloss": 7785,
    "Ġglossy": 7786,
    "Ġty": 7787,
    "Ġtypes": 7788,
    "Ġbrightened": 7789,
    "Ġconfus": 7790,
    "Ġconfusion": 7791,
    "ĠwerenÃ¢": 7792,
    "ÅĵGood": 7793,
    "Ġchoices": 7794,
    "Ġescap": 7795,
    "Ġescaping": 7796,
    "Ġpassen": 7797,
    "Ġpasseng": 7798,
    "Ġpassengers": 7799,
    "Ġchugging": 7800,
    "Ġsnakes": 7801,
    "ĠOver": 7802,
    "Ġtravelled": 7803,
    "Ġbirdse": 7804,
    "Ġbirdseed": 7805,
    "Ġbaths": 7806,
    "Ġmarkings": 7807,
    "Ġbrightest": 7808,
    "ĠEverybody": 7809,
    ".'": 7810,
    "Ġwobbled": 7811,
    "Jamie": 7812,
    "Ġsilently": 7813,
    "iece": 7814,
    "irts": 7815,
    "ĠAnt": 7816,
    "Ġpaying": 7817,
    "Bl": 7818,
    "Blue": 7819,
    "Ġmeow": 7820,
    "Ġswan": 7821,
    "Ġwaking": 7822,
    "Ġtap": 7823,
    "Ġgoods": 7824,
    "Doug": 7825,
    "ative": 7826,
    "ĠRemember": 7827,
    "Ġmarked": 7828,
    "hand": 7829,
    "handed": 7830,
    "?<|": 7831,
    "Dave": 7832,
    "Ġodd": 7833,
    "Ġsnapping": 7834,
    "Ġperch": 7835,
    "Ġtrous": 7836,
    "Ġtrousers": 7837,
    "ooping": 7838,
    "Ġsoul": 7839,
    "erh": 7840,
    "erhap": 7841,
    "erhaps": 7842,
    "clever": 7843,
    "Ġobl": 7844,
    "Ġoblig": 7845,
    "Ġobliged": 7846,
    "respect": 7847,
    "Sadly": 7848,
    "Ġsnowy": 7849,
    "iding": 7850,
    "Ġorganis": 7851,
    "Ġorganiser": 7852,
    "Ġscow": 7853,
    "Ġloudest": 7854,
    "Ġproved": 7855,
    "Ġmur": 7856,
    "Ġmural": 7857,
    "Hop": 7858,
    "Ġteams": 7859,
    "Ġconqu": 7860,
    "Ġconquered": 7861,
    "Ġine": 7862,
    "Ġinev": 7863,
    "Ġinevit": 7864,
    "Ġnine": 7865,
    "Ġborrowed": 7866,
    "Ġspringing": 7867,
    "Ġsettling": 7868,
    "Ġpalms": 7869,
    "ĠLots": 7870,
    "Ġfading": 7871,
    "Ġtrot": 7872,
    "Ġtrotted": 7873,
    "Ġsprinkle": 7874,
    "Ġpractising": 7875,
    "Ġtossed": 7876,
    "Ġforce": 7877,
    "Katie": 7878,
    "Ġeagle": 7879,
    "Ġloading": 7880,
    "Ġbookshelf": 7881,
    "Ġboar": 7882,
    "ÅĵWe": 7883,
    "ĠFro": 7884,
    "Patrick": 7885,
    "Ġweighs": 7886,
    "Ġcopper": 7887,
    "Ġremembering": 7888,
    "Ġdevice": 7889,
    "Ġoily": 7890,
    "Ġcleaner": 7891,
    "Time": 7892,
    "Steve": 7893,
    "ÅĵWhatÃ¢": 7894,
    "Ġtravell": 7895,
    "Ġtravelling": 7896,
    "ĠTina": 7897,
    "Ġshrinking": 7898,
    "ĠOutside": 7899,
    "Those": 7900,
    "ÅĵSee": 7901,
    "Ġmustered": 7902,
    "Ġappet": 7903,
    "Ġappetite": 7904,
    "Dog": 7905,
    "Ġtickly": 7906,
    "Stella": 7907,
    "Ġpupp": 7908,
    "Ġpuppies": 7909,
    "Ġsensation": 7910,
    "Ġmomma": 7911,
    "Ġpointy": 7912,
    "Ġnations": 7913,
    "Ġpipes": 7914,
    "Ġscu": 7915,
    "Ġsculp": 7916,
    "Ġsculpture": 7917,
    "Ġsculptures": 7918,
    "Ġfifteen": 7919,
    "Ġwoodpe": 7920,
    "Ġwoodpeck": 7921,
    "Ġwoodpecker": 7922,
    "ÅĵJane": 7923,
    "Ġtests": 7924,
    "Ġrecess": 7925,
    "Ġunro": 7926,
    "Ġunroll": 7927,
    "Ġreb": 7928,
    "Ġrebu": 7929,
    "Ġrebuild": 7930,
    "Ġtowns": 7931,
    "Ġtownspe": 7932,
    "Ġtownspeople": 7933,
    "Ġproducts": 7934,
    "Ġcust": 7935,
    "Ġcustom": 7936,
    "Ġcustomers": 7937,
    ",'": 7938,
    "Ġdar": 7939,
    "Ġdarling": 7940,
    "Jennifer": 7941,
    "Ġrejoiced": 7942,
    "Ġremoved": 7943,
    "Ġoption": 7944,
    "Ġbuckets": 7945,
    "Ġsmeared": 7946,
    "ĠIm": 7947,
    "ĠImmediately": 7948,
    "Ġgazing": 7949,
    "Ġpony": 7950,
    "Ġheight": 7951,
    "ĠmonkeyÃ¢": 7952,
    "Ġshoulders": 7953,
    "Ġlarger": 7954,
    "Ġtil": 7955,
    "Seeing": 7956,
    "ole": 7957,
    "Maisy": 7958,
    "ners": 7959,
    "Ġawoken": 7960,
    "Ġwindier": 7961,
    "Ġlaunch": 7962,
    "Ġdock": 7963,
    "Everything": 7964,
    "ĠSweetie": 7965,
    "Ġguns": 7966,
    "Ġexpert": 7967,
    "Star": 7968,
    "Ġbound": 7969,
    "Ġboundar": 7970,
    "Ġboundaries": 7971,
    "Ġunfam": 7972,
    "Ġunfamil": 7973,
    "Ġunfamiliar": 7974,
    "what": 7975,
    "ĠSophia": 7976,
    "Ġpolished": 7977,
    "Ġcabinets": 7978,
    "Ġwiggled": 7979,
    "ÅĵPlease": 7980,
    "Ġtingle": 7981,
    "Pit": 7982,
    "Does": 7983,
    "Ġswat": 7984,
    "Ġhooked": 7985,
    "Ellen": 7986,
    "Ġpunished": 7987,
    "Ġpunishment": 7988,
    "ĠSmo": 7989,
    "Ġincreasing": 7990,
    "Ġcause": 7991,
    "Ġprob": 7992,
    "Ġprobably": 7993,
    "An": 7994,
    "?\"<|": 7995,
    "Ġinvitation": 7996,
    "Ġcountryside": 7997,
    "Ġhandful": 7998,
    "Ġplans": 7999,
    "Ġmeters": 8000,
    "Ġdefe": 8001,
    "ĠRobby": 8002,
    "Robby": 8003,
    "Ġaloud": 8004,
    "Ġforced": 8005,
    "Ġfever": 8006,
    "stream": 8007,
    "Ġdod": 8008,
    "Ġdodging": 8009,
    "Ġpatted": 8010,
    "Ġ10": 8011,
    "Ġaston": 8012,
    "Ġastonished": 8013,
    "ÅĵStand": 8014,
    "Ġsquinted": 8015,
    "ĠÃĤ": 8016,
    "Â«": 8017,
    "Â»": 8018,
    "Ġsqueaky": 8019,
    "Some": 8020,
    "Ġotters": 8021,
    "Ġrecor": 8022,
    "Ġrecorder": 8023,
    "Ġcheers": 8024,
    "Juliet": 8025,
    "Ġdesire": 8026,
    "Ġwaterf": 8027,
    "Ġwaterfall": 8028,
    "Ġplucked": 8029,
    "Ġinform": 8030,
    "Ġinformation": 8031,
    "Willow": 8032,
    "Ġmang": 8033,
    "Ġmango": 8034,
    "Ġsails": 8035,
    "Ġdow": 8036,
    "Ġdownt": 8037,
    "Ġdowntown": 8038,
    "ĠLeah": 8039,
    "Leah": 8040,
    "Ġtugging": 8041,
    "Copper": 8042,
    "Ġagrees": 8043,
    "Ġkit": 8044,
    "Ġstroke": 8045,
    "Ġscreaming": 8046,
    "Ġopinions": 8047,
    "ĠLaughter": 8048,
    "Ġwiping": 8049,
    "Ġsmoot": 8050,
    "Ġsmoothed": 8051,
    "please": 8052,
    "Ġinvites": 8053,
    "Friends": 8054,
    "Rex": 8055,
    "ĠChr": 8056,
    "ĠChrist": 8057,
    "ĠChristm": 8058,
    "ĠChristmas": 8059,
    "Ġmak": 8060,
    "Ġmakers": 8061,
    "Ġpepperoni": 8062,
    "izza": 8063,
    "Ġbleed": 8064,
    "Ġbleeding": 8065,
    "Ġsite": 8066,
    "Ġreas": 8067,
    "Ġreason": 8068,
    "Ġtoss": 8069,
    "Ġspeaks": 8070,
    "Â¡": 8071,
    "ĠmuÃĥ": 8072,
    "car": 8073,
    "Ġflashes": 8074,
    "Ġavo": 8075,
    "Ġavoid": 8076,
    "Ġsewing": 8077,
    "Ġstems": 8078,
    "Ġsheets": 8079,
    "Ġsquawk": 8080,
    "Ġdolph": 8081,
    "Ġdolphins": 8082,
    "Ġpresses": 8083,
    "Ġbitten": 8084,
    "Ġimportance": 8085,
    "ĠGirl": 8086,
    "ĠGirls": 8087,
    "Only": 8088,
    "Ġbenches": 8089,
    "Ġtant": 8090,
    "Ġtantr": 8091,
    "Ġtantrum": 8092,
    "Ġblushed": 8093,
    "Ġge": 8094,
    "Ġgeese": 8095,
    "Ġpouch": 8096,
    "Ġele": 8097,
    "Ġfifty": 8098,
    "Ġcrumb": 8099,
    "Ġcrumbs": 8100,
    "amps": 8101,
    "Ro": 8102,
    "Roar": 8103,
    "Ġnests": 8104,
    "Ġcowboy": 8105,
    "Ġrobber": 8106,
    "Ġchatter": 8107,
    "ĠFlower": 8108,
    "Ġfris": 8109,
    "Ġfrisbee": 8110,
    "Ġgolfer": 8111,
    "Ġashtrays": 8112,
    "Ġguards": 8113,
    "Ġcore": 8114,
    "Ġblamed": 8115,
    "dri": 8116,
    "drip": 8117,
    "Ġlabels": 8118,
    "Ġironing": 8119,
    "vroom": 8120,
    "Ġlawnm": 8121,
    "Ġlawnmower": 8122,
    "Ġbats": 8123,
    "Ġdecorating": 8124,
    "Ġcactuses": 8125,
    "Ġchugged": 8126,
    "Ġpreschool": 8127,
    "Ġtrusty": 8128,
    "Ġnightlight": 8129,
    "Ġparking": 8130,
    "Ġwobble": 8131,
    "Nutty": 8132,
    "Betsy": 8133,
    "Ġprincesses": 8134,
    "Ġbeeped": 8135,
    "Beep": 8136,
    "Owl": 8137,
    "ĠTry": 8138,
    "Fun": 8139,
    "ĠRace": 8140,
    "'.\"": 8141,
    "Ġwaggy": 8142,
    "Binky": 8143,
    "ĠNice": 8144,
    "ĠDangerous": 8145,
    "Ice": 8146,
    "Cream": 8147,
    "Ġmarketplace": 8148,
    "Ġdot": 8149,
    "Ġlightest": 8150,
    "Ġmanager": 8151,
    "Ġapprop": 8152,
    "Ġappropri": 8153,
    "Ġappropriate": 8154,
    "Ġengage": 8155,
    "Ġflavours": 8156,
    "Ġdelightful": 8157,
    "Ġsnowst": 8158,
    "Ġsnowstorm": 8159,
    "Ġhorrible": 8160,
    "ÅĵBe": 8161,
    "ĠĠĊĠ": 8162,
    "Ġminding": 8163,
    "Wilbur": 8164,
    "ĠTears": 8165,
    "ĠCrow": 8166,
    "Caw": 8167,
    "ĠCaw": 8168,
    "Ġfriendsh": 8169,
    "Ġfriendships": 8170,
    "ĠQuickly": 8171,
    "Ġpathway": 8172,
    "Ġinstant": 8173,
    "Ġ8": 8174,
    "Ġscaredy": 8175,
    "Ġunb": 8176,
    "Ġunbel": 8177,
    "Ġunbelie": 8178,
    "Ġunbeliev": 8179,
    "Ġunbelievably": 8180,
    "Ġmisbeha": 8181,
    "Ġmisbehaving": 8182,
    "ĠdaddyÃ¢": 8183,
    "ĠsheÃ¢": 8184,
    "ĠgirlÃ¢": 8185,
    "Ġraking": 8186,
    "Helping": 8187,
    "Ġchore": 8188,
    "ÅĵhiÃ¢": 8189,
    "Åĵhello": 8190,
    "ÅĵhelloÃ¢": 8191,
    "Ġroamed": 8192,
    "Ġwelcoming": 8193,
    "Ġyumm": 8194,
    "Ġyummiest": 8195,
    "ÅĵWow": 8196,
    "ÅĵB": 8197,
    "ÅĵBugs": 8198,
    "Ġclums": 8199,
    "Ġclumsily": 8200,
    "Ġwhit": 8201,
    "Ġwhiten": 8202,
    "Ġwhiteness": 8203,
    "Ġtale": 8204,
    "Nora": 8205,
    "Ġcertainly": 8206,
    "ÅĵQuick": 8207,
    "Ġattract": 8208,
    "Ġattracting": 8209,
    "Ġsecretly": 8210,
    "Ġrather": 8211,
    "Ġadjusted": 8212,
    "Ġblur": 8213,
    "Ġglisten": 8214,
    "Ġglistening": 8215,
    "Ġsuspended": 8216,
    "Ġrealiz": 8217,
    "Ġrealization": 8218,
    "Ġconvincing": 8219,
    "ĠBetter": 8220,
    "Ġrecount": 8221,
    "Ġrecounted": 8222,
    "Ġrightful": 8223,
    "Ġprospect": 8224,
    "Ġmuscle": 8225,
    "Ġscour": 8226,
    "Ġscourging": 8227,
    "Ġdemonstr": 8228,
    "Ġdemonstrating": 8229,
    "Ġpondered": 8230,
    "Ġcurre": 8231,
    "Ġcurrent": 8232,
    "Ġrap": 8233,
    "Ġrapid": 8234,
    "Ġrapidly": 8235,
    "ĠWake": 8236,
    "Ġdeclined": 8237,
    "Ġhooting": 8238,
    "Ġhooted": 8239,
    "Ġowls": 8240,
    "Ġcaret": 8241,
    "Ġcaretak": 8242,
    "Ġcaretaker": 8243,
    "Ġdropping": 8244,
    "stop": 8245,
    "Ġdrier": 8246,
    "Br": 8247,
    "Bruce": 8248,
    "Ġincredib": 8249,
    "Ġincredibly": 8250,
    "Ġhasn": 8251,
    "Ġtrusting": 8252,
    "Pick": 8253,
    "Ġbuyer": 8254,
    "ĠDinosaur": 8255,
    "Ġportion": 8256,
    "Mel": 8257,
    "Shhh": 8258,
    "Woo": 8259,
    "Pale": 8260,
    "Which": 8261,
    "ÅĵAmy": 8262,
    "ĠsunÃ¢": 8263,
    "Ġaction": 8264,
    "Ġcalming": 8265,
    "ÅĵSo": 8266,
    "Ġwadd": 8267,
    "Ġwaddled": 8268,
    "Ġholl": 8269,
    "Ġhollow": 8270,
    "Ġimages": 8271,
    "Ġbackwards": 8272,
    "Ġoppos": 8273,
    "Ġopposite": 8274,
    "Ġforwards": 8275,
    "Ġextraord": 8276,
    "Ġextraordinary": 8277,
    "Ġmassive": 8278,
    "Ġgrumbling": 8279,
    "Get": 8280,
    "Getting": 8281,
    "ĠPanic": 8282,
    "ĠFold": 8283,
    "ĠFolding": 8284,
    "Ġprotested": 8285,
    "Isn": 8286,
    "Ġlittler": 8287,
    "ĠnoiseÃ¢": 8288,
    "Ġspiciest": 8289,
    "Ġrounds": 8290,
    "Ġdrool": 8291,
    "Ġdrooling": 8292,
    "ĠAlas": 8293,
    "Ġnecessar": 8294,
    "Ġnecessarily": 8295,
    "Ġthousands": 8296,
    "Ġexisted": 8297,
    "Ġspied": 8298,
    "Sl": 8299,
    "Slam": 8300,
    "Ġcommotion": 8301,
    "ĠsurprisedÃ¢": 8302,
    "Ġgladly": 8303,
    "ĠbondÃ¢": 8304,
    "Ġhomem": 8305,
    "Ġhomemade": 8306,
    "Todd": 8307,
    "Ġhoisted": 8308,
    "Alfie": 8309,
    "ÅĵGlad": 8310,
    "Ġspine": 8311,
    "toed": 8312,
    "Ġswordf": 8313,
    "Ġswordfighting": 8314,
    "Ġchildhood": 8315,
    "Ġema": 8316,
    "Ġemails": 8317,
    "Ġaddresses": 8318,
    "ĠWas": 8319,
    "Ġspear": 8320,
    "Ġsighting": 8321,
    "Ġprints": 8322,
    "Ġoperator": 8323,
    "Ġshortcut": 8324,
    "ĠFr": 8325,
    "ĠFrustrated": 8326,
    "Ġtwirling": 8327,
    "Ġsurged": 8328,
    "Ġterror": 8329,
    "Ġscariness": 8330,
    "ĠInstin": 8331,
    "ĠInstinctive": 8332,
    "ĠInstinctively": 8333,
    "Ġblossom": 8334,
    "Ġblossoms": 8335,
    "Ġrevealing": 8336,
    "Ġnast": 8337,
    "Ġnasty": 8338,
    "Mine": 8339,
    "Charles": 8340,
    "ĠWearing": 8341,
    "Ġreluct": 8342,
    "Ġreluctantly": 8343,
    "Ġriverb": 8344,
    "Ġriverbank": 8345,
    "Isabel": 8346,
    "Ġsmoothly": 8347,
    "Ġgoodness": 8348,
    "ĠpresentÃ¢": 8349,
    "Ġpedaling": 8350,
    "ĠAr": 8351,
    "ĠArct": 8352,
    "ĠArctic": 8353,
    "ĠIg": 8354,
    "ĠIgloo": 8355,
    "ĠIgloos": 8356,
    "Ġfroze": 8357,
    "ĠLea": 8358,
    "Ġexercises": 8359,
    "Ġprog": 8360,
    "Ġprogress": 8361,
    "Ġbehaved": 8362,
    "ĠHurry": 8363,
    "Ġoutr": 8364,
    "Ġoutrun": 8365,
    "tough": 8366,
    "mess": 8367,
    "message": 8368,
    "ĠteacherÃ¢": 8369,
    "ÅĵEmma": 8370,
    "Ġwhiteboard": 8371,
    "Ġblossomed": 8372,
    "Ġcuddling": 8373,
    "Ġscamp": 8374,
    "Ġscampered": 8375,
    "Ġstare": 8376,
    "Ġgut": 8377,
    "Ġtumbling": 8378,
    "Whose": 8379,
    "Excu": 8380,
    "Excuse": 8381,
    "ĠWhose": 8382,
    "Ġgrazed": 8383,
    "ĠSpiders": 8384,
    "ĠSum": 8385,
    "ĠSummer": 8386,
    "Ġaddition": 8387,
    "Each": 8388,
    "Ġprices": 8389,
    "wait": 8390,
    "Ġdowns": 8391,
    "Ġoo": 8392,
    "Ġoohed": 8393,
    "Ġah": 8394,
    "Ġahhed": 8395,
    "Ġupside": 8396,
    "Ġhab": 8397,
    "Ġhabit": 8398,
    "Ġrit": 8399,
    "Ġritual": 8400,
    "Ġrarer": 8401,
    "Ġpurch": 8402,
    "Ġpurchase": 8403,
    "Ġpoof": 8404,
    "Åĵs": 8405,
    "Åĵsock": 8406,
    "?!": 8407,
    "Ġgalloping": 8408,
    "ĠAsked": 8409,
    "Ġrequests": 8410,
    "Ġurg": 8411,
    "Ġurgently": 8412,
    "Ġzigzags": 8413,
    "Ġreassuring": 8414,
    "Ġreassuringly": 8415,
    "Rabbit": 8416,
    "ĠSighing": 8417,
    "Ġpeaked": 8418,
    "Ġbrag": 8419,
    "Despite": 8420,
    "Ġfail": 8421,
    "Ġfailure": 8422,
    "Ġass": 8423,
    "Ġassured": 8424,
    "Ġlim": 8425,
    "Ġlimits": 8426,
    "Ġunwell": 8427,
    "ÅĵJohn": 8428,
    "Ġrungs": 8429,
    "Ġstrolled": 8430,
    "Ġcons": 8431,
    "Ġconsid": 8432,
    "Ġconsidered": 8433,
    "Ġunlocks": 8434,
    "Ġinstrument": 8435,
    "Ġbraved": 8436,
    "Ġfluffed": 8437,
    "ĠRaven": 8438,
    "ĠDoes": 8439,
    "ĠDoesn": 8440,
    "Ġrasp": 8441,
    "Ġraspberry": 8442,
    "Ġdaisy": 8443,
    "Ġthist": 8444,
    "Ġthistle": 8445,
    "Ġtin": 8446,
    "Ġshrunk": 8447,
    "Although": 8448,
    "ÅĵMum": 8449,
    "Ġsped": 8450,
    "Hmm": 8451,
    "?\",": 8452,
    "Skull": 8453,
    "Skulls": 8454,
    "Ġskulls": 8455,
    "Ġapologised": 8456,
    "Ġhideout": 8457,
    "Ġnooks": 8458,
    "Ġcran": 8459,
    "Ġcrannies": 8460,
    "Stup": 8461,
    "Stupid": 8462,
    "Ġswords": 8463,
    "yield": 8464,
    "Ġbicycles": 8465,
    "Ġfle": 8466,
    "Ġflecks": 8467,
    "Ġsheepish": 8468,
    "Ġsheepishly": 8469,
    "Ġsoftness": 8470,
    "Ġflopped": 8471,
    "clock": 8472,
    "Ġtriump": 8473,
    "Ġtriumph": 8474,
    "ÅĵWin": 8475,
    "ÅĵWinning": 8476,
    "Ġhedgew": 8477,
    "Ġhedgewit": 8478,
    "Ġinser": 8479,
    "Ġinserted": 8480,
    "Behind": 8481,
    "Ġparach": 8482,
    "Ġparachut": 8483,
    "Ġparachute": 8484,
    "Ġrowboat": 8485,
    "Ġrowing": 8486,
    "Ġcleanly": 8487,
    "Ġecho": 8488,
    "Ġwhispering": 8489,
    "Ġsomeh": 8490,
    "Ġsomehow": 8491,
    "ĠBehind": 8492,
    "Ġdining": 8493,
    "ĠLilyÃ¢": 8494,
    "Linda": 8495,
    "Ġprest": 8496,
    "Ġpresto": 8497,
    "Haha": 8498,
    "Ġburnt": 8499,
    "when": 8500,
    "Ġashes": 8501,
    "Ġremo": 8502,
    "Ġremoving": 8503,
    "Ġdarkest": 8504,
    "Ġbuzzing": 8505,
    "Stret": 8506,
    "Stretch": 8507,
    "Ġstretches": 8508,
    "Ġfacts": 8509,
    "Ġwiser": 8510,
    "Ġhappenned": 8511,
    "ĠthisÃ¢": 8512,
    "Ġpersonality": 8513,
    "Ġuntangled": 8514,
    "Snail": 8515,
    "Ġcherished": 8516,
    "Ġinstin": 8517,
    "Ġinstincts": 8518,
    "Ġwisdom": 8519,
    "ĠGreat": 8520,
    "Ġcrowds": 8521,
    "Ġstrewn": 8522,
    "ĠBennyÃ¢": 8523,
    "ĠGently": 8524,
    "Ġsupr": 8525,
    "Ġsuprised": 8526,
    "Ġbedtime": 8527,
    "Ġmadder": 8528,
    "ĠAny": 8529,
    "ĠAnyone": 8530,
    "ÅĵWelcome": 8531,
    "Tiny": 8532,
    "Ġintention": 8533,
    "Ġwhil": 8534,
    "Ġwhilst": 8535,
    "Ġrud": 8536,
    "Ġrudely": 8537,
    "Ġmisbeh": 8538,
    "Ġmisbehave": 8539,
    "Ġsoftest": 8540,
    "Ġsilk": 8541,
    "Ġfaith": 8542,
    "Ġbroomstick": 8543,
    "BillyÃ¢": 8544,
    "Ġwarms": 8545,
    "Ġtimid": 8546,
    "ĠbehaveÃ¢": 8547,
    "Ġinspect": 8548,
    "Ġinspection": 8549,
    "ĠPro": 8550,
    "ĠProblem": 8551,
    "Ġsolutions": 8552,
    "Ġcommand": 8553,
    "Ġcommands": 8554,
    "Ġdemands": 8555,
    "Ġdistances": 8556,
    "Ġpositions": 8557,
    "Ġpresented": 8558,
    "Ġcondit": 8559,
    "Ġconditions": 8560,
    "Ġplayd": 8561,
    "Ġplaydate": 8562,
    "itÃ¢": 8563,
    "Ġadver": 8564,
    "Ġadvert": 8565,
    "Ġadvertise": 8566,
    "Ġadvertisement": 8567,
    "Ġ$": 8568,
    "10": 8569,
    "Ġrakes": 8570,
    "Ġmagnif": 8571,
    "Ġmagnifying": 8572,
    "Ġrained": 8573,
    "Ġtrainers": 8574,
    "Ġenerget": 8575,
    "Ġenergetic": 8576,
    "Ġbobbed": 8577,
    "Everywhere": 8578,
    "Ġdecrease": 8579,
    "Ġdecreased": 8580,
    "ĠImag": 8581,
    "ĠImagined": 8582,
    "Ġspades": 8583,
    "Ġleafy": 8584,
    "Ġstool": 8585,
    "Ġray": 8586,
    "Ġmarveling": 8587,
    "Ġpunches": 8588,
    "Ġdodge": 8589,
    "Ġupper": 8590,
    "Ġchor": 8591,
    "Ġchorus": 8592,
    "Ġchirps": 8593,
    "Russel": 8594,
    "ĠHang": 8595,
    "Ġwingbe": 8596,
    "Ġwingbeats": 8597,
    "Ġexperiencing": 8598,
    "ĠstrongÃ¢": 8599,
    "ĠplaceÃ¢": 8600,
    "far": 8601,
    "Ġoptions": 8602,
    "Ġform": 8603,
    "Ġmand": 8604,
    "Ġmandal": 8605,
    "Ġmandala": 8606,
    "Ġmoats": 8607,
    "Ġchatty": 8608,
    "Ġdinos": 8609,
    "Ġpanel": 8610,
    "Ġpanels": 8611,
    "Ġnailed": 8612,
    "Ġinvolving": 8613,
    "Ġweakest": 8614,
    "Pinky": 8615,
    "Becky": 8616,
    "Fort": 8617,
    "Fortunately": 8618,
    "Ġhips": 8619,
    "Ġunpacking": 8620,
    "Ġwinding": 8621,
    "Ġcontained": 8622,
    "ĠRight": 8623,
    "Ġdoe": 8624,
    "Ġfawn": 8625,
    "Ġfawns": 8626,
    "Ġawest": 8627,
    "Ġawestr": 8628,
    "Ġawestruck": 8629,
    "Gina": 8630,
    "Ġpuffy": 8631,
    "Ġjiggled": 8632,
    "Ġjiggly": 8633,
    "Ġhillt": 8634,
    "Ġhilltop": 8635,
    "Ġdescribe": 8636,
    "Ahhh": 8637,
    "!'<|": 8638,
    "Under": 8639,
    "ĠExcited": 8640,
    "Ġdeal": 8641,
    "Ġqual": 8642,
    "Ġquality": 8643,
    "Tow": 8644,
    "Towards": 8645,
    "Ġnapping": 8646,
    "ĠmayorÃ¢": 8647,
    "Ġplump": 8648,
    "Ġcroaked": 8649,
    "Ġlif": 8650,
    "Ġlifet": 8651,
    "Ġlifetime": 8652,
    "Ġprecise": 8653,
    "Ġjoyful": 8654,
    "Ġspee": 8655,
    "Ġspeech": 8656,
    "Ġspeechless": 8657,
    "Ġcolony": 8658,
    "Ġmoled": 8659,
    "Ġlittt": 8660,
    "Ġlitttle": 8661,
    "ĠLower": 8662,
    "Ġunwind": 8663,
    "Ġunwinding": 8664,
    "Ġlightly": 8665,
    "Ġbid": 8666,
    "Ġspoken": 8667,
    "Ġnapkins": 8668,
    "Ġtissues": 8669,
    "Ġscaled": 8670,
    "rd": 8671,
    "Ġglided": 8672,
    "Ġpec": 8673,
    "Ġpecul": 8674,
    "Ġpeculiar": 8675,
    "Ġsprout": 8676,
    "ĠWord": 8677,
    "Ġlung": 8678,
    "Hear": 8679,
    "Ġfondness": 8680,
    "Ġbelieving": 8681,
    "Ġclicking": 8682,
    "Ġmagc": 8683,
    "Ġmagcally": 8684,
    "Ġglimp": 8685,
    "Ġglimpse": 8686,
    "Ġsmelt": 8687,
    "Ġshops": 8688,
    "Ġbecomes": 8689,
    "Ġextre": 8690,
    "Ġextrem": 8691,
    "Ġextremely": 8692,
    "Ġinsepar": 8693,
    "Ġinseparable": 8694,
    "Fe": 8695,
    "Feel": 8696,
    "Feeling": 8697,
    "Ġwatchful": 8698,
    "Ġpopsicles": 8699,
    "Ġmicrow": 8700,
    "Ġmicrowave": 8701,
    "Ġick": 8702,
    "Ġicky": 8703,
    "Ġmeatballs": 8704,
    "ÅĵWhee": 8705,
    "Ġcentre": 8706,
    "Ġvisits": 8707,
    "Ġalley": 8708,
    "Ġalleyways": 8709,
    "Åĵv": 8710,
    "Åĵveterinarian": 8711,
    "ÅĵveterinarianÃ¢": 8712,
    "ĠSpotÃ¢": 8713,
    "Ġstallion": 8714,
    "Ġabso": 8715,
    "Ġabsol": 8716,
    "Ġabsolut": 8717,
    "Ġabsolutely": 8718,
    "Ġwidely": 8719,
    "Ġjugs": 8720,
    "Ġbirdsong": 8721,
    "Ġattics": 8722,
    "ĠMeriÃ¢": 8723,
    "Ġremark": 8724,
    "Ġremarkable": 8725,
    "Teasing": 8726,
    "Ġteas": 8727,
    "Ġteasier": 8728,
    "Ġteases": 8729,
    "Ġmirac": 8730,
    "Ġmiracle": 8731,
    "Ġvit": 8732,
    "Ġvitam": 8733,
    "Ġvitamins": 8734,
    "Ġminerals": 8735,
    "Ġslice": 8736,
    "Ġrack": 8737,
    "ĠDinner": 8738,
    "Ġdisappe": 8739,
    "Ġdisappearing": 8740,
    "special": 8741,
    "Ġadmit": 8742,
    "Ġtok": 8743,
    "Ġtokens": 8744,
    "Ġdef": 8745,
    "Ġdefin": 8746,
    "Ġdefinitely": 8747,
    "Ġmarker": 8748,
    "Ġtwists": 8749,
    "Skip": 8750,
    "Ġraising": 8751,
    "Hig": 8752,
    "Higher": 8753,
    "ĠSugar": 8754,
    "Ġunlucky": 8755,
    "ĠcatÃ¢": 8756,
    "Ġdreamland": 8757,
    "Ġbaskets": 8758,
    "Ġrash": 8759,
    "ĠLooking": 8760,
    "Ġspeck": 8761,
    "Ġshrank": 8762,
    "Ġentert": 8763,
    "Ġentertained": 8764,
    "Ġraw": 8765,
    "Ġgrump": 8766,
    "Ġgrumpiest": 8767,
    "ĠPhew": 8768,
    "Ġmeadows": 8769,
    "Ġmoonlight": 8770,
    "Ġyearning": 8771,
    "ĠLucyÃ¢": 8772,
    "Leticia": 8773,
    "Ġexamination": 8774,
    "Ġsunbur": 8775,
    "Ġsunburnt": 8776,
    "ĠTape": 8777,
    "Ġtighten": 8778,
    "Ġserm": 8779,
    "Ġsermon": 8780,
    "Ġcombined": 8781,
    "Ġdetour": 8782,
    "Ġchimneys": 8783,
    "Ġhuff": 8784,
    "Ġpoems": 8785,
    "Ġgrandf": 8786,
    "Ġgrandfather": 8787,
    "Ġcocoon": 8788,
    "Ġcocoons": 8789,
    "ĠBoats": 8790,
    "Nobody": 8791,
    "ĠStory": 8792,
    "Ġrobe": 8793,
    "Ġcanyon": 8794,
    "Ġtrek": 8795,
    "Ġtrekked": 8796,
    "Ġgrad": 8797,
    "Ġgradually": 8798,
    "Ġleading": 8799,
    "Ġendless": 8800,
    "Ġendlessly": 8801,
    "JohnÃ¢": 8802,
    "ÅĵNext": 8803,
    "ÅĵTake": 8804,
    "Ġrunnn": 8805,
    "Ġrunnning": 8806,
    "Ġdisap": 8807,
    "Ġdisapo": 8808,
    "Ġdisapointed": 8809,
    "Ġcircling": 8810,
    "Ġruler": 8811,
    "Ġchang": 8812,
    "Ġchanging": 8813,
    "Ġmeasures": 8814,
    "Ġtreas": 8815,
    "Ġtreasured": 8816,
    "Ġthaw": 8817,
    "Ġthawed": 8818,
    "Ġaid": 8819,
    "Ġsuppl": 8820,
    "Ġsupplied": 8821,
    "Ġhops": 8822,
    "Ġmember": 8823,
    "ĠTuesdays": 8824,
    "ĠWhatÃ¢": 8825,
    "Ġdep": 8826,
    "Ġdepth": 8827,
    "Ġdepths": 8828,
    "Ġdiscoveries": 8829,
    "Ġillum": 8830,
    "Ġillumin": 8831,
    "Ġilluminated": 8832,
    "Ġpeer": 8833,
    "Ġpeering": 8834,
    "Ġinsects": 8835,
    "Ġchunk": 8836,
    "Ġchunks": 8837,
    "Ġcanes": 8838,
    "Ġbanging": 8839,
    "Ġluxuries": 8840,
    "Ġunnec": 8841,
    "Ġunnecess": 8842,
    "Ġunnecessary": 8843,
    "Ġextrav": 8844,
    "Ġextravag": 8845,
    "Ġextravagance": 8846,
    "Ġsomeplace": 8847,
    "Ġpleas": 8848,
    "Ġpleasant": 8849,
    "Ġposition": 8850,
    "Ġdeciding": 8851,
    "ĠStr": 8852,
    "ĠStrong": 8853,
    "ĠCone": 8854,
    "ĠMo": 8855,
    "ĠMover": 8856,
    "Ġboarded": 8857,
    "ĠĠ": 8858,
    "ĠshrinkÃ¢": 8859,
    "Åĵfire": 8860,
    "Ġshrinker": 8861,
    "ĠshrinkerÃ¢": 8862,
    "Ġsnoozing": 8863,
    "Ġpopsicle": 8864,
    "Ġdived": 8865,
    "Ġeyeing": 8866,
    "Ġquarre": 8867,
    "Ġquarreled": 8868,
    "Snowy": 8869,
    "Ġcoz": 8870,
    "Ġcozier": 8871,
    "ĠBeaut": 8872,
    "ĠBeautiful": 8873,
    "Ġnerves": 8874,
    "Ġsuffering": 8875,
    "Ġnaps": 8876,
    "Ġgrandd": 8877,
    "Ġgranddaughter": 8878,
    "ĠThanks": 8879,
    "Ġmenus": 8880,
    "Ġdecoration": 8881,
    "Cleaning": 8882,
    "Ġpokes": 8883,
    "Moo": 8884,
    "Ġoink": 8885,
    "Ġbaa": 8886,
    "Ġbeams": 8887,
    "Eat": 8888,
    "Rice": 8889,
    "Ġignores": 8890,
    "ĠEat": 8891,
    "ĠSkipping": 8892,
    "ĠRun": 8893,
    "ĠRunning": 8894,
    "Ġawk": 8895,
    "Ġawkward": 8896,
    "Ġswimsuits": 8897,
    "Ġgogg": 8898,
    "Ġgoggles": 8899,
    "Ġdives": 8900,
    "Ġpoolside": 8901,
    "Ġpeels": 8902,
    "Ġwills": 8903,
    "Ġprotects": 8904,
    "Ġrepairing": 8905,
    "ĠExpl": 8906,
    "ĠExplain": 8907,
    "Ġdances": 8908,
    "Ap": 8909,
    "Apolog": 8910,
    "Apologize": 8911,
    "Ġallowance": 8912,
    "Ġcoop": 8913,
    "Ġrin": 8914,
    "Ġrinsed": 8915,
    "ĠHeaven": 8916,
    "Ġgrows": 8917,
    "Ġarched": 8918,
    "Ġswip": 8919,
    "Ġswiped": 8920,
    "Soup": 8921,
    "Ġrefu": 8922,
    "Ġrefuses": 8923,
    "Ġserver": 8924,
    "Mail": 8925,
    "Ġexplains": 8926,
    "ĠGrrr": 8927,
    "Ġsmug": 8928,
    "Ġboast": 8929,
    "Ġboastful": 8930,
    "Ġorders": 8931,
    "ĠCoo": 8932,
    "ĠCooking": 8933,
    "Ġthrone": 8934,
    "Ġpecks": 8935,
    "Ġpraise": 8936,
    "Ġsharer": 8937,
    "Ġapologiz": 8938,
    "Ġapologizer": 8939,
    "Lemonade": 8940,
    "Ġspitting": 8941,
    "Ġmatches": 8942,
    "Ġtubes": 8943,
    "ĠLoops": 8944,
    "ĠAchoo": 8945,
    "Ġstain": 8946,
    "Ġsniffles": 8947,
    "Ġrafts": 8948,
    "Ġknots": 8949,
    "Ġroots": 8950,
    "Ġpau": 8951,
    "Ġpauses": 8952,
    "ĠHa": 8953,
    "ĠHappy": 8954,
    "ĠZoom": 8955,
    "ĠLear": 8956,
    "ĠLearn": 8957,
    "Ġhu": 8958,
    "Ġhunts": 8959,
    "Ġcamping": 8960,
    "Ġflickered": 8961,
    "De": 8962,
    "Deal": 8963,
    "Ġswall": 8964,
    "Ġswallowed": 8965,
    "Books": 8966,
    "Fish": 8967,
    "Ġclothesl": 8968,
    "Ġclothesline": 8969,
    "Ġforgets": 8970,
    "Ġunwra": 8971,
    "Ġunwraps": 8972,
    "Bra": 8973,
    "Brav": 8974,
    "Bravo": 8975,
    "Ġbravo": 8976,
    "Ġrear": 8977,
    "Ġrearr": 8978,
    "Ġrearranged": 8979,
    "Ġvisitors": 8980,
    "ĠKnow": 8981,
    "ĠKnowing": 8982,
    "Ġguit": 8983,
    "Ġguitar": 8984,
    "Ġmusici": 8985,
    "Ġmusicians": 8986,
    "Ġnoses": 8987,
    "Ġyuck": 8988,
    "Ġrubbish": 8989,
    "TV": 8990,
    "Ġgiraff": 8991,
    "Ġgiraffes": 8992,
    "Ġclears": 8993,
    "Ġdepends": 8994,
    "Ġwisely": 8995,
    "Ġstirre": 8996,
    "Ġstirrer": 8997,
    "Dear": 8998,
    "Ġsized": 8999,
    "Ġrosy": 9000,
    "Nice": 9001,
    "Ġborrowing": 9002,
    "Ġobserv": 9003,
    "Ġobservant": 9004,
    "Ġnoticing": 9005,
    "Ġmeetings": 9006,
    "Ġinfected": 9007,
    "Ġpans": 9008,
    "Ġrealizing": 9009,
    "Ġdouble": 9010,
    "che": 9011,
    "check": 9012,
    "Ġsmiley": 9013,
    "Ġtowels": 9014,
    "Ġblobs": 9015,
    "Ġscrape": 9016,
    "Ġhumans": 9017,
    "Ġpoll": 9018,
    "Ġpollut": 9019,
    "Ġpolluting": 9020,
    "Ġprotection": 9021,
    "Ġlipstick": 9022,
    "Ġeyesh": 9023,
    "Ġeyeshadow": 9024,
    "ĠBaking": 9025,
    "Ġsha": 9026,
    "Ġshaved": 9027,
    "Ġtours": 9028,
    "Ġobtain": 9029,
    "Ġwebs": 9030,
    "Ġpotions": 9031,
    "Ġpicnics": 9032,
    "Ġperformers": 9033,
    "Ġsilverware": 9034,
    "Ġluxurious": 9035,
    "but": 9036,
    "Ġgross": 9037,
    "Ġfroggy": 9038,
    "Ġbananas": 9039,
    "Ġoun": 9040,
    "Ġounces": 9041,
    "Ġfinishing": 9042,
    "Ġaccomplish": 9043,
    "Ġdelivering": 9044,
    "Ġsuperheroes": 9045,
    "Ġprefere": 9046,
    "Ġpreferen": 9047,
    "Ġpreferences": 9048,
    "Ġconnects": 9049,
    "mill": 9050,
    "wheel": 9051,
    "flour": 9052,
    "wheat": 9053,
    "Ġwrit": 9054,
    "Ġwriter": 9055,
    "Shoo": 9056,
    "Sir": 9057,
    "Ġusually": 9058,
    "Ex": 9059,
    "Exit": 9060,
    "Ġtucks": 9061,
    "Sleep": 9062,
    "Ġaj": 9063,
    "Ġajar": 9064,
    "Ġsnores": 9065,
    "Ġcrackle": 9066,
    "Ġdisgusted": 9067,
    "Ġfunn": 9068,
    "Ġfunnier": 9069,
    "Ġsignature": 9070,
    "Pass": 9071,
    "Woof": 9072,
    "ĠWhis": 9073,
    "ĠWhisper": 9074,
    "Ġsipped": 9075,
    "mail": 9076,
    "Ġbeetles": 9077,
    "Ġsill": 9078,
    "Ġhangs": 9079,
    "Ġfetches": 9080,
    "Ġliking": 9081,
    "Ġscoo": 9082,
    "Ġscoops": 9083,
    "Sharing": 9084,
    "whee": 9085,
    "!'\"": 9086,
    "Ġpriv": 9087,
    "Ġprivate": 9088,
    "ĠBad": 9089,
    "Ġsinks": 9090,
    "Ġremains": 9091,
    "Ġdrains": 9092,
    "Ġrosem": 9093,
    "Ġrosemary": 9094,
    "Ġburns": 9095,
    "Ġbuzzes": 9096,
    "Ġmisses": 9097,
    "ĠFu": 9098,
    "ĠFuel": 9099,
    "Ġadjust": 9100,
    "Ġattacking": 9101,
    "Rrr": 9102,
    "Rrrr": 9103,
    "Ġene": 9104,
    "Ġenemy": 9105,
    "Ġdrawers": 9106,
    "Looks": 9107,
    "Ġsuspiciously": 9108,
    "Ġmock": 9109,
    "Ġmocking": 9110,
    "Ġsquawked": 9111,
    "Ġinit": 9112,
    "Ġinitial": 9113,
    "ĠMoe": 9114,
    "Moe": 9115,
    "Shap": 9116,
    "Shapes": 9117,
    "Ġcompliment": 9118,
    "ĠStill": 9119,
    "Ġclink": 9120,
    "Ġstreak": 9121,
    "East": 9122,
    "ĠFair": 9123,
    "ĠFun": 9124,
    "Ġbooth": 9125,
    "Ġsells": 9126,
    "ĠEast": 9127,
    "ĠWest": 9128,
    "Ġworst": 9129,
    "Ġsprays": 9130,
    "Ġreleases": 9131,
    "Ġburp": 9132,
    "Ġburps": 9133,
    "ĠRep": 9134,
    "ĠRepeat": 9135,
    "Ġmostly": 9136,
    "ĠTrust": 9137,
    "Mister": 9138,
    "Ġbruise": 9139,
    "Fighting": 9140,
    "Count": 9141,
    "ĠAdd": 9142,
    "Kn": 9143,
    "Knock": 9144,
    "Ġthimb": 9145,
    "Ġthimble": 9146,
    "Ġbuckles": 9147,
    "ĠClimb": 9148,
    "ĠClimbing": 9149,
    "ĠShare": 9150,
    "Ġannoying": 9151,
    "Un": 9152,
    "Unite": 9153,
    "Ġbuds": 9154,
    "Ġfoo": 9155,
    "Ġfooled": 9156,
    "Ġbuttery": 9157,
    "Beware": 9158,
    "ĠBull": 9159,
    "Ġmoo": 9160,
    "Ġjoystick": 9161,
    "ĠY": 9162,
    "ĠYog": 9163,
    "ĠYoga": 9164,
    "Ġloaf": 9165,
    "Ġtoaster": 9166,
    "Wake": 9167,
    "Ġdesigning": 9168,
    "Ġscribbled": 9169,
    "Ġsquigg": 9170,
    "Ġsquiggles": 9171,
    "Ġlevers": 9172,
    "Ġwhirr": 9173,
    "Ġding": 9174,
    "Ġignition": 9175,
    "Ġbackward": 9176,
    "Ġscree": 9177,
    "Ġscreech": 9178,
    "Ġscolds": 9179,
    "Ġfavorites": 9180,
    "Ġkeeper": 9181,
    "ĠSpl": 9182,
    "ĠSplash": 9183,
    "Ġeras": 9184,
    "Ġerasers": 9185,
    "Ġsmartest": 9186,
    "Ġunlo": 9187,
    "Ġunloaded": 9188,
    "Ġangels": 9189,
    "Boney": 9190,
    "ĠBoney": 9191,
    "Ġviolins": 9192,
    "Bongo": 9193,
    "Ġseats": 9194,
    "Ġhomework": 9195,
    "Ġspelling": 9196,
    "Ġstudent": 9197,
    "Ġ5": 9198,
    "Ġ50": 9199,
    "Ġcompart": 9200,
    "Ġcompartment": 9201,
    "Ġdescribed": 9202,
    "Ġvacations": 9203,
    "Ġsquished": 9204,
    "Ġpancake": 9205,
    "Ġjud": 9206,
    "Ġjudges": 9207,
    "Ġvegg": 9208,
    "Ġveggies": 9209,
    "Ġsigning": 9210,
    "Ġcutest": 9211,
    "Ġenerg": 9212,
    "Ġenergized": 9213,
    "Though": 9214,
    "For": 9215,
    "Ġoutdoor": 9216,
    "Ġshaped": 9217,
    "Counting": 9218,
    "Ġsloppy": 9219,
    "Ġscrap": 9220,
    "Ġric": 9221,
    "Ġricher": 9222,
    "Ġrestful": 9223,
    "Ġfuzz": 9224,
    "Ġfuzzier": 9225,
    "Ġtrans": 9226,
    "Ġtransf": 9227,
    "Ġtransform": 9228,
    "Bel": 9229,
    "Below": 9230,
    "Ġimaginary": 9231,
    "Ġpeep": 9232,
    "Ġpeeped": 9233,
    "Ġcolum": 9234,
    "Ġcolumn": 9235,
    "Ġcolumns": 9236,
    "Faster": 9237,
    "Everyday": 9238,
    "Ġspikey": 9239,
    "Ġleaping": 9240,
    "Ġripen": 9241,
    "Ġchomp": 9242,
    "Ġchomping": 9243,
    "Ġmunching": 9244,
    "Ġbold": 9245,
    "ĠSitting": 9246,
    "Ġspoiling": 9247,
    "Ġfavourites": 9248,
    "ĠHours": 9249,
    "haired": 9250,
    "Ġscootering": 9251,
    "Ġscootered": 9252,
    "Ġstretchy": 9253,
    "Ġfancying": 9254,
    "Ġpy": 9255,
    "Ġpyjamas": 9256,
    "Ġlotions": 9257,
    "Ġtextures": 9258,
    "Tomorrow": 9259,
    "Ġstead": 9260,
    "Ġsteadily": 9261,
    "Ġmarks": 9262,
    "ĠYay": 9263,
    "ĠNever": 9264,
    "Ġhundreds": 9265,
    "Ġgown": 9266,
    "Ġcontented": 9267,
    "Ġcontentedly": 9268,
    "Ġglittering": 9269,
    "Ġbanks": 9270,
    "Ġthump": 9271,
    "Ġcasting": 9272,
    "Ġcanyons": 9273,
    "Ġsandy": 9274,
    "Ġbeachs": 9275,
    "Ġglac": 9276,
    "Ġglaciers": 9277,
    "Paige": 9278,
    "Cynthia": 9279,
    "Ġimaginable": 9280,
    "Ġviv": 9281,
    "Ġvivid": 9282,
    "Ġcopying": 9283,
    "Ġvoy": 9284,
    "Ġvoyage": 9285,
    "Ġbackground": 9286,
    "Ġcuc": 9287,
    "Ġcucumbers": 9288,
    "Ġbrow": 9289,
    "Ġbrowsed": 9290,
    "!,\"": 9291,
    "Ġsprinkling": 9292,
    "Ġuncovering": 9293,
    "ĠWash": 9294,
    "Ġvacu": 9295,
    "Ġvacuum": 9296,
    "Ġfloors": 9297,
    "Ġtops": 9298,
    "Ġlakes": 9299,
    "Ġelsewhere": 9300,
    "Along": 9301,
    "Ġsnipped": 9302,
    "Ġcarving": 9303,
    "Ġgoo": 9304,
    "Ġgooey": 9305,
    "Ġcapture": 9306,
    "Ġunnot": 9307,
    "Ġunnoticed": 9308,
    "Ġcareening": 9309,
    "Ġculp": 9310,
    "Ġculpr": 9311,
    "Ġculprit": 9312,
    "Ġalthough": 9313,
    "ĠSpots": 9314,
    "Ġtinged": 9315,
    "Ġimage": 9316,
    "Ġbusily": 9317,
    "ĠSus": 9318,
    "ĠSusan": 9319,
    "Ġlab": 9320,
    "Ġpeered": 9321,
    "Ġchatting": 9322,
    "Ġscratching": 9323,
    "Ġench": 9324,
    "Ġenchanted": 9325,
    "ĠUnderneath": 9326,
    "ĠFarther": 9327,
    "Ġfarther": 9328,
    "Ġrider": 9329,
    "Ġgod": 9330,
    "Ġstands": 9331,
    "Ġgear": 9332,
    "Ġsprin": 9333,
    "Ġsprinked": 9334,
    "Ġsmoosh": 9335,
    "Ġsmooshy": 9336,
    "Robbie": 9337,
    "Ġcompleting": 9338,
    "Sun": 9339,
    "ĠCloud": 9340,
    "Eating": 9341,
    "Ġhearty": 9342,
    "Ġrequire": 9343,
    "Ġrequirement": 9344,
    "ĠbarberÃ¢": 9345,
    "Ġwax": 9346,
    "ĠLife": 9347,
    "Ġplugged": 9348,
    "Ġsecured": 9349,
    "Ġintern": 9350,
    "Ġinternet": 9351,
    "Ġworrying": 9352,
    "Ġbless": 9353,
    "Ġblessings": 9354,
    "Ġpuffing": 9355,
    "ĠPain": 9356,
    "ĠPainting": 9357,
    "Ġlowered": 9358,
    "Ġitching": 9359,
    "Ġjing": 9360,
    "Ġjingling": 9361,
    "Ġclothing": 9362,
    "Ġunple": 9363,
    "Ġunpleas": 9364,
    "Ġunpleasantly": 9365,
    "Ġbeeping": 9366,
    "eyed": 9367,
    "Ġflurry": 9368,
    "Ġmovement": 9369,
    "Ġwit": 9370,
    "Ġwitness": 9371,
    "Ġwitnessed": 9372,
    "Ġtightness": 9373,
    "Ġpail": 9374,
    "Sounds": 9375,
    "Ġwarming": 9376,
    "Ġthreads": 9377,
    "Ġrejoicing": 9378,
    "Ġexchange": 9379,
    "Ġopport": 9380,
    "Ġopportun": 9381,
    "Ġopportunistic": 9382,
    "Ġfeasted": 9383,
    "Sec": 9384,
    "Second": 9385,
    "Ġspotting": 9386,
    "Ġwires": 9387,
    "Ġjumbled": 9388,
    "Ġsizz": 9389,
    "Ġsizzle": 9390,
    "Ġsimmer": 9391,
    "Ġclosing": 9392,
    "Ġfillings": 9393,
    "Ġtoughest": 9394,
    "ĠPee": 9395,
    "ĠPeeking": 9396,
    "ĠDonÃ¢": 9397,
    "Ġuntangle": 9398,
    "sm": 9399,
    "smell": 9400,
    "smelling": 9401,
    "Ġoffic": 9402,
    "Ġoffici": 9403,
    "Ġofficially": 9404,
    "Ġgrounds": 9405,
    "Ġwhoo": 9406,
    "Ġwhooshed": 9407,
    "Ġshuff": 9408,
    "Ġshuffled": 9409,
    "ĠandJim": 9410,
    "Law": 9411,
    "Lawyer": 9412,
    "Ġapproved": 9413,
    "Ġquieter": 9414,
    "ĠRel": 9415,
    "ĠRelax": 9416,
    "ĠRelaxing": 9417,
    "Ġfoc": 9418,
    "Ġfocused": 9419,
    "Ġgri": 9420,
    "Ġgripped": 9421,
    "Ġsweeping": 9422,
    "Ġunpackin": 9423,
    "Ġunpackinng": 9424,
    "Ġtill": 9425,
    "Ġregre": 9426,
    "Ġregreted": 9427,
    "Luck": 9428,
    "Luckly": 9429,
    "Ġslithering": 9430,
    "Ġwrigg": 9431,
    "Ġwriggled": 9432,
    "Ġarch": 9433,
    "Ġnightmares": 9434,
    "Ġroam": 9435,
    "Ġroaming": 9436,
    "ĠGoodnight": 9437,
    "Ġbruises": 9438,
    "Ġtags": 9439,
    "Ġaisles": 9440,
    "ĠLizzieÃ¢": 9441,
    "Ġquarreling": 9442,
    "Ġpeacefulness": 9443,
    "ĠAmaz": 9444,
    "ĠAmazing": 9445,
    "ĠAmazingly": 9446,
    "Ġbathed": 9447,
    "Ġbobbing": 9448,
    "Ġencourage": 9449,
    "Pete": 9450,
    "Ġgentlly": 9451,
    "Jojo": 9452,
    "Ġfigures": 9453,
    "Ġdoughn": 9454,
    "Ġdoughnuts": 9455,
    "Ġcano": 9456,
    "Ġcanoes": 9457,
    "Ġmonth": 9458,
    "ĠExcitement": 9459,
    "Ġbeaming": 9460,
    "Nope": 9461,
    "Ġpins": 9462,
    "Ġplush": 9463,
    "Ġachy": 9464,
    "Pancake": 9465,
    "Ġcompar": 9466,
    "Ġcomparison": 9467,
    "Ġcurl": 9468,
    "?'.": 9469,
    "Ġfiguring": 9470,
    "Ġparades": 9471,
    "Ġclosets": 9472,
    "Ġcurves": 9473,
    "Ġaro": 9474,
    "Ġarose": 9475,
    "Cl": 9476,
    "Close": 9477,
    "Ġskelet": 9478,
    "Ġskeletons": 9479,
    "Ġrib": 9480,
    "Ġoutst": 9481,
    "Ġoutstret": 9482,
    "Ġoutstretched": 9483,
    "Ġrustle": 9484,
    "Ġcaram": 9485,
    "Ġcaramel": 9486,
    "Ġbedsp": 9487,
    "Ġbedspread": 9488,
    "Ġpatterned": 9489,
    "Ġformed": 9490,
    "Ġdesser": 9491,
    "Ġdesserts": 9492,
    "ĠHelping": 9493,
    "ĠCats": 9494,
    "Ġniece": 9495,
    "Ġnep": 9496,
    "Ġnephew": 9497,
    "Ġjoked": 9498,
    "Whiskers": 9499,
    "Ġskirts": 9500,
    "Cow": 9501,
    "Ġvines": 9502,
    "Wave": 9503,
    "Bunny": 9504,
    "Ġsteamy": 9505,
    "Ġdemanding": 9506,
    "Ġconfl": 9507,
    "Ġconflict": 9508,
    "Spe": 9509,
    "Speedy": 9510,
    "Ġbeaks": 9511,
    "Ġstructures": 9512,
    "Ġwoken": 9513,
    "Ġhates": 9514,
    "Ġcooled": 9515,
    "Ġicing": 9516,
    "Ġsqueal": 9517,
    "Piper": 9518,
    "Ġdifficul": 9519,
    "Ġdifficulty": 9520,
    "Ġmarvelled": 9521,
    "Suzie": 9522,
    "Ġoccasionally": 9523,
    "can": 9524,
    "Ġimaginative": 9525,
    "Ġmarking": 9526,
    "Ġnighttime": 9527,
    "Dis": 9528,
    "Diso": 9529,
    "Disobe": 9530,
    "Disobeying": 9531,
    "Ġrewards": 9532,
    "Ġstash": 9533,
    "Ġtempting": 9534,
    "Ġpoisonous": 9535,
    "Ġshortly": 9536,
    "Ġcatchy": 9537,
    "Ġthankfully": 9538,
    "Ġwhooping": 9539,
    "Ġpersu": 9540,
    "Ġpersuas": 9541,
    "Ġpersuasive": 9542,
    "Ġoar": 9543,
    "Ġallowing": 9544,
    "Ġresisted": 9545,
    "Ġyawns": 9546,
    "Ġdism": 9547,
    "Ġdismissed": 9548,
    "Ġdirectly": 9549,
    "ĠPerhaps": 9550,
    "ĠBobÃ¢": 9551,
    "ĠFor": 9552,
    "Ġdeepest": 9553,
    "Ġoffering": 9554,
    "Ġreadily": 9555,
    "Ġyelp": 9556,
    "ĠBars": 9557,
    "Ġbadges": 9558,
    "Ġrealising": 9559,
    "Ġpens": 9560,
    "Ġet": 9561,
    "Ġetc": 9562,
    "Ġthorn": 9563,
    "Ġthorns": 9564,
    "hearted": 9565,
    "Ġblown": 9566,
    "!\".<|": 9567,
    "Ġislands": 9568,
    "Ġproviding": 9569,
    "then": 9570,
    "Ġbreakth": 9571,
    "Ġbreakthr": 9572,
    "Ġbreakthrough": 9573,
    "Ġfestivals": 9574,
    "Ġcloudless": 9575,
    "Ġcance": 9576,
    "Ġcancel": 9577,
    "Ġscowled": 9578,
    "Ġouts": 9579,
    "Ġoutsiders": 9580,
    "---": 9581,
    "---\"": 9582,
    "Ġjobs": 9583,
    "Ġgrasp": 9584,
    "Ġgrasped": 9585,
    "Ġswirling": 9586,
    "Ġcarpets": 9587,
    "Ġcontests": 9588,
    "Ġposed": 9589,
    "Frankie": 9590,
    "Ġbased": 9591,
    "ĠFrankie": 9592,
    "ĠUnk": 9593,
    "ĠUnknown": 9594,
    "ĠMeanwhile": 9595,
    "Ġmended": 9596,
    "Ġdiscou": 9597,
    "Ġdiscouraged": 9598,
    "Ġtend": 9599,
    "Ġtender": 9600,
    "Ġswans": 9601,
    "Ġbene": 9602,
    "Ġbenefic": 9603,
    "Ġbeneficial": 9604,
    "ĠHad": 9605,
    "Ġopinion": 9606,
    "Ġcommunity": 9607,
    "Ġbits": 9608,
    "Ġdrifting": 9609,
    "Ġcrumble": 9610,
    "Ġcrumbling": 9611,
    "Ġsnug": 9612,
    "Ġinevitable": 9613,
    "ĠPr": 9614,
    "ĠPrin": 9615,
    "ĠPrincess": 9616,
    "Ellie": 9617,
    "shi": 9618,
    "shift": 9619,
    "shifting": 9620,
    "Ġpays": 9621,
    "magic": 9622,
    "Marc": 9623,
    "Ġvaluing": 9624,
    "ĠCould": 9625,
    "Ġstylish": 9626,
    "Ġpurples": 9627,
    "Ġblues": 9628,
    "Ġtraver": 9629,
    "Ġtraversed": 9630,
    "Ġwre": 9631,
    "Ġwrecked": 9632,
    "Ġraging": 9633,
    "Nathan": 9634,
    "Ġabide": 9635,
    "Ġfishes": 9636,
    "Ġreefs": 9637,
    "Ġrestoring": 9638,
    "Maple": 9639,
    "Ġrestored": 9640,
    "Ġscowling": 9641,
    "Ġfoamed": 9642,
    "ÅĵHave": 9643,
    "Ġstarving": 9644,
    "Ġgrate": 9645,
    "Ġgratefully": 9646,
    "Ġbirdies": 9647,
    "ĠthenÃ¢": 9648,
    "âĤ¬Â": 9649,
    "âĤ¬Â¦": 9650,
    "Ġwaver": 9651,
    "Ġlighting": 9652,
    "Ġsweeter": 9653,
    "Beside": 9654,
    "Ġwetter": 9655,
    "ÅĵHelp": 9656,
    "Ġchords": 9657,
    "Ġbelief": 9658,
    "Sad": 9659,
    "Ġwhose": 9660,
    "Ġconcentr": 9661,
    "Ġconcentrating": 9662,
    "Ġseasoning": 9663,
    "Ġspice": 9664,
    "Ġloses": 9665,
    "Ġreapp": 9666,
    "Ġreappeared": 9667,
    "Riley": 9668,
    "Ġwhizz": 9669,
    "Ġwhizzed": 9670,
    "Ġentries": 9671,
    "Ġprizes": 9672,
    "Ġslurp": 9673,
    "Ġslurped": 9674,
    "Ġsquin": 9675,
    "Ġsquinting": 9676,
    "Ġdistre": 9677,
    "Ġdistressed": 9678,
    "ĠKatie": 9679,
    "Ġretri": 9680,
    "Ġretrieve": 9681,
    "Ġrescued": 9682,
    "Ġentertain": 9683,
    "ĠThankfully": 9684,
    "Ġcarton": 9685,
    "Mabel": 9686,
    "Ġdangled": 9687,
    "Ġbookshel": 9688,
    "Ġbookshelves": 9689,
    "Ġanyways": 9690,
    "Ġcrops": 9691,
    "Ġshor": 9692,
    "Ġshorter": 9693,
    "ĠWeÃ¢": 9694,
    "Ġsuffers": 9695,
    "ĠToad": 9696,
    "ĠFrog": 9697,
    "Sol": 9698,
    "Ġimprovement": 9699,
    "Ġtraveling": 9700,
    "Ġspew": 9701,
    "Ġspewing": 9702,
    "Ġglared": 9703,
    "Ġweakening": 9704,
    "Surpr": 9705,
    "Surprise": 9706,
    "ĠNight": 9707,
    "ĠNightmare": 9708,
    "ĠNightmares": 9709,
    "Ġglinted": 9710,
    "Ġworker": 9711,
    "Furry": 9712,
    "Ġresour": 9713,
    "Ġresource": 9714,
    "Ġresourceful": 9715,
    "Ġlace": 9716,
    "ĠSteveÃ¢": 9717,
    "Ġmaterial": 9718,
    "Ġcrushed": 9719,
    "Up": 9720,
    "Yep": 9721,
    "Ġwhack": 9722,
    "Ġwhacking": 9723,
    "Ġskates": 9724,
    "Ġsighing": 9725,
    "Ġtucking": 9726,
    "Ġwilled": 9727,
    "Ġmusical": 9728,
    "Ġmelody": 9729,
    "Ġmaster": 9730,
    "ĠMummyÃ¢": 9731,
    "Ġbullets": 9732,
    "Boys": 9733,
    "ĠDeterm": 9734,
    "ĠDetermined": 9735,
    "Ġserving": 9736,
    "ĠTrees": 9737,
    "Ġtrud": 9738,
    "Ġtrudged": 9739,
    "Ġsob": 9740,
    "Ġsobs": 9741,
    "Ġjourneyed": 9742,
    "Matty": 9743,
    "ÅĵThose": 9744,
    "ĠLuce": 9745,
    "Ġroughly": 9746,
    "Ġconsequence": 9747,
    "Ġelders": 9748,
    "Ġhesitate": 9749,
    "Still": 9750,
    "Ġstock": 9751,
    "Ġchos": 9752,
    "Ġchosen": 9753,
    "Ġpricked": 9754,
    "Ġobserved": 9755,
    "Ġblooming": 9756,
    "Ġhallways": 9757,
    "Ġstairways": 9758,
    "Ġportra": 9759,
    "Ġportraits": 9760,
    "Ġtapest": 9761,
    "Ġtapestries": 9762,
    "Ġhighly": 9763,
    "Ġshim": 9764,
    "Ġshimmered": 9765,
    "Ġunlocking": 9766,
    "ÅĵHe": 9767,
    "the": 9768,
    "fair": 9769,
    "Ġflavour": 9770,
    "Ġframes": 9771,
    "Ġslowed": 9772,
    "Ġharmony": 9773,
    "Ġshowers": 9774,
    "Ġhurriedly": 9775,
    "Ġprevented": 9776,
    "Ġrumm": 9777,
    "Ġrummag": 9778,
    "Ġrummaged": 9779,
    "Ġgeneros": 9780,
    "Ġgenerosity": 9781,
    "Ġroyal": 9782,
    "Ġancest": 9783,
    "Ġancestors": 9784,
    "Ġheavens": 9785,
    "Ġmittens": 9786,
    "Ġstyling": 9787,
    "Whatever": 9788,
    "ĠisnÃ¢": 9789,
    "ĠappleÃ¢": 9790,
    "ĠEsp": 9791,
    "ĠEspecially": 9792,
    "ÅĵA": 9793,
    "Ġcorre": 9794,
    "Ġcorrect": 9795,
    "Ġknowledgeable": 9796,
    "Ġaband": 9797,
    "Ġabandon": 9798,
    "Ġabandoned": 9799,
    "Ġruins": 9800,
    "Ġrocking": 9801,
    "Ġsooner": 9802,
    "Ġhissing": 9803,
    "Ġrese": 9804,
    "Ġresear": 9805,
    "Ġresearch": 9806,
    "Suc": 9807,
    "Success": 9808,
    "ĠTest": 9809,
    "Ġconnecting": 9810,
    "Ġvendors": 9811,
    "Ġspringtime": 9812,
    "Ġapplauding": 9813,
    "Ġful": 9814,
    "Ġfulf": 9815,
    "Ġfulfill": 9816,
    "Ġbegging": 9817,
    "ĠExcess": 9818,
    "ĠExcessive": 9819,
    "Ġpitter": 9820,
    "patter": 9821,
    "Ġraind": 9822,
    "Ġraindro": 9823,
    "Ġraindrops": 9824,
    "Ġhedgeh": 9825,
    "Ġhedgehog": 9826,
    "Ġmut": 9827,
    "Ġmutter": 9828,
    "Ġmuttered": 9829,
    "Ġrescu": 9830,
    "Ġrescuer": 9831,
    "Karen": 9832,
    "Ġlookout": 9833,
    "Teac": 9834,
    "Teacher": 9835,
    "ĠNone": 9836,
    "Ġsprayer": 9837,
    "Ġruffled": 9838,
    "Ġdrill": 9839,
    "Ġdrills": 9840,
    "along": 9841,
    "Ġexamp": 9842,
    "Ġexample": 9843,
    "Ġlocations": 9844,
    "Ġcalmy": 9845,
    "Ġcalmyou": 9846,
    "Ġhorror": 9847,
    "Ġinsp": 9848,
    "Ġinspired": 9849,
    "Ġchances": 9850,
    "Ġhooves": 9851,
    "Ġsouls": 9852,
    "Ġcleare": 9853,
    "Ġclearest": 9854,
    "Ġmasterp": 9855,
    "Ġmasterpiece": 9856,
    "Ġconso": 9857,
    "Ġconsole": 9858,
    "Ġforesh": 9859,
    "Ġforeshadow": 9860,
    "Ġforeshadowed": 9861,
    "Ġinevitably": 9862,
    "Ġdearly": 9863,
    "Ġruff": 9864,
    "Ġruffling": 9865,
    "ĠPar": 9866,
    "ĠParrot": 9867,
    "ĠIsland": 9868,
    "Ġsprinkled": 9869,
    "Ġjustice": 9870,
    "Ġobedience": 9871,
    "Ġwanna": 9872,
    "Ġclutched": 9873,
    "Ġsen": 9874,
    "Ġsensed": 9875,
    "Ġwidth": 9876,
    "Ġmeasurement": 9877,
    "Ġmeasurements": 9878,
    "Ġstarred": 9879,
    "Ġembra": 9880,
    "Ġembraced": 9881,
    "Ġcreep": 9882,
    "Ġcreepy": 9883,
    "Ġcrawly": 9884,
    "Ahchoo": 9885,
    "Ġgleam": 9886,
    "Ġminds": 9887,
    "Ġcereals": 9888,
    "Outside": 9889,
    "Ġadmitted": 9890,
    "ĠowlÃ¢": 9891,
    "Ġadmiringly": 9892,
    "Ġmea": 9893,
    "Ġmeandered": 9894,
    "Ġshovels": 9895,
    "Ġbathing": 9896,
    "Ġtiles": 9897,
    "Ġproject": 9898,
    "Ġhammering": 9899,
    "Ġbumping": 9900,
    "ĠdoctorÃ¢": 9901,
    "Ġcheckup": 9902,
    "ÅĵStay": 9903,
    "Ġtutu": 9904,
    "Ġfrilly": 9905,
    "Ġorganised": 9906,
    "Ġlaze": 9907,
    "Ġamused": 9908,
    "Right": 9909,
    "LetÃ¢": 9910,
    "Ġconvinced": 9911,
    "Ġkeyh": 9912,
    "Ġkeyhole": 9913,
    "Ġtopp": 9914,
    "Ġtoppings": 9915,
    "Ġwinners": 9916,
    "ĠCaut": 9917,
    "ĠCautiously": 9918,
    "ÅĵListen": 9919,
    "ÅĵThe": 9920,
    "Ġunison": 9921,
    "Johnny": 9922,
    "Ġess": 9923,
    "Ġessent": 9924,
    "Ġessential": 9925,
    "Ġdisappoin": 9926,
    "Ġdisappoint": 9927,
    "Ġdisappointment": 9928,
    "Ġaware": 9929,
    "ĠSunny": 9930,
    "ĠDVDs": 9931,
    "Ġtit": 9932,
    "Ġtitles": 9933,
    "ÅĵWhereÃ¢": 9934,
    "ÅĵDonÃ¢": 9935,
    "ÅĵEverything": 9936,
    "Ġalongside": 9937,
    "Ġdisgu": 9938,
    "Ġdisguising": 9939,
    "Ġtrund": 9940,
    "Ġtrundled": 9941,
    "Ġgulped": 9942,
    "Ġblueb": 9943,
    "Ġbluebird": 9944,
    "Ġintru": 9945,
    "Ġintrud": 9946,
    "Ġintruders": 9947,
    "Ġpeeking": 9948,
    "ĠaskingÃ¢": 9949,
    "Ġund": 9950,
    "Ġundress": 9951,
    "Ġfoam": 9952,
    "Ġtying": 9953,
    "Marks": 9954,
    "Start": 9955,
    "Startled": 9956,
    "Ġinvolve": 9957,
    "Ġscen": 9958,
    "Ġscenery": 9959,
    "listen": 9960,
    "Ġclosest": 9961,
    "don": 9962,
    "ĠHope": 9963,
    "Åĵyou": 9964,
    "Åĵwell": 9965,
    "Ġsupporting": 9966,
    "Ġsuspicious": 9967,
    "Ġwithin": 9968,
    "ĠoutÃ¢": 9969,
    "ÅĵSometimes": 9970,
    "ĠDadÃ¢": 9971,
    "Ġwildl": 9972,
    "Ġwildlife": 9973,
    "ĠMin": 9974,
    "ĠMinut": 9975,
    "ĠMinutes": 9976,
    "Ġharv": 9977,
    "Ġharvest": 9978,
    "ĠsinkÃ¢": 9979,
    "Ġcenter": 9980,
    "Ġrecognised": 9981,
    "Ġdonkey": 9982,
    "Pam": 9983,
    "Ġquickened": 9984,
    "Ġpace": 9985,
    "Ġhesitation": 9986,
    "ĠBoun": 9987,
    "ĠBounce": 9988,
[...]
