{
  "version": "1.0",
  "truncation": null,
  "padding": null,
  "added_tokens": [
    {
      "id": 0,
      "content": "<PAD>",
      "single_word": false,
      "lstrip": false,
      "rstrip": false,
      "normalized": false,
      "special": true
    },
    {
      "id": 1,
      "content": "<UNK>",
      "single_word": false,
      "lstrip": false,
      "rstrip": false,
      "normalized": false,
      "special": true
    },
    {
      "id": 2,
      "content": "<BOS>",
      "single_word": false,
      "lstrip": false,
      "rstrip": false,
      "normalized": false,
      "special": true
    },
    {
      "id": 3,
      "content": "<EOS>",
      "single_word": false,
      "lstrip": false,
      "rstrip": false,
      "normalized": false,
      "special": true
    }
  ],
  "normalizer": null,
  "pre_tokenizer": {
    "type": "Whitespace"
  },
  "post_processor": null,
  "decoder": null,
  "model": {
    "type": "BPE",
    "dropout": null,
    "unk_token": "<UNK>",
    "continuing_subword_prefix": null,
    "end_of_word_suffix": null,
    "fuse_unk": false,
    "byte_fallback": false,
    "ignore_merges": false,
    "vocab": {
      "<PAD>": 0,
      "<UNK>": 1,
      "<BOS>": 2,
      "<EOS>": 3,
      "\u0001": 4,
      "\u001b": 5,
      "!": 6,
      "\"": 7,
      "#": 8,
      "$": 9,
      "%": 10,
      "&": 11,
      "'": 12,
      "(": 13,
      ")": 14,
      "*": 15,
      "+": 16,
      ",": 17,
      "-": 18,
      ".": 19,
      "/": 20,
      "0": 21,
      "1": 22,
      "2": 23,
      "3": 24,
      "4": 25,
      "5": 26,
      "6": 27,
      "7": 28,
      "8": 29,
      "9": 30,
      ":": 31,
      ";": 32,
      "<": 33,
      "=": 34,
      ">": 35,
      "?": 36,
      "@": 37,
      "A": 38,
      "B": 39,
      "C": 40,
      "D": 41,
      "E": 42,
      "F": 43,
      "G": 44,
      "H": 45,
      "I": 46,
      "J": 47,
      "K": 48,
      "L": 49,
      "M": 50,
      "N": 51,
      "O": 52,
      "P": 53,
      "Q": 54,
      "R": 55,
      "S": 56,
      "T": 57,
      "U": 58,
      "V": 59,
      "W": 60,
      "X": 61,
      "Y": 62,
      "Z": 63,
      "[": 64,
      "\\": 65,
      "]": 66,
      "^": 67,
      "_": 68,
      "`": 69,
      "a": 70,
      "b": 71,
      "c": 72,
      "d": 73,
      "e": 74,
      "f": 75,
      "g": 76,
      "h": 77,
      "i": 78,
      "j": 79,
      "k": 80,
      "l": 81,
      "m": 82,
      "n": 83,
      "o": 84,
      "p": 85,
      "q": 86,
      "r": 87,
      "s": 88,
      "t": 89,
      "u": 90,
      "v": 91,
      "w": 92,
      "x": 93,
      "y": 94,
      "z": 95,
      "{": 96,
      "|": 97,
      "}": 98,
      "~": 99,
      "¡": 100,
      "¢": 101,
      "£": 102,
      "¤": 103,
      "¥": 104,
      "¦": 105,
      "§": 106,
      "¨": 107,
      "©": 108,
      "ª": 109,
      "«": 110,
      "¬": 111,
      "­": 112,
      "®": 113,
      "¯": 114,
      "°": 115,
      "±": 116,
      "²": 117,
      "³": 118,
      "´": 119,
      "µ": 120,
      "¶": 121,
      "·": 122,
      "¸": 123,
      "¹": 124,
      "º": 125,
      "»": 126,
      "¼": 127,
      "½": 128,
      "¾": 129,
      "¿": 130,
      "Â": 131,
      "Ã": 132,
      "Ä": 133,
      "Å": 134,
      "È": 135,
      "É": 136,
      "Ê": 137,
      "Ì": 138,
      "Ñ": 139,
      "Ò": 140,
      "á": 141,
      "â": 142,
      "ã": 143,
      "ä": 144,
      "å": 145,
      "æ": 146,
      "ç": 147,
      "è": 148,
      "é": 149,
      "î": 150,
      "ï": 151,
      "ð": 152,
      "ñ": 153,
      "Ł": 154,
      "Œ": 155,
      "œ": 156,
      "Ś": 157,
      "Š": 158,
      "š": 159,
      "Ÿ": 160,
      "Ž": 161,
      "ž": 162,
      "ƒ": 163,
      "˂": 164,
      "˃": 165,
      "ˆ": 166,
      "˜": 167,
      "β": 168,
      "П": 169,
      "С": 170,
      "а": 171,
      "в": 172,
      "е": 173,
      "и": 174,
      "н": 175,
      "п": 176,
      "р": 177,
      "т": 178,
      "і": 179,
      "–": 180,
      "‘": 181,
      "’": 182,
      "‚": 183,
      "“": 184,
      "”": 185,
      "„": 186,
      "†": 187,
      "‡": 188,
      "•": 189,
      "…": 190,
      "‰": 191,
      "‹": 192,
      "›": 193,
      "€": 194,
      "™": 195,
      "→": 196,
      "⌐": 197,
      "─": 198,
      "━": 199,
      "┃": 200,
      "┏": 201,
      "┓": 202,
      "┗": 203,
      "┛": 204,
      "┣": 205,
      "┫": 206,
      "┳": 207,
      "╸": 208,
      "╹": 209,
      "╺": 210,
      "╻": 211,
      "■": 212,
      "⚠": 213,
      "✅": 214,
      "✓": 215,
      "✔": 216,
      "✖": 217,
      "✗": 218,
      "❌": 219,
      "⨯": 220,
      "く": 221,
      "と": 222,
      "み": 223,
      "ら": 224,
      "ツ": 225,
      "️": 226,
      "🎉": 227,
      "💚": 228,
      "💡": 229,
      "📦": 230,
      "🔃": 231,
      "🔍": 232,
      "🚀": 233,
      "he": 234,
      "an": 235,
      "the": 236,
      "ed": 237,
      "and": 238,
      "to": 239,
      "in": 240,
      "re": 241,
      "ou": 242,
      "wa": 243,
      "it": 244,
      "ha": 245,
      "er": 246,
      "was": 247,
      "om": 248,
      "en": 249,
      "on": 250,
      "ar": 251,
      "The": 252,
      "is": 253,
      "ing": 254,
      "il": 255,
      "sa": 256,
      "id": 257,
      "le": 258,
      "ay": 259,
      "im": 260,
      "lo": 261,
      "st": 262,
      "al": 263,
      "or": 264,
      "her": 265,
      "He": 266,
      "She": 267,
      "ir": 268,
      "th": 269,
      "They": 270,
      "be": 271,
      "ne": 272,
      "hat": 273,
      "ver": 274,
      "ut": 275,
      "se": 276,
      "ke": 277,
      "at": 278,
      "no": 279,
      "ck": 280,
      "ld": 281,
      "ce": 282,
      "said": 283,
      "am": 284,
      "ve": 285,
      "ri": 286,
      "ily": 287,
      "she": 288,
      "pl": 289,
      "ith": 290,
      "pp": 291,
      "of": 292,
      "ad": 293,
      "with": 294,
      "ig": 295,
      "his": 296,
      "Lily": 297,
      "un": 298,
      "you": 299,
      "ked": 300,
      "so": 301,
      "ly": 302,
      "day": 303,
      "very": 304,
      "we": 305,
      "ome": 306,
      "li": 307,
      "my": 308,
      "that": 309,
      "go": 310,
      "up": 311,
      "ho": 312,
      "do": 313,
      "ant": 314,
      "es": 315,
      "as": 316,
      "play": 317,
      "had": 318,
      "they": 319,
      "for": 320,
      "ro": 321,
      "ch": 322,
      "mom": 323,
      "el": 324,
      "bo": 325,
      "nd": 326,
      "ould": 327,
      "all": 328,
      "end": 329,
      "happ": 330,
      "ent": 331,
      "want": 332,
      "itt": 333,
      "ge": 334,
      "are": 335,
      "tim": 336,
      "It": 337,
      "out": 338,
      "ok": 339,
      "not": 340,
      "ound": 341,
      "ther": 342,
      "ittle": 343,
      "time": 344,
      "little": 345,
      "there": 346,
      "ry": 347,
      "ht": 348,
      "ra": 349,
      "happy": 350,
      "sm": 351,
      "big": 352,
      "but": 353,
      "ys": 354,
      "fri": 355,
      "ake": 356,
      "saw": 357,
      ".\"": 358,
      "friend": 359,
      "ter": 360,
      "ack": 361,
      "thing": 362,
      "ul": 363,
      "some": 364,
      "One": 365,
      "ide": 366,
      "one": 367,
      "Tim": 368,
      "!\"": 369,
      "On": 370,
      "ug": 371,
      "ved": 372,
      "were": 373,
      "Once": 374,
      "car": 375,
      "him": 376,
      "fe": 377,
      "irl": 378,
      "pe": 379,
      "wanted": 380,
      "Tom": 381,
      "girl": 382,
      "upon": 383,
      "ful": 384,
      "them": 385,
      "ur": 386,
      "Ben": 387,
      "co": 388,
      "ill": 389,
      "their": 390,
      "ag": 391,
      "smil": 392,
      "did": 393,
      "me": 394,
      "could": 395,
      "ex": 396,
      "have": 397,
      "mo": 398,
      "hen": 399,
      "sh": 400,
      "ind": 401,
      "But": 402,
      "hel": 403,
      "can": 404,
      "rom": 405,
      "went": 406,
      "ted": 407,
      "de": 408,
      "new": 409,
      "od": 410,
      "nam": 411,
      "?\"": 412,
      "help": 413,
      "friends": 414,
      "um": 415,
      "ab": 416,
      "hed": 417,
      "way": 418,
      "back": 419,
      "fel": 420,
      "po": 421,
      "wn": 422,
      "ain": 423,
      "like": 424,
      "You": 425,
      "fun": 426,
      "fo": 427,
      "ic": 428,
      "side": 429,
      "man": 430,
      "par": 431,
      "too": 432,
      "ran": 433,
      "ght": 434,
      "Timmy": 435,
      "star": 436,
      "smiled": 437,
      "named": 438,
      "loved": 439,
      "loo": 440,
      "asked": 441,
      "et": 442,
      "Mom": 443,
      "la": 444,
      "ard": 445,
      "felt": 446,
      "sto": 447,
      "see": 448,
      "low": 449,
      "looked": 450,
      "ick": 451,
      "around": 452,
      "pr": 453,
      "ame": 454,
      "ure": 455,
      "make": 456,
      "bir": 457,
      "would": 458,
      "wor": 459,
      "fa": 460,
      "how": 461,
      "boy": 462,
      "ong": 463,
      "other": 464,
      "bird": 465,
      "now": 466,
      "park": 467,
      "ll": 468,
      "what": 469,
      "ice": 470,
      "mad": 471,
      "tre": 472,
      ",\"": 473,
      "away": 474,
      "ca": 475,
      "gether": 476,
      "ss": 477,
      "dd": 478,
      "says": 479,
      "started": 480,
      "oud": 481,
      "made": 482,
      "came": 483,
      "ight": 484,
      "something": 485,
      "op": 486,
      "together": 487,
      "get": 488,
      "na": 489,
      "ited": 490,
      "look": 491,
      "gr": 492,
      "put": 493,
      "sad": 494,
      "exc": 495,
      "got": 496,
      "ts": 497,
      "from": 498,
      "if": 499,
      "scar": 500,
      "ach": 501,
      "home": 502,
      "mu": 503,
      "ue": 504,
      "again": 505,
      "ie": 506,
      "wal": 507,
      "good": 508,
      "then": 509,
      "who": 510,
      "found": 511,
      "ried": 512,
      "dec": 513,
      "pped": 514,
      "ci": 515,
      "more": 516,
      "when": 517,
      "hug": 518,
      "ep": 519,
      "king": 520,
      "playing": 521,
      "ought": 522,
      "ally": 523,
      "ave": 524,
      "by": 525,
      "things": 526,
      "excited": 527,
      "liked": 528,
      "ru": 529,
      "Sam": 530,
      "der": 531,
      "ous": 532,
      "An": 533,
      "ara": 534,
      "us": 535,
      "ided": 536,
      "ny": 537,
      "decided": 538,
      "ouse": 539,
      "every": 540,
      "sha": 541,
      "your": 542,
      "care": 543,
      "scared": 544,
      "dog": 545,
      "down": 546,
      "use": 547,
      "find": 548,
      "ax": 549,
      "pre": 550,
      "ac": 551,
      "ate": 552,
      "than": 553,
      "spe": 554,
      "take": 555,
      "We": 556,
      "clo": 557,
      "Sara": 558,
      "feel": 559,
      "ang": 560,
      "jo": 561,
      "udd": 562,
      "Anna": 563,
      "wo": 564,
      "ways": 565,
      "dad": 566,
      "arn": 567,
      "Max": 568,
      "our": 569,
      "will": 570,
      "here": 571,
      "didn": 572,
      "te": 573,
      "always": 574,
      "about": 575,
      "took": 576,
      "ite": 577,
      "bb": 578,
      "mommy": 579,
      "qu": 580,
      "toys": 581,
      "ise": 582,
      "old": 583,
      "ma": 584,
      "So": 585,
      "ers": 586,
      "outside": 587,
      "tree": 588,
      "thought": 589,
      "learn": 590,
      "ive": 591,
      "sor": 592,
      "ust": 593,
      "ened": 594,
      "wh": 595,
      "room": 596,
      "fore": 597,
      "cat": 598,
      "ty": 599,
      "know": 600,
      "Jo": 601,
      "laug": 602,
      "speci": 603,
      "special": 604,
      "When": 605,
      "udden": 606,
      "knew": 607,
      "run": 608,
      "ged": 609,
      "red": 610,
      "any": 611,
      "ball": 612,
      "pa": 613,
      "come": 614,
      "bu": 615,
      "Her": 616,
      "ow": 617,
      "uddenly": 618,
      "ink": 619,
      "house": 620,
      "toy": 621,
      "ish": 622,
      "never": 623,
      "fter": 624,
      "ol": 625,
      "show": 626,
      "lf": 627,
      "ist": 628,
      "rd": 629,
      "Jack": 630,
      "sorry": 631,
      "cre": 632,
      "bl": 633,
      "sw": 634,
      "much": 635,
      "Every": 636,
      "hand": 637,
      "ia": 638,
      "dre": 639,
      "able": 640,
      "careful": 641,
      "ven": 642,
      "cle": 643,
      "sk": 644,
      "gave": 645,
      "sun": 646,
      "long": 647,
      "into": 648,
      "tried": 649,
      "cl": 650,
      "inside": 651,
      "bro": 652,
      "this": 653,
      "water": 654,
      "told": 655,
      "over": 656,
      "ta": 657,
      "box": 658,
      "proud": 659,
      "couldn": 660,
      "ion": 661,
      "heard": 662,
      "dy": 663,
      "ear": 664,
      "each": 665,
      "tter": 666,
      "Let": 667,
      "sp": 668,
      "love": 669,
      "gre": 670,
      "eat": 671,
      "Suddenly": 672,
      "ump": 673,
      "pick": 674,
      "led": 675,
      "played": 676,
      "pret": 677,
      "ct": 678,
      "Then": 679,
      "Mia": 680,
      "cause": 681,
      "just": 682,
      "hugged": 683,
      "com": 684,
      "off": 685,
      "che": 686,
      "unt": 687,
      "right": 688,
      "wat": 689,
      "uc": 690,
      "fly": 691,
      "ile": 692,
      "nice": 693,
      "And": 694,
      "From": 695,
      "pot": 696,
      "need": 697,
      "because": 698,
      "His": 699,
      "exp": 700,
      "many": 701,
      "flow": 702,
      "That": 703,
      "try": 704,
      "bear": 705,
      "small": 706,
      "ine": 707,
      "lad": 708,
      "ving": 709,
      "iz": 710,
      "read": 711,
      "imal": 712,
      "oug": 713,
      "animal": 714,
      "uck": 715,
      "ough": 716,
      "rabb": 717,
      "ber": 718,
      "until": 719,
      "self": 720,
      "its": 721,
      "bed": 722,
      "per": 723,
      "kind": 724,
      "learned": 725,
      "fast": 726,
      "bea": 727,
      "ket": 728,
      "better": 729,
      "call": 730,
      "fi": 731,
      "vent": 732,
      "don": 733,
      "ass": 734,
      "What": 735,
      "best": 736,
      "urn": 737,
      "Yes": 738,
      "bra": 739,
      "say": 740,
      "urt": 741,
      "explo": 742,
      "where": 743,
      "Mommy": 744,
      "gard": 745,
      "garden": 746,
      "pt": 747,
      "let": 748,
      "beaut": 749,
      "even": 750,
      "nt": 751,
      "fle": 752,
      "thanked": 753,
      "laughed": 754,
      "sky": 755,
      "yes": 756,
      "safe": 757,
      "sho": 758,
      "under": 759,
      "jump": 760,
      "ell": 761,
      "ace": 762,
      "sur": 763,
      "loud": 764,
      "iny": 765,
      "list": 766,
      "Can": 767,
      "ank": 768,
      "ched": 769,
      "iful": 770,
      "beautiful": 771,
      "give": 772,
      "joy": 773,
      "lots": 774,
      "rong": 775,
      "fam": 776,
      "still": 777,
      "ama": 778,
      "animals": 779,
      "Joh": 780,
      "ning": 781,
      "John": 782,
      "rain": 783,
      "br": 784,
      "won": 785,
      "book": 786,
      "stay": 787,
      "Th": 788,
      "ree": 789,
      "turn": 790,
      "both": 791,
      "win": 792,
      "No": 793,
      "ble": 794,
      "fin": 795,
      "has": 796,
      "two": 797,
      "bad": 798,
      "pu": 799,
      "hard": 800,
      "ople": 801,
      "As": 802,
      "Bo": 803,
      "lived": 804,
      "lea": 805,
      "cks": 806,
      "Luc": 807,
      "con": 808,
      "Thank": 809,
      "app": 810,
      "Lucy": 811,
      "brave": 812,
      "keep": 813,
      "ort": 814,
      "walked": 815,
      "hurt": 816,
      "should": 817,
      "row": 818,
      "ground": 819,
      "tru": 820,
      "ished": 821,
      "igh": 822,
      "surpr": 823,
      "angry": 824,
      "family": 825,
      "rm": 826,
      "people": 827,
      "flew": 828,
      "called": 829,
      "After": 830,
      "soon": 831,
      "door": 832,
      "Dad": 833,
      "kept": 834,
      "real": 835,
      "arm": 836,
      "share": 837,
      "pic": 838,
      "ised": 839,
      "imp": 840,
      "going": 841,
      "ser": 842,
      "ting": 843,
      "ane": 844,
      "pretty": 845,
      "sl": 846,
      "clean": 847,
      "lot": 848,
      "cu": 849,
      "advent": 850,
      "ummy": 851,
      "ste": 852,
      "noise": 853,
      "opened": 854,
      "mor": 855,
      "shiny": 856,
      "cry": 857,
      "explore": 858,
      "place": 859,
      "doll": 860,
      "before": 861,
      "illy": 862,
      "feeling": 863,
      "ild": 864,
      "les": 865,
      "dra": 866,
      "also": 867,
      "lie": 868,
      "€™": 869,
      "ied": 870,
      "set": 871,
      "idea": 872,
      "nodd": 873,
      "Bob": 874,
      "colo": 875,
      "nex": 876,
      "nodded": 877,
      "tal": 878,
      "picked": 879,
      "color": 880,
      "while": 881,
      "next": 882,
      "walking": 883,
      "hear": 884,
      "head": 885,
      "fish": 886,
      "ask": 887,
      "work": 888,
      "clim": 889,
      "face": 890,
      "Lo": 891,
      "uch": 892,
      "ies": 893,
      "ture": 894,
      "less": 895,
      "adventure": 896,
      "ark": 897,
      "smile": 898,
      "aybe": 899,
      "iced": 900,
      "ak": 901,
      "looking": 902,
      "mber": 903,
      "being": 904,
      "dif": 905,
      "hair": 906,
      "ever": 907,
      "food": 908,
      "walk": 909,
      "picture": 910,
      "think": 911,
      "vo": 912,
      "night": 913,
      "used": 914,
      "cho": 915,
      "Spot": 916,
      "eyes": 917,
      "ught": 918,
      "listen": 919,
      "stopped": 920,
      "own": 921,
      "after": 922,
      "Do": 923,
      "ess": 924,
      "member": 925,
      "flowers": 926,
      "year": 927,
      "weet": 928,
      "wonder": 929,
      "repl": 930,
      "wait": 931,
      "great": 932,
      "Sue": 933,
      "ries": 934,
      "blo": 935,
      "shout": 936,
      "import": 937,
      "ring": 938,
      "blue": 939,
      "enjoy": 940,
      "noticed": 941,
      "forest": 942,
      "hands": 943,
      "dis": 944,
      "mon": 945,
      "ized": 946,
      "near": 947,
      "irst": 948,
      "quick": 949,
      "bye": 950,
      "important": 951,
      "remember": 952,
      "sound": 953,
      "Look": 954,
      "lease": 955,
      "slide": 956,
      "replied": 957,
      "amaz": 958,
      "ip": 959,
      "watch": 960,
      "showed": 961,
      "okay": 962,
      "top": 963,
      "This": 964,
      "leave": 965,
      "gan": 966,
      "voice": 967,
      "fere": 968,
      "Sarah": 969,
      "tell": 970,
      "cook": 971,
      "llow": 972,
      "sing": 973,
      "differe": 974,
      "mean": 975,
      "swing": 976,
      "cream": 977,
      "rest": 978,
      "stick": 979,
      "watched": 980,
      "cake": 981,
      "bright": 982,
      "follow": 983,
      "truck": 984,
      "pul": 985,
      "cou": 986,
      "everyone": 987,
      "been": 988,
      "store": 989,
      "bow": 990,
      "sure": 991,
      "sn": 992,
      "boat": 993,
      "strong": 994,
      "quickly": 995,
      "ner": 996,
      "Jane": 997,
      "rabbit": 998,
      "tor": 999,
      "stand": 1000,
      "different": 1001,
      "Maybe": 1002,
      "curi": 1003,
      "goodbye": 1004,
      "became": 1005,
      "ward": 1006,
      "high": 1007,
      "closer": 1008,
      "oft": 1009,
      "bre": 1010,
      "does": 1011,
      "ff": 1012,
      "mag": 1013,
      "ance": 1014,
      "unny": 1015,
      "warm": 1016,
      "mis": 1017,
      "Joe": 1018,
      "ung": 1019,
      "curious": 1020,
      "ph": 1021,
      "ila": 1022,
      "laugh": 1023,
      "fav": 1024,
      "andma": 1025,
      "three": 1026,
      "dress": 1027,
      "Lila": 1028,
      "pie": 1029,
      "rough": 1030,
      "ond": 1031,
      "leep": 1032,
      "open": 1033,
      "flo": 1034,
      "ready": 1035,
      "anymore": 1036,
      "first": 1037,
      "ached": 1038,
      "ired": 1039,
      "flower": 1040,
      "grabb": 1041,
      "In": 1042,
      "butter": 1043,
      "bit": 1044,
      "kit": 1045,
      "kid": 1046,
      "pain": 1047,
      "fro": 1048,
      "grabbed": 1049,
      "only": 1050,
      "Don": 1051,
      "squ": 1052,
      "ered": 1053,
      "yel": 1054,
      "med": 1055,
      "isy": 1056,
      "times": 1057,
      "light": 1058,
      "table": 1059,
      "fell": 1060,
      "dro": 1061,
      "Everyone": 1062,
      "Hel": 1063,
      "birds": 1064,
      "fire": 1065,
      "deli": 1066,
      "jumped": 1067,
      "ft": 1068,
      "ster": 1069,
      "glad": 1070,
      "sand": 1071,
      "pare": 1072,
      "chen": 1073,
      "kitchen": 1074,
      "cut": 1075,
      "air": 1076,
      "tr": 1077,
      "cont": 1078,
      "rock": 1079,
      "helped": 1080,
      "stop": 1081,
      "sed": 1082,
      "cket": 1083,
      "key": 1084,
      "fl": 1085,
      "ash": 1086,
      "happened": 1087,
      "grass": 1088,
      "Tommy": 1089,
      "sees": 1090,
      "bunny": 1091,
      "shouted": 1092,
      "prin": 1093,
      "story": 1094,
      "bal": 1095,
      "dow": 1096,
      "having": 1097,
      "reached": 1098,
      "yummy": 1099,
      "realized": 1100,
      "brother": 1101,
      "lady": 1102,
      "mum": 1103,
      "shed": 1104,
      "ary": 1105,
      "favor": 1106,
      "sweet": 1107,
      "din": 1108,
      "through": 1109,
      "favorite": 1110,
      "draw": 1111,
      "game": 1112,
      "coming": 1113,
      "cra": 1114,
      "que": 1115,
      "soft": 1116,
      "piece": 1117,
      "zy": 1118,
      "bor": 1119,
      "really": 1120,
      "done": 1121,
      "tra": 1122,
      "Wh": 1123,
      "began": 1124,
      "pretend": 1125,
      "Now": 1126,
      "world": 1127,
      "olly": 1128,
      "name": 1129,
      "looks": 1130,
      "wel": 1131,
      "himself": 1132,
      "magic": 1133,
      "ken": 1134,
      "ba": 1135,
      "col": 1136,
      "making": 1137,
      "rel": 1138,
      "kids": 1139,
      "duck": 1140,
      "pond": 1141,
      "prom": 1142,
      "why": 1143,
      "nts": 1144,
      "fix": 1145,
      "waved": 1146,
      "move": 1147,
      "ater": 1148,
      "tired": 1149,
      "pro": 1150,
      "mouse": 1151,
      "fill": 1152,
      "worry": 1153,
      "ped": 1154,
      "cked": 1155,
      "cars": 1156,
      "Fin": 1157,
      "Wow": 1158,
      "paper": 1159,
      "parents": 1160,
      "cold": 1161,
      "Sally": 1162,
      "touch": 1163,
      "aisy": 1164,
      "ike": 1165,
      "thank": 1166,
      "funny": 1167,
      "catch": 1168,
      "seen": 1169,
      "ple": 1170,
      "age": 1171,
      "stre": 1172,
      "gu": 1173,
      "ds": 1174,
      "hold": 1175,
      "another": 1176,
      "There": 1177,
      "bar": 1178,
      "river": 1179,
      "hopped": 1180,
      "cried": 1181,
      "oney": 1182,
      "\".": 1183,
      "doing": 1184,
      "cool": 1185,
      "blocks": 1186,
      "farm": 1187,
      "cor": 1188,
      "ons": 1189,
      "surprise": 1190,
      "green": 1191,
      "uff": 1192,
      "anc": 1193,
      "years": 1194,
      "mess": 1195,
      "ation": 1196,
      "turned": 1197,
      "close": 1198,
      "wood": 1199,
      "floor": 1200,
      "hind": 1201,
      "sat": 1202,
      "running": 1203,
      "climb": 1204,
      "window": 1205,
      "full": 1206,
      "trees": 1207,
      "ppy": 1208,
      "lesson": 1209,
      "worked": 1210,
      "wear": 1211,
      "ign": 1212,
      "dark": 1213,
      "behind": 1214,
      "likes": 1215,
      "wished": 1216,
      "aby": 1217,
      "ger": 1218,
      "yellow": 1219,
      "andy": 1220,
      "bag": 1221,
      "swim": 1222,
      "happily": 1223,
      "Daisy": 1224,
      "Jim": 1225,
      "Em": 1226,
      "To": 1227,
      "wer": 1228,
      "cast": 1229,
      "sleep": 1230,
      "surprised": 1231,
      "frog": 1232,
      "pet": 1233,
      "butterfly": 1234,
      "Benny": 1235,
      "cious": 1236,
      "yard": 1237,
      "arri": 1238,
      "Hello": 1239,
      "carefully": 1240,
      "hole": 1241,
      "remembered": 1242,
      "lost": 1243,
      "slow": 1244,
      "held": 1245,
      "race": 1246,
      "At": 1247,
      "needed": 1248,
      "dir": 1249,
      "cla": 1250,
      "buy": 1251,
      "left": 1252,
      "Billy": 1253,
      "reed": 1254,
      "far": 1255,
      "dream": 1256,
      "fair": 1257,
      "tri": 1258,
      "anything": 1259,
      "wrong": 1260,
      "spot": 1261,
      "enjoyed": 1262,
      "chil": 1263,
      "dren": 1264,
      "followed": 1265,
      "mar": 1266,
      "Finally": 1267,
      "children": 1268,
      "bug": 1269,
      "stran": 1270,
      "ross": 1271,
      "delicious": 1272,
      "wind": 1273,
      "hung": 1274,
      "Molly": 1275,
      "please": 1276,
      "cess": 1277,
      "finished": 1278,
      "contin": 1279,
      "bot": 1280,
      "friendly": 1281,
      "else": 1282,
      "cr": 1283,
      "agreed": 1284,
      "snow": 1285,
      "mou": 1286,
      "tall": 1287,
      "herself": 1288,
      "vis": 1289,
      "spo": 1290,
      "Amy": 1291,
      "hill": 1292,
      "understand": 1293,
      "hot": 1294,
      "ued": 1295,
      "oo": 1296,
      "art": 1297,
      "hid": 1298,
      "build": 1299,
      "ens": 1300,
      "arrived": 1301,
      "em": 1302,
      "ined": 1303,
      "gent": 1304,
      "wonderful": 1305,
      "ield": 1306,
      "broken": 1307,
      "might": 1308,
      "land": 1309,
      "ings": 1310,
      "tight": 1311,
      "forgot": 1312,
      "baby": 1313,
      "gl": 1314,
      "colors": 1315,
      "Jen": 1316,
      "most": 1317,
      "ient": 1318,
      "sit": 1319,
      "mat": 1320,
      "gone": 1321,
      "ather": 1322,
      "filled": 1323,
      "erous": 1324,
      "song": 1325,
      "Why": 1326,
      "wards": 1327,
      "squir": 1328,
      "books": 1329,
      "someone": 1330,
      "pat": 1331,
      "creat": 1332,
      "continued": 1333,
      "asure": 1334,
      "castle": 1335,
      "lion": 1336,
      "fight": 1337,
      "wants": 1338,
      "Gr": 1339,
      "mother": 1340,
      "squirrel": 1341,
      "pink": 1342,
      "leaves": 1343,
      "getting": 1344,
      "ves": 1345,
      "enough": 1346,
      "OK": 1347,
      "Go": 1348,
      "morning": 1349,
      "fru": 1350,
      "av": 1351,
      "moment": 1352,
      "cha": 1353,
      "finally": 1354,
      "fall": 1355,
      "break": 1356,
      "stayed": 1357,
      "je": 1358,
      "cookies": 1359,
      "poin": 1360,
      "gon": 1361,
      "beach": 1362,
      "sometimes": 1363,
      "scary": 1364,
      "few": 1365,
      "ju": 1366,
      "fect": 1367,
      "pack": 1368,
      "hungry": 1369,
      "ence": 1370,
      "dinner": 1371,
      "tast": 1372,
      "grandma": 1373,
      "Come": 1374,
      "whe": 1375,
      "wet": 1376,
      "ze": 1377,
      "amazing": 1378,
      "plain": 1379,
      "trying": 1380,
      "daddy": 1381,
      "perfect": 1382,
      "makes": 1383,
      "asks": 1384,
      "pes": 1385,
      "others": 1386,
      "cover": 1387,
      "climbed": 1388,
      "tail": 1389,
      "kno": 1390,
      "pictures": 1391,
      "talk": 1392,
      "listened": 1393,
      "kay": 1394,
      "dr": 1395,
      "mus": 1396,
      "tle": 1397,
      "ton": 1398,
      "icy": 1399,
      "white": 1400,
      "fur": 1401,
      "smiles": 1402,
      "tw": 1403,
      "roll": 1404,
      "Jill": 1405,
      "sis": 1406,
      "ballo": 1407,
      "wall": 1408,
      "oup": 1409,
      "bus": 1410,
      "alone": 1411,
      "clothe": 1412,
      "ot": 1413,
      "ated": 1414,
      "appear": 1415,
      "plan": 1416,
      "spl": 1417,
      "ious": 1418,
      "clothes": 1419,
      "Oh": 1420,
      "puppy": 1421,
      "train": 1422,
      "met": 1423,
      "sear": 1424,
      "wasn": 1425,
      "brought": 1426,
      "everything": 1427,
      "strange": 1428,
      "spark": 1429,
      "dang": 1430,
      "grow": 1431,
      "woods": 1432,
      "deep": 1433,
      "pulled": 1434,
      "bike": 1435,
      "Be": 1436,
      "sail": 1437,
      "ps": 1438,
      "ride": 1439,
      "pping": 1440,
      "Daddy": 1441,
      "treat": 1442,
      "mi": 1443,
      "fox": 1444,
      "ses": 1445,
      "af": 1446,
      "Mama": 1447,
      "uffy": 1448,
      "Soon": 1449,
      "pen": 1450,
      "hor": 1451,
      "ucky": 1452,
      "Some": 1453,
      "ose": 1454,
      "gi": 1455,
      "waited": 1456,
      "music": 1457,
      "field": 1458,
      "amazed": 1459,
      "danc": 1460,
      "ange": 1461,
      "hide": 1462,
      "teddy": 1463,
      "bath": 1464,
      "towards": 1465,
      "pur": 1466,
      "thy": 1467,
      "All": 1468,
      "flying": 1469,
      "zz": 1470,
      "owner": 1471,
      "whis": 1472,
      "runs": 1473,
      "shared": 1474,
      "silly": 1475,
      "cloud": 1476,
      "belie": 1477,
      "job": 1478,
      "visit": 1479,
      "lake": 1480,
      "ames": 1481,
      "living": 1482,
      "pers": 1483,
      "promised": 1484,
      "Okay": 1485,
      "moral": 1486,
      "fr": 1487,
      "gs": 1488,
      "qui": 1489,
      "dance": 1490,
      "thinks": 1491,
      "Mary": 1492,
      "sister": 1493,
      "ually": 1494,
      "party": 1495,
      "quiet": 1496,
      "mind": 1497,
      "ment": 1498,
      "ises": 1499,
      "nap": 1500,
      "must": 1501,
      "money": 1502,
      "board": 1503,
      "Sure": 1504,
      "pass": 1505,
      "Just": 1506,
      "bran": 1507,
      "worried": 1508,
      "answ": 1509,
      "rown": 1510,
      "chair": 1511,
      "ateful": 1512,
      "grateful": 1513,
      "slowly": 1514,
      "colorful": 1515,
      "cup": 1516,
      "faster": 1517,
      "pieces": 1518,
      "Mr": 1519,
      "lice": 1520,
      "explain": 1521,
      "ctor": 1522,
      "broke": 1523,
      "join": 1524,
      "ich": 1525,
      "gif": 1526,
      "such": 1527,
      "bigger": 1528,
      "pull": 1529,
      "snack": 1530,
      "thre": 1531,
      "reach": 1532,
      "dry": 1533,
      "kis": 1534,
      "heav": 1535,
      "monster": 1536,
      "plant": 1537,
      "ele": 1538,
      "black": 1539,
      "candy": 1540,
      "words": 1541,
      "blan": 1542,
      "twin": 1543,
      "scream": 1544,
      "hes": 1545,
      "treasure": 1546,
      "magical": 1547,
      "sign": 1548,
      "gra": 1549,
      "dangerous": 1550,
      "Mum": 1551,
      "dragon": 1552,
      "start": 1553,
      "across": 1554,
      "des": 1555,
      "min": 1556,
      "everywhere": 1557,
      "dri": 1558,
      "helping": 1559,
      "Jimmy": 1560,
      "farmer": 1561,
      "smart": 1562,
      "Grandma": 1563,
      "Hi": 1564,
      "mouth": 1565,
      "smel": 1566,
      "ourse": 1567,
      "rot": 1568,
      "bee": 1569,
      "ng": 1570,
      "ub": 1571,
      "igg": 1572,
      "tower": 1573,
      "sc": 1574,
      "threw": 1575,
      "stepped": 1576,
      "heavy": 1577,
      "dolls": 1578,
      "sy": 1579,
      "ap": 1580,
      "bowl": 1581,
      "same": 1582,
      "bite": 1583,
      "appeared": 1584,
      "dirty": 1585,
      "twins": 1586,
      "swa": 1587,
      "mix": 1588,
      "believe": 1589,
      "crying": 1590,
      "Please": 1591,
      "ident": 1592,
      "doctor": 1593,
      "shar": 1594,
      "heal": 1595,
      "princess": 1596,
      "wouldn": 1597,
      "har": 1598,
      "press": 1599,
      "chool": 1600,
      "bas": 1601,
      "hig": 1602,
      "unch": 1603,
      "closed": 1604,
      "stuck": 1605,
      "school": 1606,
      "spr": 1607,
      "balloon": 1608,
      "val": 1609,
      "stu": 1610,
      "swam": 1611,
      "teac": 1612,
      "iting": 1613,
      "brown": 1614,
      "Emma": 1615,
      "hoped": 1616,
      "wr": 1617,
      "suddenly": 1618,
      "paint": 1619,
      "feels": 1620,
      "town": 1621,
      "eating": 1622,
      "da": 1623,
      "course": 1624,
      "cray": 1625,
      "clapped": 1626,
      "plane": 1627,
      "ches": 1628,
      "stood": 1629,
      "ek": 1630,
      "gentle": 1631,
      "fairy": 1632,
      "comfor": 1633,
      "takes": 1634,
      "ventually": 1635,
      "button": 1636,
      "child": 1637,
      "basket": 1638,
      "free": 1639,
      "ire": 1640,
      "drove": 1641,
      "welcome": 1642,
      "pushed": 1643,
      "round": 1644,
      "shine": 1645,
      "without": 1646,
      "Inside": 1647,
      "neigh": 1648,
      "ible": 1649,
      "higher": 1650,
      "today": 1651,
      "stead": 1652,
      "swings": 1653,
      "cident": 1654,
      "blanket": 1655,
      "teacher": 1656,
      "str": 1657,
      "ben": 1658,
      "phone": 1659,
      "sea": 1660,
      "late": 1661,
      "games": 1662,
      "jour": 1663,
      "moved": 1664,
      "cheered": 1665,
      "wings": 1666,
      "longer": 1667,
      "explained": 1668,
      "coin": 1669,
      "wise": 1670,
      "accident": 1671,
      "along": 1672,
      "well": 1673,
      "wish": 1674,
      "Their": 1675,
      "Fl": 1676,
      "noises": 1677,
      "itting": 1678,
      "ling": 1679,
      "sang": 1680,
      "cal": 1681,
      "throw": 1682,
      "happen": 1683,
      "pol": 1684,
      "stone": 1685,
      "hugs": 1686,
      "turns": 1687,
      "ney": 1688,
      "mine": 1689,
      "dist": 1690,
      "stories": 1691,
      "shoes": 1692,
      "phant": 1693,
      "apple": 1694,
      "though": 1695,
      "forget": 1696,
      "adventures": 1697,
      "singing": 1698,
      "neck": 1699,
      "trou": 1700,
      "jar": 1701,
      "lone": 1702,
      "fence": 1703,
      "del": 1704,
      "lunch": 1705,
      "upset": 1706,
      "oun": 1707,
      "lonely": 1708,
      "secre": 1709,
      "El": 1710,
      "belong": 1711,
      "heart": 1712,
      "add": 1713,
      "elephant": 1714,
      "street": 1715,
      "young": 1716,
      "Pe": 1717,
      "ntain": 1718,
      "ions": 1719,
      "Fluffy": 1720,
      "itch": 1721,
      "sent": 1722,
      "monkey": 1723,
      "shook": 1724,
      "ours": 1725,
      "exploring": 1726,
      "nee": 1727,
      "pocket": 1728,
      "Sammy": 1729,
      "Le": 1730,
      "ughty": 1731,
      "nearby": 1732,
      "My": 1733,
      "naughty": 1734,
      "soup": 1735,
      "owl": 1736,
      "stars": 1737,
      "bring": 1738,
      "fused": 1739,
      "ship": 1740,
      "ull": 1741,
      "caught": 1742,
      "woke": 1743,
      "backyard": 1744,
      "seemed": 1745,
      "body": 1746,
      "att": 1747,
      "part": 1748,
      "relie": 1749,
      "dropped": 1750,
      "rocks": 1751,
      "ming": 1752,
      "ughter": 1753,
      "drink": 1754,
      "coat": 1755,
      "taking": 1756,
      "purple": 1757,
      "daughter": 1758,
      "mail": 1759,
      "cow": 1760,
      "fit": 1761,
      "shop": 1762,
      "orange": 1763,
      "shapes": 1764,
      "hello": 1765,
      "driver": 1766,
      "pil": 1767,
      "bench": 1768,
      "ier": 1769,
      "hit": 1770,
      "fing": 1771,
      "comes": 1772,
      "busy": 1773,
      "sounds": 1774,
      "wondered": 1775,
      "amp": 1776,
      "hur": 1777,
      "past": 1778,
      "nest": 1779,
      "tiny": 1780,
      "mil": 1781,
      "Later": 1782,
      "nose": 1783,
      "sitting": 1784,
      "rainbow": 1785,
      "ese": 1786,
      "mer": 1787,
      "kite": 1788,
      "sco": 1789,
      "nothing": 1790,
      "count": 1791,
      "holding": 1792,
      "juice": 1793,
      "mach": 1794,
      "smell": 1795,
      "shell": 1796,
      "brea": 1797,
      "arms": 1798,
      "pra": 1799,
      "branch": 1800,
      "chas": 1801,
      "thday": 1802,
      "pig": 1803,
      "With": 1804,
      "sug": 1805,
      "Good": 1806,
      "quest": 1807,
      "band": 1808,
      "cute": 1809,
      "cir": 1810,
      "secret": 1811,
      "pper": 1812,
      "ining": 1813,
      "loves": 1814,
      "oom": 1815,
      "ars": 1816,
      "Of": 1817,
      "raid": 1818,
      "su": 1819,
      "relieved": 1820,
      "afraid": 1821,
      "idge": 1822,
      "promise": 1823,
      "forever": 1824,
      "How": 1825,
      "net": 1826,
      "uni": 1827,
      "days": 1828,
      "carry": 1829,
      "gift": 1830,
      "sick": 1831,
      "Jenny": 1832,
      "boun": 1833,
      "hu": 1834,
      "peace": 1835,
      "Ted": 1836,
      "push": 1837,
      "Tweet": 1838,
      "act": 1839,
      "bucket": 1840,
      "touc": 1841,
      "touched": 1842,
      "huge": 1843,
      "live": 1844,
      "orn": 1845,
      "covered": 1846,
      "patient": 1847,
      "inte": 1848,
      "eg": 1849,
      "wra": 1850,
      "birthday": 1851,
      "letter": 1852,
      "spin": 1853,
      "interest": 1854,
      "grab": 1855,
      "cheese": 1856,
      "exciting": 1857,
      "sunny": 1858,
      "life": 1859,
      "onto": 1860,
      "bush": 1861,
      "laughing": 1862,
      "wand": 1863,
      "gest": 1864,
      "creature": 1865,
      "bread": 1866,
      "vel": 1867,
      "imag": 1868,
      "Hey": 1869,
      "ittens": 1870,
      "power": 1871,
      "gged": 1872,
      "test": 1873,
      "kick": 1874,
      "gen": 1875,
      "hope": 1876,
      "suc": 1877,
      "craw": 1878,
      "va": 1879,
      "ness": 1880,
      "Emily": 1881,
      "cozy": 1882,
      "journey": 1883,
      "swimming": 1884,
      "coun": 1885,
      "gives": 1886,
      "bottle": 1887,
      "instead": 1888,
      "eas": 1889,
      "milk": 1890,
      "watching": 1891,
      "ian": 1892,
      "ced": 1893,
      "lucky": 1894,
      "accidentally": 1895,
      "sunshine": 1896,
      "di": 1897,
      "log": 1898,
      "cave": 1899,
      "ade": 1900,
      "colle": 1901,
      "miss": 1902,
      "path": 1903,
      "puts": 1904,
      "sharp": 1905,
      "talked": 1906,
      "honey": 1907,
      "pointed": 1908,
      "pudd": 1909,
      "gather": 1910,
      "road": 1911,
      "bru": 1912,
      "ye": 1913,
      "neighbor": 1914,
      "smiling": 1915,
      "bought": 1916,
      "later": 1917,
      "anyone": 1918,
      "searched": 1919,
      "word": 1920,
      "sandw": 1921,
      "ize": 1922,
      "itten": 1923,
      "sli": 1924,
      "nic": 1925,
      "Where": 1926,
      "apples": 1927,
      "shelf": 1928,
      "storm": 1929,
      "shes": 1930,
      "snake": 1931,
      "blem": 1932,
      "problem": 1933,
      "meet": 1934,
      "irt": 1935,
      "wide": 1936,
      "inv": 1937,
      "wom": 1938,
      "ugg": 1939,
      "interesting": 1940,
      "healthy": 1941,
      "num": 1942,
      "woman": 1943,
      "œI": 1944,
      "pile": 1945,
      "spoon": 1946,
      "circle": 1947,
      "tasty": 1948,
      "ducks": 1949,
      "vill": 1950,
      "ast": 1951,
      "zoom": 1952,
      "eag": 1953,
      "rope": 1954,
      "ont": 1955,
      "spid": 1956,
      "clever": 1957,
      "andpa": 1958,
      "matter": 1959,
      "bled": 1960,
      "crayons": 1961,
      "trouble": 1962,
      "clouds": 1963,
      "roar": 1964,
      "person": 1965,
      "gigg": 1966,
      "dest": 1967,
      "Are": 1968,
      "feather": 1969,
      "prote": 1970,
      "front": 1971,
      "comfortable": 1972,
      "shining": 1973,
      "smelled": 1974,
      "present": 1975,
      "wash": 1976,
      "Jake": 1977,
      "war": 1978,
      "tea": 1979,
      "pract": 1980,
      "zoo": 1981,
      "splash": 1982,
      "spotted": 1983,
      "minut": 1984,
      "screamed": 1985,
      "respe": 1986,
      "mud": 1987,
      "cer": 1988,
      "which": 1989,
      "organ": 1990,
      "orm": 1991,
      "lock": 1992,
      "wheel": 1993,
      "hop": 1994,
      "danced": 1995,
      "cheer": 1996,
      "seat": 1997,
      "last": 1998,
      "Ro": 1999,
      "berries": 2000,
      "puzz": 2001,
      "myster": 2002,
      "teach": 2003,
      "snowman": 2004,
      "lay": 2005,
      "Mittens": 2006,
      "isa": 2007,
      "thin": 2008,
      "string": 2009,
      "pan": 2010,
      "horse": 2011,
      "search": 2012,
      "asleep": 2013,
      "answer": 2014,
      "lovely": 2015,
      "rolled": 2016,
      "Together": 2017,
      "If": 2018,
      "gently": 2019,
      "wearing": 2020,
      "places": 2021,
      "goes": 2022,
      "giant": 2023,
      "\"$": 2024,
      "fli": 2025,
      "wild": 2026,
      "whole": 2027,
      "Lisa": 2028,
      "tool": 2029,
      "gy": 2030,
      "pill": 2031,
      "Sometimes": 2032,
      "fruit": 2033,
      "corner": 2034,
      "impress": 2035,
      "tries": 2036,
      "dirt": 2037,
      "respect": 2038,
      "tun": 2039,
      "vie": 2040,
      "worm": 2041,
      "ones": 2042,
      "card": 2043,
      "corn": 2044,
      "confused": 2045,
      "Mummy": 2046,
      "slid": 2047,
      "tasted": 2048,
      "bubb": 2049,
      "rubb": 2050,
      "eth": 2051,
      "bel": 2052,
      "cean": 2053,
      "ocean": 2054,
      "forgive": 2055,
      "rude": 2056,
      "picnic": 2057,
      "ult": 2058,
      "ased": 2059,
      "machine": 2060,
      "drive": 2061,
      "res": 2062,
      "rich": 2063,
      "spent": 2064,
      "step": 2065,
      "teeth": 2066,
      "uce": 2067,
      "itty": 2068,
      "wave": 2069,
      "oven": 2070,
      "pour": 2071,
      "pop": 2072,
      "calm": 2073,
      "pretended": 2074,
      "delight": 2075,
      "ity": 2076,
      "cookie": 2077,
      "spider": 2078,
      "furry": 2079,
      "lar": 2080,
      "feet": 2081,
      "faces": 2082,
      "fold": 2083,
      "izz": 2084,
      "Peter": 2085,
      "Little": 2086,
      "erly": 2087,
      "shy": 2088,
      "swe": 2089,
      "helpful": 2090,
      "finish": 2091,
      "eventually": 2092,
      "chick": 2093,
      "Here": 2094,
      "hang": 2095,
      "mountain": 2096,
      "shr": 2097,
      "peaceful": 2098,
      "talking": 2099,
      "stair": 2100,
      "sol": 2101,
      "pread": 2102,
      "lace": 2103,
      "mel": 2104,
      "write": 2105,
      "morrow": 2106,
      "tomorrow": 2107,
      "chocol": 2108,
      "tid": 2109,
      "ladder": 2110,
      "ipped": 2111,
      "spread": 2112,
      "protect": 2113,
      "smoo": 2114,
      "village": 2115,
      "remind": 2116,
      "building": 2117,
      "ife": 2118,
      "Teddy": 2119,
      "couch": 2120,
      "joke": 2121,
      "foot": 2122,
      "cele": 2123,
      "bell": 2124,
      "stret": 2125,
      "seek": 2126,
      "Re": 2127,
      "bugs": 2128,
      "wore": 2129,
      "fighting": 2130,
      "chased": 2131,
      "smooth": 2132,
      "trip": 2133,
      "treats": 2134,
      "ighed": 2135,
      "Sus": 2136,
      "blew": 2137,
      "cage": 2138,
      "Who": 2139,
      "spit": 2140,
      "embar": 2141,
      "waiting": 2142,
      "pool": 2143,
      "kets": 2144,
      "embarr": 2145,
      "mir": 2146,
      "hiding": 2147,
      "den": 2148,
      "Fred": 2149,
      "knee": 2150,
      "collect": 2151,
      "necklace": 2152,
      "puddle": 2153,
      "shake": 2154,
      "rank": 2155,
      "ban": 2156,
      "maybe": 2157,
      "cross": 2158,
      "stir": 2159,
      "songs": 2160,
      "whenever": 2161,
      "selfish": 2162,
      "ten": 2163,
      "embarrass": 2164,
      "cannot": 2165,
      "hum": 2166,
      "cloth": 2167,
      "chocolate": 2168,
      "Stop": 2169,
      "Everywhere": 2170,
      "kin": 2171,
      "taste": 2172,
      "lves": 2173,
      "leaf": 2174,
      "large": 2175,
      "Pa": 2176,
      "sack": 2177,
      "fixed": 2178,
      "paw": 2179,
      "Ann": 2180,
      "tidy": 2181,
      "banan": 2182,
      "stra": 2183,
      "cord": 2184,
      "barked": 2185,
      "spray": 2186,
      "umpy": 2187,
      "colour": 2188,
      "rag": 2189,
      "celebr": 2190,
      "tie": 2191,
      "crab": 2192,
      "carrot": 2193,
      "oin": 2194,
      "prince": 2195,
      "asha": 2196,
      "onest": 2197,
      "tu": 2198,
      "sour": 2199,
      "ee": 2200,
      "deter": 2201,
      "cted": 2202,
      "fig": 2203,
      "ungle": 2204,
      "Johnny": 2205,
      "rots": 2206,
      "Alice": 2207,
      "missed": 2208,
      "shirt": 2209,
      "cop": 2210,
      "jungle": 2211,
      "cape": 2212,
      "robot": 2213,
      "forward": 2214,
      "landed": 2215,
      "appoin": 2216,
      "embarrassed": 2217,
      "kiss": 2218,
      "ob": 2219,
      "honest": 2220,
      "jumping": 2221,
      "decor": 2222,
      "sque": 2223,
      "Help": 2224,
      "sticks": 2225,
      "trust": 2226,
      "elly": 2227,
      "moon": 2228,
      "--": 2229,
      "hears": 2230,
      "TV": 2231,
      "Even": 2232,
      "success": 2233,
      "scre": 2234,
      "clear": 2235,
      "plate": 2236,
      "ending": 2237,
      "creative": 2238,
      "sharing": 2239,
      "Rex": 2240,
      "polite": 2241,
      "adow": 2242,
      "knocked": 2243,
      "carrots": 2244,
      "disappoin": 2245,
      "emp": 2246,
      "meadow": 2247,
      "ail": 2248,
      "breath": 2249,
      "getable": 2250,
      "hero": 2251,
      "vegetable": 2252,
      "empty": 2253,
      "ned": 2254,
      "While": 2255,
      "sage": 2256,
      "meant": 2257,
      "legs": 2258,
      "line": 2259,
      "tightly": 2260,
      "sup": 2261,
      "brush": 2262,
      "almost": 2263,
      "ashamed": 2264,
      "glow": 2265,
      "gray": 2266,
      "orry": 2267,
      "grew": 2268,
      "tells": 2269,
      "pillow": 2270,
      "Sorry": 2271,
      "stairs": 2272,
      "rad": 2273,
      "whistle": 2274,
      "gas": 2275,
      "understood": 2276,
      "coura": 2277,
      "sheep": 2278,
      "carried": 2279,
      "nut": 2280,
      "yelled": 2281,
      "lemon": 2282,
      "these": 2283,
      "save": 2284,
      "ancy": 2285,
      "Leo": 2286,
      "group": 2287,
      "nods": 2288,
      "pay": 2289,
      "police": 2290,
      "vous": 2291,
      "pin": 2292,
      "disappointed": 2293,
      "block": 2294,
      "hours": 2295,
      "snacks": 2296,
      "fla": 2297,
      "spital": 2298,
      "hospital": 2299,
      "gold": 2300,
      "sparkly": 2301,
      "Today": 2302,
      "kitten": 2303,
      "jewel": 2304,
      "Give": 2305,
      "Me": 2306,
      "ony": 2307,
      "ird": 2308,
      "bored": 2309,
      "flies": 2310,
      "seed": 2311,
      "ina": 2312,
      "generous": 2313,
      "hidden": 2314,
      "bat": 2315,
      "frustr": 2316,
      "taught": 2317,
      "pri": 2318,
      "Your": 2319,
      "standing": 2320,
      "knowing": 2321,
      "Mark": 2322,
      "flag": 2323,
      "scarf": 2324,
      "returned": 2325,
      "mark": 2326,
      "minutes": 2327,
      "chew": 2328,
      "blow": 2329,
      "pizz": 2330,
      "plants": 2331,
      "pir": 2332,
      "easy": 2333,
      "fil": 2334,
      "bedroom": 2335,
      "mysterious": 2336,
      "waves": 2337,
      "ants": 2338,
      "sighed": 2339,
      "match": 2340,
      "thankful": 2341,
      "gun": 2342,
      "wolf": 2343,
      "finger": 2344,
      "cy": 2345,
      "burn": 2346,
      "form": 2347,
      "mined": 2348,
      "Susie": 2349,
      "determined": 2350,
      "powerful": 2351,
      "dle": 2352,
      "pace": 2353,
      "true": 2354,
      "puzzle": 2355,
      "passed": 2356,
      "balls": 2357,
      "fear": 2358,
      "spla": 2359,
      "sandwich": 2360,
      "van": 2361,
      "note": 2362,
      "case": 2363,
      "sleepy": 2364,
      "shore": 2365,
      "drew": 2366,
      "spicy": 2367,
      "packed": 2368,
      "keeper": 2369,
      "spoil": 2370,
      "pizza": 2371,
      "jelly": 2372,
      "bridge": 2373,
      "frustrated": 2374,
      "nervous": 2375,
      "gate": 2376,
      "fancy": 2377,
      "messy": 2378,
      "saur": 2379,
      "era": 2380,
      "lif": 2381,
      "kissed": 2382,
      "closet": 2383,
      "feed": 2384,
      "sold": 2385,
      "osaur": 2386,
      "gathered": 2387,
      "excite": 2388,
      "poor": 2389,
      "hose": 2390,
      "cater": 2391,
      "caterpill": 2392,
      "issor": 2393,
      "bul": 2394,
      "berry": 2395,
      "grumpy": 2396,
      "dinosaur": 2397,
      "iddle": 2398,
      "yourself": 2399,
      "whisper": 2400,
      "issors": 2401,
      "tent": 2402,
      "working": 2403,
      "chest": 2404,
      "answered": 2405,
      "ror": 2406,
      "cries": 2407,
      "week": 2408,
      "gets": 2409,
      "See": 2410,
      "au": 2411,
      "often": 2412,
      "itter": 2413,
      "son": 2414,
      "twirl": 2415,
      "scissors": 2416,
      "hopping": 2417,
      "Bl": 2418,
      "tears": 2419,
      "ugly": 2420,
      "mummy": 2421,
      "towel": 2422,
      "space": 2423,
      "ella": 2424,
      "stum": 2425,
      "tory": 2426,
      "cand": 2427,
      "allow": 2428,
      "ensive": 2429,
      "deer": 2430,
      "lit": 2431,
      "known": 2432,
      "expensive": 2433,
      "excitement": 2434,
      "izzy": 2435,
      "caterpillar": 2436,
      "Ch": 2437,
      "saved": 2438,
      "middle": 2439,
      "taken": 2440,
      "leg": 2441,
      "class": 2442,
      "Dan": 2443,
      "ual": 2444,
      "wagged": 2445,
      "pleased": 2446,
      "crown": 2447,
      "ignor": 2448,
      "fre": 2449,
      "picks": 2450,
      "check": 2451,
      "boring": 2452,
      "Bobby": 2453,
      "change": 2454,
      "asking": 2455,
      "vase": 2456,
      "pair": 2457,
      "espe": 2458,
      "boss": 2459,
      "licked": 2460,
      "ates": 2461,
      "vegetables": 2462,
      "og": 2463,
      "giggled": 2464,
      "eld": 2465,
      "Pet": 2466,
      "jog": 2467,
      "wake": 2468,
      "bark": 2469,
      "number": 2470,
      "illed": 2471,
      "mistake": 2472,
      "tig": 2473,
      "father": 2474,
      "lying": 2475,
      "glass": 2476,
      "rocket": 2477,
      "usual": 2478,
      "sugar": 2479,
      "stuff": 2480,
      "cri": 2481,
      "exam": 2482,
      "dancing": 2483,
      "lose": 2484,
      "cially": 2485,
      "especially": 2486,
      "ipe": 2487,
      "clown": 2488,
      "medic": 2489,
      "bers": 2490,
      "sight": 2491,
      "inc": 2492,
      "moving": 2493,
      "Blue": 2494,
      "kn": 2495,
      "knight": 2496,
      "Kitty": 2497,
      "nel": 2498,
      "wip": 2499,
      "fruits": 2500,
      "fake": 2501,
      "Mandy": 2502,
      "Eventually": 2503,
      "Pete": 2504,
      "drum": 2505,
      "soar": 2506,
      "eggs": 2507,
      "distance": 2508,
      "walks": 2509,
      "iness": 2510,
      "locked": 2511,
      "pray": 2512,
      "medicine": 2513,
      "glue": 2514,
      "bake": 2515,
      "bone": 2516,
      "lead": 2517,
      "splashed": 2518,
      "sweetie": 2519,
      "lly": 2520,
      "flut": 2521,
      "drawing": 2522,
      "yal": 2523,
      "disappeared": 2524,
      "become": 2525,
      "smelly": 2526,
      "Well": 2527,
      "painting": 2528,
      "feathers": 2529,
      "moms": 2530,
      "order": 2531,
      "dogs": 2532,
      "calling": 2533,
      "aged": 2534,
      "Mar": 2535,
      "ert": 2536,
      "elderly": 2537,
      "toes": 2538,
      "bathroom": 2539,
      "playground": 2540,
      "lazy": 2541,
      "rid": 2542,
      "incred": 2543,
      "mic": 2544,
      "weak": 2545,
      "Letâ": 2546,
      "mirror": 2547,
      "?\".": 2548,
      "tag": 2549,
      "rote": 2550,
      "questions": 2551,
      "horn": 2552,
      "wrote": 2553,
      "yours": 2554,
      "yog": 2555,
      "ating": 2556,
      "noisy": 2557,
      "boys": 2558,
      "nod": 2559,
      "micro": 2560,
      "suggest": 2561,
      "skipped": 2562,
      "ham": 2563,
      "Ellie": 2564,
      "fluffy": 2565,
      "wis": 2566,
      "figure": 2567,
      "chang": 2568,
      "fu": 2569,
      "dol": 2570,
      "dig": 2571,
      "content": 2572,
      "eager": 2573,
      "dish": 2574,
      "loyal": 2575,
      "stones": 2576,
      "famous": 2577,
      "End": 2578,
      "giving": 2579,
      "sell": 2580,
      "rare": 2581,
      "tape": 2582,
      "ruined": 2583,
      "illi": 2584,
      "dolph": 2585,
      "supp": 2586,
      "drank": 2587,
      "march": 2588,
      "team": 2589,
      "queen": 2590,
      "incredible": 2591,
      "shows": 2592,
      "tro": 2593,
      "ator": 2594,
      "juicy": 2595,
      "extra": 2596,
      "zed": 2597,
      "jam": 2598,
      "tub": 2599,
      "Whe": 2600,
      "lax": 2601,
      "relax": 2602,
      "sailed": 2603,
      "measure": 2604,
      "soap": 2605,
      "Ella": 2606,
      "needs": 2607,
      "decide": 2608,
      "bs": 2609,
      "lamp": 2610,
      "realised": 2611,
      "discovered": 2612,
      "diff": 2613,
      "fine": 2614,
      "als": 2615,
      "motor": 2616,
      "borrow": 2617,
      "coins": 2618,
      "Bella": 2619,
      "swan": 2620,
      "ears": 2621,
      "branches": 2622,
      "straw": 2623,
      "eng": 2624,
      "adventur": 2625,
      "aser": 2626,
      "St": 2627,
      "cleaned": 2628,
      "ately": 2629,
      "runk": 2630,
      "map": 2631,
      "cher": 2632,
      "tiger": 2633,
      "Brown": 2634,
      "balance": 2635,
      "lid": 2636,
      "chicken": 2637,
      "cient": 2638,
      "adventurous": 2639,
      "barn": 2640,
      "diffic": 2641,
      "eye": 2642,
      "Rose": 2643,
      "offered": 2644,
      "wha": 2645,
      "tom": 2646,
      "lifted": 2647,
      "colourful": 2648,
      "vide": 2649,
      "bubbles": 2650,
      "organized": 2651,
      "frown": 2652,
      "turt": 2653,
      "Bobo": 2654,
      "using": 2655,
      "difficult": 2656,
      "unique": 2657,
      "bottom": 2658,
      "smo": 2659,
      "selves": 2660,
      "toug": 2661,
      "cheerful": 2662,
      "gue": 2663,
      "alous": 2664,
      "thick": 2665,
      "happening": 2666,
      "ero": 2667,
      "chase": 2668,
      "boo": 2669,
      "jealous": 2670,
      "dolphin": 2671,
      "cil": 2672,
      "wrapped": 2673,
      "Mrs": 2674,
      "knife": 2675,
      "island": 2676,
      "ured": 2677,
      "Grandpa": 2678,
      "men": 2679,
      "once": 2680,
      "arage": 2681,
      "weird": 2682,
      "dep": 2683,
      "managed": 2684,
      "garage": 2685,
      "fright": 2686,
      "Ne": 2687,
      "hurts": 2688,
      "ado": 2689,
      "pencil": 2690,
      "imed": 2691,
      "Dave": 2692,
      "gust": 2693,
      "sil": 2694,
      "##": 2695,
      "crawled": 2696,
      "learning": 2697,
      "vest": 2698,
      "cro": 2699,
      "ular": 2700,
      "flash": 2701,
      "saying": 2702,
      "already": 2703,
      "kindness": 2704,
      "added": 2705,
      "tough": 2706,
      "mighty": 2707,
      "pointing": 2708,
      "balloons": 2709,
      "market": 2710,
      "favour": 2711,
      "bald": 2712,
      "squee": 2713,
      "four": 2714,
      "apo": 2715,
      "successful": 2716,
      "valu": 2717,
      "norm": 2718,
      "edge": 2719,
      "harm": 2720,
      "oph": 2721,
      "ging": 2722,
      "louder": 2723,
      "port": 2724,
      "Tweety": 2725,
      "batter": 2726,
      "libr": 2727,
      "guit": 2728,
      "spun": 2729,
      "harder": 2730,
      "apolog": 2731,
      "smoke": 2732,
      "pal": 2733,
      "record": 2734,
      "agree": 2735,
      "lean": 2736,
      "fool": 2737,
      "favourite": 2738,
      "whale": 2739,
      "unusual": 2740,
      "lift": 2741,
      "Ow": 2742,
      "enjoying": 2743,
      "dizzy": 2744,
      "hats": 2745,
      "shells": 2746,
      "Bu": 2747,
      "pump": 2748,
      "grace": 2749,
      "belonged": 2750,
      "boxes": 2751,
      "courage": 2752,
      "impressed": 2753,
      "grown": 2754,
      "uggled": 2755,
      "trucks": 2756,
      "city": 2757,
      "yell": 2758,
      "grand": 2759,
      "normal": 2760,
      "sword": 2761,
      "terri": 2762,
      "Soph": 2763,
      "laughs": 2764,
      "trunk": 2765,
      "print": 2766,
      "ature": 2767,
      "cur": 2768,
      "ilt": 2769,
      "Would": 2770,
      "wers": 2771,
      "bin": 2772,
      "ery": 2773,
      "guitar": 2774,
      "loudly": 2775,
      "banana": 2776,
      "illiant": 2777,
      "rat": 2778,
      "turtle": 2779,
      "proudly": 2780,
      "guess": 2781,
      "stream": 2782,
      "scare": 2783,
      "choose": 2784,
      "dreamed": 2785,
      "brilliant": 2786,
      "comple": 2787,
      "cab": 2788,
      "against": 2789,
      "ext": 2790,
      "brothers": 2791,
      "circles": 2792,
      "bossy": 2793,
      "escape": 2794,
      "skin": 2795,
      "stubb": 2796,
      "suit": 2797,
      "stri": 2798,
      "goat": 2799,
      "invited": 2800,
      "Ju": 2801,
      "helps": 2802,
      "acce": 2803,
      "obed": 2804,
      "depend": 2805,
      "pee": 2806,
      "news": 2807,
      "stru": 2808,
      "means": 2809,
      "scr": 2810,
      "frightened": 2811,
      "Lola": 2812,
      "shadow": 2813,
      "safely": 2814,
      "valuable": 2815,
      "cabin": 2816,
      "buttons": 2817,
      "slipped": 2818,
      "birdie": 2819,
      "vice": 2820,
      "stubborn": 2821,
      "happiness": 2822,
      "ancient": 2823,
      "snee": 2824,
      "crayon": 2825,
      "mes": 2826,
      "aced": 2827,
      "study": 2828,
      "cate": 2829,
      "walls": 2830,
      "nail": 2831,
      "breakfast": 2832,
      "Ge": 2833,
      "notice": 2834,
      "obedient": 2835,
      "lights": 2836,
      "clay": 2837,
      "falls": 2838,
      "knows": 2839,
      "orge": 2840,
      "foolish": 2841,
      "sca": 2842,
      "graceful": 2843,
      "adm": 2844,
      "Nemo": 2845,
      "fier": 2846,
      "fat": 2847,
      "fridge": 2848,
      "shape": 2849,
      "tools": 2850,
      "nicely": 2851,
      "pumpkin": 2852,
      "houses": 2853,
      "keys": 2854,
      "clap": 2855,
      "movie": 2856,
      "dreams": 2857,
      "cudd": 2858,
      "ination": 2859,
      "grandpa": 2860,
      "egg": 2861,
      "guard": 2862,
      "fierce": 2863,
      "nosy": 2864,
      "Will": 2865,
      "stat": 2866,
      "design": 2867,
      "bloom": 2868,
      "rh": 2869,
      "delicate": 2870,
      "office": 2871,
      "toma": 2872,
      "jac": 2873,
      "dead": 2874,
      "excla": 2875,
      "compet": 2876,
      "suggested": 2877,
      "vi": 2878,
      "shark": 2879,
      "useful": 2880,
      "wagon": 2881,
      "rubbed": 2882,
      "exclaimed": 2883,
      "kinds": 2884,
      "mixed": 2885,
      "wing": 2886,
      "wiped": 2887,
      "load": 2888,
      "competit": 2889,
      "poured": 2890,
      "reg": 2891,
      "thoughtful": 2892,
      "cart": 2893,
      "zip": 2894,
      "atch": 2895,
      "Next": 2896,
      "ti": 2897,
      "sounded": 2898,
      "stove": 2899,
      "cam": 2900,
      "env": 2901,
      "excitedly": 2902,
      "clock": 2903,
      "law": 2904,
      "explored": 2905,
      "\"${": 2906,
      "aunt": 2907,
      "ountain": 2908,
      "rose": 2909,
      "tem": 2910,
      "bove": 2911,
      "George": 2912,
      "Ho": 2913,
      "!\".": 2914,
      "Whenever": 2915,
      "crack": 2916,
      "playful": 2917,
      "ray": 2918,
      "bags": 2919,
      "frag": 2920,
      "dom": 2921,
      "fresh": 2922,
      "changed": 2923,
      "ipp": 2924,
      "dough": 2925,
      "meal": 2926,
      "epend": 2927,
      "weal": 2928,
      "fountain": 2929,
      "Ducky": 2930,
      "above": 2931,
      "spoiled": 2932,
      "themselves": 2933,
      "stumbled": 2934,
      "angel": 2935,
      "bushes": 2936,
      "bounce": 2937,
      "showing": 2938,
      "ines": 2939,
      "robe": 2940,
      "fingers": 2941,
      "os": 2942,
      "witch": 2943,
      "independ": 2944,
      "built": 2945,
      "fragile": 2946,
      "hun": 2947,
      "orig": 2948,
      "smaller": 2949,
      "dependable": 2950,
      "seem": 2951,
      "raced": 2952,
      "sof": 2953,
      "roof": 2954,
      "dge": 2955,
      "spinning": 2956,
      "tele": 2957,
      "rode": 2958,
      "wrap": 2959,
      "ject": 2960,
      "stretch": 2961,
      "inal": 2962,
      "arry": 2963,
      "brightly": 2964,
      "practice": 2965,
      "create": 2966,
      "handed": 2967,
      "delighted": 2968,
      "gum": 2969,
      "enorm": 2970,
      "cone": 2971,
      "admired": 2972,
      "enormous": 2973,
      "oc": 2974,
      "counted": 2975,
      "kicked": 2976,
      "cing": 2977,
      "Toby": 2978,
      "Mike": 2979,
      "shone": 2980,
      "solve": 2981,
      "reminded": 2982,
      "twig": 2983,
      "memor": 2984,
      "cube": 2985,
      "acorn": 2986,
      "independent": 2987,
      "lli": 2988,
      "snif": 2989,
      "sauce": 2990,
      "hammer": 2991,
      "original": 2992,
      "bees": 2993,
      "bitter": 2994,
      "sal": 2995,
      "chir": 2996,
      "post": 2997,
      "hoop": 2998,
      "whispered": 2999,
      "chose": 3000,
      "anut": 3001,
      "jolly": 3002,
      "lolli": 3003,
      "umbre": 3004,
      "tunnel": 3005,
      "serious": 3006,
      "stronger": 3007,
      "steal": 3008,
      "unknown": 3009,
      "tummy": 3010,
      "return": 3011,
      "beak": 3012,
      "allowed": 3013,
      "boats": 3014,
      "terrible": 3015,
      "parrot": 3016,
      "spend": 3017,
      "painted": 3018,
      "popcorn": 3019,
      "œYes": 3020,
      "moder": 3021,
      "hairy": 3022,
      "rushed": 3023,
      "ended": 3024,
      "bean": 3025,
      "reli": 3026,
      "arrow": 3027,
      "cleaning": 3028,
      "view": 3029,
      "dust": 3030,
      "}\"": 3031,
      "Joey": 3032,
      "Mil": 3033,
      "finding": 3034,
      "leaving": 3035,
      "doesn": 3036,
      "joined": 3037,
      "tti": 3038,
      "gasped": 3039,
      "iver": 3040,
      "erry": 3041,
      "pota": 3042,
      "salad": 3043,
      "picking": 3044,
      "half": 3045,
      "Bear": 3046,
      "host": 3047,
      "upid": 3048,
      "bump": 3049,
      "clum": 3050,
      "metal": 3051,
      "reliable": 3052,
      "dove": 3053,
      "yet": 3054,
      "vet": 3055,
      "sink": 3056,
      "toast": 3057,
      "amond": 3058,
      "uring": 3059,
      "fort": 3060,
      "those": 3061,
      "tank": 3062,
      "Kim": 3063,
      "ya": 3064,
      "liz": 3065,
      "nur": 3066,
      "Bill": 3067,
      "forth": 3068,
      "hay": 3069,
      "advice": 3070,
      "hetti": 3071,
      "aghetti": 3072,
      "diamond": 3073,
      "modern": 3074,
      "fed": 3075,
      "tern": 3076,
      "thinking": 3077,
      "gem": 3078,
      "barber": 3079,
      "glo": 3080,
      "holds": 3081,
      "lex": 3082,
      "regular": 3083,
      "pirate": 3084,
      "Paul": 3085,
      "wealthy": 3086,
      "stupid": 3087,
      "ations": 3088,
      "Polly": 3089,
      "marble": 3090,
      "ugged": 3091,
      "sleeping": 3092,
      "ingred": 3093,
      "clumsy": 3094,
      "ingredient": 3095,
      "telling": 3096,
      "searching": 3097,
      "yarn": 3098,
      "patch": 3099,
      "ilty": 3100,
      "flex": 3101,
      "spaghetti": 3102,
      "ges": 3103,
      "guilty": 3104,
      "Andy": 3105,
      "Char": 3106,
      "peanut": 3107,
      "goose": 3108,
      "œWhat": 3109,
      "Sophie": 3110,
      "bble": 3111,
      "engine": 3112,
      "compass": 3113,
      "opens": 3114,
      "cane": 3115,
      "noon": 3116,
      "stage": 3117,
      "missing": 3118,
      "thunder": 3119,
      "Alex": 3120,
      "square": 3121,
      "cco": 3122,
      "io": 3123,
      "lla": 3124,
      "cod": 3125,
      "ither": 3126,
      "lope": 3127,
      "crazy": 3128,
      "roy": 3129,
      "camera": 3130,
      "popul": 3131,
      "umbrella": 3132,
      "driving": 3133,
      "washed": 3134,
      "popular": 3135,
      "beet": 3136,
      "shiver": 3137,
      "library": 3138,
      "thirst": 3139,
      "carrying": 3140,
      "Bye": 3141,
      "lives": 3142,
      "illa": 3143,
      "dreaming": 3144,
      "dull": 3145,
      "œIt": 3146,
      "brace": 3147,
      "sparkled": 3148,
      "truth": 3149,
      "Ru": 3150,
      "flexible": 3151,
      "friendship": 3152,
      "rise": 3153,
      "seeds": 3154,
      "stal": 3155,
      "impressive": 3156,
      "tied": 3157,
      "handle": 3158,
      "sne": 3159,
      "ages": 3160,
      "wander": 3161,
      "careless": 3162,
      "imagined": 3163,
      "deliver": 3164,
      "tered": 3165,
      "sty": 3166,
      "jacket": 3167,
      "nature": 3168,
      "main": 3169,
      "destroy": 3170,
      "reward": 3171,
      "ince": 3172,
      "pattern": 3173,
      "ley": 3174,
      "verse": 3175,
      "ingredients": 3176,
      "wheels": 3177,
      "shocked": 3178,
      "prize": 3179,
      "ordin": 3180,
      "echo": 3181,
      "sudden": 3182,
      "crocod": 3183,
      "charm": 3184,
      "cupboard": 3185,
      "enth": 3186,
      "ordinary": 3187,
      "compassion": 3188,
      "Un": 3189,
      "coo": 3190,
      "pige": 3191,
      "fork": 3192,
      "windows": 3193,
      "enve": 3194,
      "stack": 3195,
      "persist": 3196,
      "may": 3197,
      "thirsty": 3198,
      "sadly": 3199,
      "reading": 3200,
      "rece": 3201,
      "stranger": 3202,
      "doors": 3203,
      "value": 3204,
      "serve": 3205,
      "enthus": 3206,
      "desk": 3207,
      "Or": 3208,
      "œLetâ": 3209,
      "early": 3210,
      "wire": 3211,
      "discover": 3212,
      "names": 3213,
      "planet": 3214,
      "numbers": 3215,
      "hunter": 3216,
      "guin": 3217,
      "est": 3218,
      "peeked": 3219,
      "given": 3220,
      "comput": 3221,
      "penny": 3222,
      "butterflies": 3223,
      "lim": 3224,
      "screen": 3225,
      "ience": 3226,
      "ief": 3227,
      "spilled": 3228,
      "bracelet": 3229,
      "rug": 3230,
      "torn": 3231,
      "Al": 3232,
      "stops": 3233,
      "cran": 3234,
      "spring": 3235,
      "ahead": 3236,
      "avo": 3237,
      "steps": 3238,
      "towers": 3239,
      "sorts": 3240,
      "spoke": 3241,
      "anx": 3242,
      "bent": 3243,
      "base": 3244,
      "flashlight": 3245,
      "cli": 3246,
      "intell": 3247,
      "intellig": 3248,
      "penguin": 3249,
      "super": 3250,
      "warned": 3251,
      "earth": 3252,
      "placed": 3253,
      "humble": 3254,
      "older": 3255,
      "reci": 3256,
      "polish": 3257,
      "sses": 3258,
      "mailbox": 3259,
      "pup": 3260,
      "cheap": 3261,
      "asses": 3262,
      "uncomfortable": 3263,
      "aid": 3264,
      "Pat": 3265,
      "Yay": 3266,
      "sunflower": 3267,
      "anda": 3268,
      "complete": 3269,
      "pale": 3270,
      "gling": 3271,
      "travel": 3272,
      "scale": 3273,
      "badly": 3274,
      "inde": 3275,
      "anxious": 3276,
      "slides": 3277,
      "remain": 3278,
      "biggest": 3279,
      "couldnâ": 3280,
      "growing": 3281,
      "flute": 3282,
      "counting": 3283,
      "statue": 3284,
      "ribb": 3285,
      "cooking": 3286,
      "tic": 3287,
      "celebrate": 3288,
      "lizard": 3289,
      "ctive": 3290,
      "beetle": 3291,
      "scat": 3292,
      "scoo": 3293,
      "package": 3294,
      "coco": 3295,
      "harmless": 3296,
      "bull": 3297,
      "beep": 3298,
      "sofa": 3299,
      "shut": 3300,
      "beauty": 3301,
      "sity": 3302,
      "fan": 3303,
      "deaf": 3304,
      "gloom": 3305,
      "mole": 3306,
      "pear": 3307,
      "shoot": 3308,
      "persistent": 3309,
      "track": 3310,
      "nurse": 3311,
      "cakes": 3312,
      "Hen": 3313,
      "crocodile": 3314,
      "ghost": 3315,
      "gifted": 3316,
      "trick": 3317,
      "jumps": 3318,
      "shad": 3319,
      "refused": 3320,
      "charming": 3321,
      "cereal": 3322,
      "coll": 3323,
      "flour": 3324,
      "yawn": 3325,
      "iches": 3326,
      "drop": 3327,
      "crane": 3328,
      "jet": 3329,
      "neat": 3330,
      "pretending": 3331,
      "pony": 3332,
      "sandwiches": 3333,
      "ener": 3334,
      "raven": 3335,
      "curt": 3336,
      "tion": 3337,
      "snuggled": 3338,
      "cture": 3339,
      "curtain": 3340,
      "tur": 3341,
      "aches": 3342,
      "chasing": 3343,
      "comb": 3344,
      "tled": 3345,
      "rules": 3346,
      "question": 3347,
      "neighb": 3348,
      "suppl": 3349,
      "envelope": 3350,
      "triang": 3351,
      "drawer": 3352,
      "pian": 3353,
      "clu": 3354,
      "attra": 3355,
      "computer": 3356,
      "octop": 3357,
      "shroom": 3358,
      "crawl": 3359,
      "ffin": 3360,
      "lively": 3361,
      "uncle": 3362,
      "az": 3363,
      "gloomy": 3364,
      "carto": 3365,
      "intelligent": 3366,
      "speed": 3367,
      "Grace": 3368,
      "scooter": 3369,
      "trap": 3370,
      "piano": 3371,
      "shaking": 3372,
      "needle": 3373,
      "helmet": 3374,
      "crystal": 3375,
      "swee": 3376,
      "hurry": 3377,
      "ense": 3378,
      "ubby": 3379,
      "mushroom": 3380,
      "collar": 3381,
      "separ": 3382,
      "skip": 3383,
      "pho": 3384,
      "parade": 3385,
      "creatures": 3386,
      "jug": 3387,
      "rub": 3388,
      "uddy": 3389,
      "œThat": 3390,
      "octopus": 3391,
      "twirled": 3392,
      "photo": 3393,
      "ceed": 3394,
      "Henry": 3395,
      "erable": 3396,
      "secon": 3397,
      "chance": 3398,
      "alert": 3399,
      "cycle": 3400,
      "stic": 3401,
      "miserable": 3402,
      "icycle": 3403,
      "Before": 3404,
      "thief": 3405,
      "zebra": 3406,
      "station": 3407,
      "soldier": 3408,
      "pepper": 3409,
      "sailor": 3410,
      "sheet": 3411,
      "five": 3412,
      "disgust": 3413,
      "anywhere": 3414,
      "Annie": 3415,
      "stretched": 3416,
      "Brownie": 3417,
      "dug": 3418,
      "fireman": 3419,
      "repe": 3420,
      "bicycle": 3421,
      "por": 3422,
      "ignorant": 3423,
      "Charlie": 3424,
      "seal": 3425,
      "comm": 3426,
      "wishes": 3427,
      "ckets": 3428,
      "cap": 3429,
      "bandage": 3430,
      "knot": 3431,
      "stickers": 3432,
      "Mag": 3433,
      "radio": 3434,
      "helpless": 3435,
      "bounced": 3436,
      "Bun": 3437,
      "thread": 3438,
      "message": 3439,
      "hood": 3440,
      "trash": 3441,
      "file": 3442,
      "belt": 3443,
      "leash": 3444,
      "turkey": 3445,
      "cob": 3446,
      "practiced": 3447,
      "gie": 3448,
      "respectful": 3449,
      "ffle": 3450,
      "attractive": 3451,
      "iss": 3452,
      "ador": 3453,
      "letters": 3454,
      "ost": 3455,
      "Everything": 3456,
      "lollipop": 3457,
      "impat": 3458,
      "Bet": 3459,
      "camp": 3460,
      "pasta": 3461,
      "stirred": 3462,
      "jeep": 3463,
      "Jerry": 3464,
      "nobody": 3465,
      "bet": 3466,
      "sum": 3467,
      "chubby": 3468,
      "pipe": 3469,
      "compassionate": 3470,
      "gir": 3471,
      "olin": 3472,
      "pigeon": 3473,
      "Tweetie": 3474,
      "distur": 3475,
      "listening": 3476,
      "..": 3477,
      "leo": 3478,
      "quar": 3479,
      "club": 3480,
      "muffin": 3481,
      "screw": 3482,
      "ccoli": 3483,
      "succeed": 3484,
      "trum": 3485,
      "decorate": 3486,
      "pressed": 3487,
      "cocoa": 3488,
      "aff": 3489,
      "brighter": 3490,
      "tire": 3491,
      "competitive": 3492,
      "impatient": 3493,
      "itself": 3494,
      "otter": 3495,
      "further": 3496,
      "theart": 3497,
      "tray": 3498,
      "arian": 3499,
      "scoop": 3500,
      "Sandy": 3501,
      "Snow": 3502,
      "troubled": 3503,
      "Lilly": 3504,
      "starts": 3505,
      "igator": 3506,
      "tooth": 3507,
      "ded": 3508,
      "attic": 3509,
      "candle": 3510,
      "mug": 3511,
      "fis": 3512,
      "nuts": 3513,
      "iest": 3514,
      "melon": 3515,
      "pun": 3516,
      "hook": 3517,
      "restless": 3518,
      "vine": 3519,
      "gn": 3520,
      "somewhere": 3521,
      "Red": 3522,
      "Did": 3523,
      "Danny": 3524,
      "Is": 3525,
      "cards": 3526,
      "spir": 3527,
      "glasses": 3528,
      "shoe": 3529,
      "aur": 3530,
      "knock": 3531,
      "gor": 3532,
      "ino": 3533,
      "disgusting": 3534,
      "desser": 3535,
      "anyway": 3536,
      "carpet": 3537,
      "adorable": 3538,
      "shouts": 3539,
      "repair": 3540,
      "mask": 3541,
      "restaur": 3542,
      "fearful": 3543,
      "leopar": 3544,
      "Cl": 3545,
      "pants": 3546,
      "mission": 3547,
      "ction": 3548,
      "waffle": 3549,
      "envious": 3550,
      "aked": 3551,
      "gain": 3552,
      "meow": 3553,
      "perform": 3554,
      "exper": 3555,
      "distant": 3556,
      "alligator": 3557,
      "heli": 3558,
      "copter": 3559,
      "hive": 3560,
      "broccoli": 3561,
      "filthy": 3562,
      "iastic": 3563,
      "sweetheart": 3564,
      "object": 3565,
      "tube": 3566,
      "enthusiastic": 3567,
      "afternoon": 3568,
      "hipp": 3569,
      "cooked": 3570,
      "Lee": 3571,
      "kers": 3572,
      "unk": 3573,
      "giggle": 3574,
      "bri": 3575,
      "papers": 3576,
      "helicopter": 3577,
      "monkeys": 3578,
      "hall": 3579,
      "vol": 3580,
      "complain": 3581,
      "harsh": 3582,
      "sie": 3583,
      "aroo": 3584,
      "angaroo": 3585,
      "sort": 3586,
      "sandbox": 3587,
      "restaurant": 3588,
      "admi": 3589,
      "nowhere": 3590,
      "speak": 3591,
      "ache": 3592,
      "backpack": 3593,
      "meas": 3594,
      "country": 3595,
      "ath": 3596,
      "poem": 3597,
      "Maria": 3598,
      "bathtub": 3599,
      "Bunny": 3600,
      "squash": 3601,
      "trumpet": 3602,
      "quite": 3603,
      "aero": 3604,
      "barking": 3605,
      "Whis": 3606,
      "Baby": 3607,
      "cows": 3608,
      "Millie": 3609,
      "ween": 3610,
      "kangaroo": 3611,
      "mama": 3612,
      "Jess": 3613,
      "pit": 3614,
      "twist": 3615,
      "leopard": 3616,
      "rice": 3617,
      "happier": 3618,
      "bur": 3619,
      "Mim": 3620,
      "sle": 3621,
      "admire": 3622,
      "summer": 3623,
      "Kate": 3624,
      "grabs": 3625,
      "stared": 3626,
      "size": 3627,
      "cricket": 3628,
      "Mimi": 3629,
      "support": 3630,
      "cush": 3631,
      "violin": 3632,
      "firework": 3633,
      "didnâ": 3634,
      "ostrich": 3635,
      "human": 3636,
      "impro": 3637,
      "pilot": 3638,
      "mule": 3639,
      "either": 3640,
      "spell": 3641,
      "modest": 3642,
      "zi": 3643,
      "reco": 3644,
      "paid": 3645,
      "gorilla": 3646,
      "finds": 3647,
      "behave": 3648,
      "These": 3649,
      "Papa": 3650,
      "Harry": 3651,
      "meat": 3652,
      "dessert": 3653,
      "castles": 3654,
      "mill": 3655,
      "Po": 3656,
      "hedge": 3657,
      "rolling": 3658,
      "wever": 3659,
      "pulls": 3660,
      "tripped": 3661,
      "Buddy": 3662,
      "resc": 3663,
      "jellyfish": 3664,
      "sport": 3665,
      "rescue": 3666,
      "paws": 3667,
      "dar": 3668,
      "recogn": 3669,
      "holes": 3670,
      "yogurt": 3671,
      "hippo": 3672,
      "organize": 3673,
      "lk": 3674,
      "kne": 3675,
      "ucked": 3676,
      "tick": 3677,
      "roared": 3678,
      "forgave": 3679,
      "cats": 3680,
      "split": 3681,
      "wheat": 3682,
      "choice": 3683,
      "purse": 3684,
      "salt": 3685,
      "tax": 3686,
      "bikes": 3687,
      "starting": 3688,
      "lions": 3689,
      "pushing": 3690,
      "inclu": 3691,
      "appl": 3692,
      "cact": 3693,
      "swinging": 3694,
      "scold": 3695,
      "shade": 3696,
      "napkin": 3697,
      "Sm": 3698,
      "lightning": 3699,
      "buzz": 3700,
      "oat": 3701,
      "chain": 3702,
      "cano": 3703,
      "lands": 3704,
      "Thanks": 3705,
      "haircut": 3706,
      "triangle": 3707,
      "fac": 3708,
      "energy": 3709,
      "iron": 3710,
      "ris": 3711,
      "Whiskers": 3712,
      "math": 3713,
      "riding": 3714,
      "teas": 3715,
      "frowned": 3716,
      "learnt": 3717,
      "porch": 3718,
      "dive": 3719,
      "laun": 3720,
      "tomato": 3721,
      "trains": 3722,
      "resp": 3723,
      "pole": 3724,
      "send": 3725,
      "astic": 3726,
      "bubble": 3727,
      "luck": 3728,
      "sticker": 3729,
      "rod": 3730,
      "raft": 3731,
      "panda": 3732,
      "wallet": 3733,
      "aled": 3734,
      "evening": 3735,
      "chalk": 3736,
      "bananas": 3737,
      "seum": 3738,
      "museum": 3739,
      "inking": 3740,
      "sweater": 3741,
      "palace": 3742,
      "jokes": 3743,
      "Tony": 3744,
      "appreci": 3745,
      "taxi": 3746,
      "strawberry": 3747,
      "inse": 3748,
      "shakes": 3749,
      "bears": 3750,
      "volcano": 3751,
      "${": 3752,
      "shopkeeper": 3753,
      "boots": 3754,
      "fee": 3755,
      "spirit": 3756,
      "comet": 3757,
      "cado": 3758,
      "bby": 3759,
      "hadn": 3760,
      "neighbour": 3761,
      "James": 3762,
      "barrel": 3763,
      "alive": 3764,
      "sock": 3765,
      "offee": 3766,
      "silver": 3767,
      "iling": 3768,
      "web": 3769,
      "smells": 3770,
      "reinde": 3771,
      "une": 3772,
      "avail": 3773,
      "œYou": 3774,
      "steak": 3775,
      "laundry": 3776,
      "cel": 3777,
      "avocado": 3778,
      "goal": 3779,
      "cactus": 3780,
      "shield": 3781,
      "pushes": 3782,
      "troph": 3783,
      "chan": 3784,
      "putting": 3785,
      "visited": 3786,
      "judge": 3787,
      "magnet": 3788,
      "softly": 3789,
      "mild": 3790,
      "tricks": 3791,
      "resist": 3792,
      "checked": 3793,
      "notebook": 3794,
      "microphone": 3795,
      "drawings": 3796,
      "Flo": 3797,
      "clapping": 3798,
      "colours": 3799,
      "leaned": 3800,
      "falling": 3801,
      "shel": 3802,
      "edy": 3803,
      "shovel": 3804,
      "zoomed": 3805,
      "planes": 3806,
      "trem": 3807,
      "comfort": 3808,
      "bol": 3809,
      "gro": 3810,
      "awe": 3811,
      "belongs": 3812,
      "motorcycle": 3813,
      "Tr": 3814,
      "sprink": 3815,
      "counter": 3816,
      "climbing": 3817,
      "airport": 3818,
      "Maggie": 3819,
      "bulance": 3820,
      "quarrel": 3821,
      "available": 3822,
      "ambulance": 3823,
      "Kat": 3824,
      "marched": 3825,
      "shelter": 3826,
      "fields": 3827,
      "pebble": 3828,
      "reindeer": 3829,
      "sau": 3830,
      "vend": 3831,
      "oy": 3832,
      "aeroplane": 3833,
      "mas": 3834,
      "enter": 3835,
      "scope": 3836,
      "donâ": 3837,
      "dishes": 3838,
      "barks": 3839,
      "vator": 3840,
      "grapes": 3841,
      "journ": 3842,
      "coffee": 3843,
      "peek": 3844,
      "apologized": 3845,
      "yach": 3846,
      "soil": 3847,
      "skill": 3848,
      "stume": 3849,
      "elevator": 3850,
      "beam": 3851,
      "costume": 3852,
      "trophy": 3853,
      "loop": 3854,
      "task": 3855,
      "vroom": 3856,
      "raining": 3857,
      "Su": 3858,
      "danger": 3859,
      "feelings": 3860,
      "hoping": 3861,
      "drops": 3862,
      "poke": 3863,
      "page": 3864,
      "film": 3865,
      "rubber": 3866,
      "unhappy": 3867,
      "thanks": 3868,
      "shrimp": 3869,
      "medal": 3870,
      "marry": 3871,
      "minute": 3872,
      "unlock": 3873,
      "kitty": 3874,
      "€“": 3875,
      "celery": 3876,
      "chanic": 3877,
      "lang": 3878,
      "onion": 3879,
      "journal": 3880,
      "eraser": 3881,
      "shouldn": 3882,
      "rhino": 3883,
      "yacht": 3884,
      "fisher": 3885,
      "imagine": 3886,
      "vendor": 3887,
      "ait": 3888,
      "perfectly": 3889,
      "winter": 3890,
      "wool": 3891,
      "mechanic": 3892,
      "diary": 3893,
      "bbles": 3894,
      "Clara": 3895,
      "player": 3896,
      "closely": 3897,
      "cardboard": 3898,
      "May": 3899,
      "magaz": 3900,
      "pted": 3901,
      "tap": 3902,
      "quit": 3903,
      "eagerly": 3904,
      "Smith": 3905,
      "prune": 3906,
      "poss": 3907,
      "second": 3908,
      "baking": 3909,
      "basketball": 3910,
      "glove": 3911,
      "iture": 3912,
      "urniture": 3913,
      "sym": 3914,
      "bey": 3915,
      "pine": 3916,
      "fog": 3917,
      "hut": 3918,
      "furniture": 3919,
      "stuffed": 3920,
      "breaks": 3921,
      "urch": 3922,
      "nder": 3923,
      "treasures": 3924,
      "headed": 3925,
      "imagination": 3926,
      "pow": 3927,
      "nament": 3928,
      "Sp": 3929,
      "church": 3930,
      "freez": 3931,
      "between": 3932,
      "wife": 3933,
      "cooler": 3934,
      "ws": 3935,
      "frogs": 3936,
      "sub": 3937,
      "switch": 3938,
      "skull": 3939,
      "cups": 3940,
      "ides": 3941,
      "squi": 3942,
      "Instead": 3943,
      "langu": 3944,
      "lap": 3945,
      "offer": 3946,
      "chor": 3947,
      "created": 3948,
      "ER": 3949,
      "cheek": 3950,
      "factory": 3951,
      "petal": 3952,
      "folder": 3953,
      "affe": 3954,
      "swung": 3955,
      "uli": 3956,
      "stamp": 3957,
      "oe": 3958,
      "twis": 3959,
      "mm": 3960,
      "flame": 3961,
      "football": 3962,
      "hotel": 3963,
      "tip": 3964,
      "reeze": 3965,
      "Wait": 3966,
      "twink": 3967,
      "tear": 3968,
      "died": 3969,
      "golf": 3970,
      "ox": 3971,
      "shouting": 3972,
      "heads": 3973,
      "seeing": 3974,
      "kele": 3975,
      "painter": 3976,
      "God": 3977,
      "Iâ": 3978,
      "mosqui": 3979,
      "disappear": 3980,
      "Because": 3981,
      "attent": 3982,
      "blowing": 3983,
      "keleton": 3984,
      "frame": 3985,
      "video": 3986,
      "peach": 3987,
      "ornament": 3988,
      "cauli": 3989,
      "ccer": 3990,
      "mixer": 3991,
      "crash": 3992,
      "True": 3993,
      "breathe": 3994,
      "point": 3995,
      "izes": 3996,
      "oil": 3997,
      "throws": 3998,
      "pirates": 3999,
      "coal": 4000,
      "parent": 4001,
      "powder": 4002,
      "buck": 4003,
      "First": 4004,
      "potato": 4005,
      "sna": 4006,
      "symbol": 4007,
      "crow": 4008,
      "since": 4009,
      "cushion": 4010,
      "soccer": 4011,
      "fisherman": 4012,
      "zzy": 4013,
      "umber": 4014,
      "weigh": 4015,
      "sunset": 4016,
      "Ste": 4017,
      "cable": 4018,
      "Car": 4019,
      "wipe": 4020,
      "popped": 4021,
      "horses": 4022,
      "azz": 4023,
      "skeleton": 4024,
      "battery": 4025,
      "attention": 4026,
      "cauliflower": 4027,
      "Have": 4028,
      "laser": 4029,
      "weather": 4030,
      "forgotten": 4031,
      "Miss": 4032,
      "itâ": 4033,
      "fishing": 4034,
      "celebrated": 4035,
      "enny": 4036,
      "Rosie": 4037,
      "medi": 4038,
      "trail": 4039,
      "slept": 4040,
      "yoga": 4041,
      "shoo": 4042,
      "points": 4043,
      "maze": 4044,
      "surround": 4045,
      "waving": 4046,
      "intro": 4047,
      "knob": 4048,
      "sneak": 4049,
      "anchor": 4050,
      "giraffe": 4051,
      "ceros": 4052,
      "introd": 4053,
      "dear": 4054,
      "lend": 4055,
      "Co": 4056,
      "pas": 4057,
      "unpack": 4058,
      "chirp": 4059,
      "flea": 4060,
      "Tina": 4061,
      "swamp": 4062,
      "glowing": 4063,
      "sisted": 4064,
      "ding": 4065,
      "fireplace": 4066,
      "breeze": 4067,
      "tutor": 4068,
      "ckey": 4069,
      "grin": 4070,
      "sunglasses": 4071,
      "kingdom": 4072,
      "mop": 4073,
      "memories": 4074,
      "streng": 4075,
      "tuna": 4076,
      "rhinoceros": 4077,
      "bulb": 4078,
      "capt": 4079,
      "axe": 4080,
      "reve": 4081,
      "petals": 4082,
      "mistakes": 4083,
      "dancer": 4084,
      "chickens": 4085,
      "strength": 4086,
      "aking": 4087,
      "writing": 4088,
      "ceiling": 4089,
      "greedy": 4090,
      "hockey": 4091,
      "squirrels": 4092,
      "cuss": 4093,
      "sir": 4094,
      "igloo": 4095,
      "warning": 4096,
      "hanging": 4097,
      "sniffed": 4098,
      "grocer": 4099,
      "golden": 4100,
      "tress": 4101,
      "superhero": 4102,
      "experience": 4103,
      "argue": 4104,
      "eaten": 4105,
      "short": 4106,
      "Qu": 4107,
      "staff": 4108,
      "bury": 4109,
      "trave": 4110,
      "sting": 4111,
      "musician": 4112,
      "Wel": 4113,
      "skirt": 4114,
      "Welcome": 4115,
      "si": 4116,
      "temple": 4117,
      "mediately": 4118,
      "discuss": 4119,
      "possible": 4120,
      "tol": 4121,
      "theater": 4122,
      "baseball": 4123,
      "dire": 4124,
      "uniform": 4125,
      "comed": 4126,
      "cared": 4127,
      "slipper": 4128,
      "surre": 4129,
      "welcomed": 4130,
      "lime": 4131,
      "zipper": 4132,
      "pis": 4133,
      "shoulder": 4134,
      "moves": 4135,
      "quietly": 4136,
      "meeting": 4137,
      "invest": 4138,
      "cell": 4139,
      "microscope": 4140,
      "pinch": 4141,
      "calls": 4142,
      "served": 4143,
      "flapped": 4144,
      "accepted": 4145,
      "washer": 4146,
      "slippery": 4147,
      "investig": 4148,
      "fought": 4149,
      "pistol": 4150,
      "miner": 4151,
      "throwing": 4152,
      "erc": 4153,
      "radish": 4154,
      "plastic": 4155,
      "bouncing": 4156,
      "creek": 4157,
      "kayak": 4158,
      "coats": 4159,
      "novel": 4160,
      "lawy": 4161,
      "sticky": 4162,
      "lic": 4163,
      "ms": 4164,
      "accept": 4165,
      "chim": 4166,
      "iv": 4167,
      "freezer": 4168,
      "armchair": 4169,
      "lotion": 4170,
      "fauce": 4171,
      "ison": 4172,
      "suff": 4173,
      "makeup": 4174,
      "rake": 4175,
      "reef": 4176,
      "mystery": 4177,
      "tug": 4178,
      "regre": 4179,
      "quack": 4180,
      "investigate": 4181,
      "sailing": 4182,
      "cherries": 4183,
      "Zoe": 4184,
      "crib": 4185,
      "exerc": 4186,
      "mattress": 4187,
      "presents": 4188,
      "prevent": 4189,
      "appro": 4190,
      "faucet": 4191,
      "oyster": 4192,
      "exit": 4193,
      "applau": 4194,
      "####": 4195,
      "splashing": 4196,
      "ilet": 4197,
      "worth": 4198,
      "blin": 4199,
      "language": 4200,
      "collected": 4201,
      "ticket": 4202,
      "separate": 4203,
      "happens": 4204,
      "dressed": 4205,
      "stable": 4206,
      "dishwasher": 4207,
      "Freddy": 4208,
      "magazine": 4209,
      "wags": 4210,
      "oking": 4211,
      "sprayed": 4212,
      "toilet": 4213,
      "œItâ": 4214,
      "veil": 4215,
      "Ex": 4216,
      "label": 4217,
      "entered": 4218,
      "rush": 4219,
      "chess": 4220,
      "shrugged": 4221,
      "alarm": 4222,
      "scolded": 4223,
      "cabinet": 4224,
      "display": 4225,
      "ctions": 4226,
      "yield": 4227,
      "ignored": 4228,
      "argu": 4229,
      "sigh": 4230,
      "attach": 4231,
      "regret": 4232,
      "blankets": 4233,
      "fant": 4234,
      "Sha": 4235,
      "mosquito": 4236,
      "burned": 4237,
      "lawyer": 4238,
      "tucked": 4239,
      "expe": 4240,
      "chimney": 4241,
      "Milly": 4242,
      "hopes": 4243,
      "follows": 4244,
      "Sad": 4245,
      "keeping": 4246,
      "candles": 4247,
      "kisses": 4248,
      "classroom": 4249,
      "vision": 4250,
      "omed": 4251,
      "easily": 4252,
      "puddles": 4253,
      "apart": 4254,
      "request": 4255,
      "bathe": 4256,
      "chairs": 4257,
      "beef": 4258,
      "thr": 4259,
      "bang": 4260,
      "bother": 4261,
      "dent": 4262,
      "ival": 4263,
      "fortun": 4264,
      "letting": 4265,
      "raz": 4266,
      "straight": 4267,
      "poo": 4268,
      "terin": 4269,
      "model": 4270,
      "veterin": 4271,
      "trusted": 4272,
      "veterinarian": 4273,
      "sizes": 4274,
      "Sun": 4275,
      "wardrobe": 4276,
      "root": 4277,
      "slice": 4278,
      "caring": 4279,
      "razor": 4280,
      "Ruby": 4281,
      "apr": 4282,
      "opera": 4283,
      "jewelry": 4284,
      "blinked": 4285,
      "shower": 4286,
      "rooms": 4287,
      "missile": 4288,
      "cts": 4289,
      "incre": 4290,
      "However": 4291,
      "lawn": 4292,
      "couraged": 4293,
      "una": 4294,
      "crossed": 4295,
      "oak": 4296,
      "blouse": 4297,
      "atched": 4298,
      "lab": 4299,
      "newspaper": 4300,
      "telephone": 4301,
      "trade": 4302,
      "claws": 4303,
      "puzzles": 4304,
      "tornado": 4305,
      "hon": 4306,
      "following": 4307,
      "mand": 4308,
      "scratch": 4309,
      "recomm": 4310,
      "bookcase": 4311,
      "delay": 4312,
      "ady": 4313,
      "ups": 4314,
      "ement": 4315,
      "blueberries": 4316,
      "amazement": 4317,
      "llen": 4318,
      "squeezed": 4319,
      "People": 4320,
      "kneel": 4321,
      "bookshelf": 4322,
      "ga": 4323,
      "ason": 4324,
      "auto": 4325,
      "Snowy": 4326,
      "subway": 4327,
      "dic": 4328,
      "Not": 4329,
      "nore": 4330,
      "valley": 4331,
      "gym": 4332,
      "grill": 4333,
      "fume": 4334,
      "'.": 4335,
      "steam": 4336,
      "crawling": 4337,
      "E_": 4338,
      "shrink": 4339,
      "padd": 4340,
      "ah": 4341,
      "poked": 4342,
      "sham": 4343,
      "€.": 4344,
      "television": 4345,
      "spear": 4346,
      "improve": 4347,
      "squeeze": 4348,
      "mint": 4349,
      "licks": 4350,
      "helper": 4351,
      "fortunately": 4352,
      "float": 4353,
      "holid": 4354,
      "holiday": 4355,
      "lumber": 4356,
      "drain": 4357,
      "demand": 4358,
      "recei": 4359,
      "matches": 4360,
      "ringing": 4361,
      "shampoo": 4362,
      "diction": 4363,
      "perfume": 4364,
      "isn": 4365,
      "prepar": 4366,
      "lier": 4367,
      "cliff": 4368,
      "ase": 4369,
      "contain": 4370,
      "Happ": 4371,
      "immediately": 4372,
      "ribbon": 4373,
      "dictionary": 4374,
      "melt": 4375,
      "Katie": 4376,
      "fest": 4377,
      "waste": 4378,
      "bill": 4379,
      "decis": 4380,
      "Ol": 4381,
      "growled": 4382,
      "begged": 4383,
      "blood": 4384,
      "fuel": 4385,
      "ideas": 4386,
      "warmth": 4387,
      "mustache": 4388,
      "umb": 4389,
      "sneeze": 4390,
      "rail": 4391,
      "hic": 4392,
      "invite": 4393,
      "gear": 4394,
      "Liz": 4395,
      "Luck": 4396,
      "Each": 4397,
      "birdcage": 4398,
      "vehic": 4399,
      "alright": 4400,
      "rabbits": 4401,
      "calend": 4402,
      "weep": 4403,
      "yucky": 4404,
      "fallen": 4405,
      "Ollie": 4406,
      "below": 4407,
      "bbie": 4408,
      "reverse": 4409,
      "Luckily": 4410,
      "married": 4411,
      "worms": 4412,
      "Ok": 4413,
      "structure": 4414,
      "Rac": 4415,
      "mist": 4416,
      "conf": 4417,
      "vac": 4418,
      "pastry": 4419,
      "laught": 4420,
      "asis": 4421,
      "festival": 4422,
      "mob": 4423,
      "surprises": 4424,
      "King": 4425,
      "bravely": 4426,
      "understanding": 4427,
      "calendar": 4428,
      "oasis": 4429,
      "compl": 4430,
      "wandered": 4431,
      "ON": 4432,
      "laughter": 4433,
      "pages": 4434,
      "hurting": 4435,
      "œNo": 4436,
      "omeday": 4437,
      "ignore": 4438,
      "whip": 4439,
      "hearts": 4440,
      "inky": 4441,
      "cus": 4442,
      "buckle": 4443,
      "anna": 4444,
      "surf": 4445,
      "safety": 4446,
      "reaches": 4447,
      "buried": 4448,
      "apron": 4449,
      "Happy": 4450,
      "automob": 4451,
      "junk": 4452,
      "captain": 4453,
      "plates": 4454,
      "admir": 4455,
      "strawberries": 4456,
      "Joy": 4457,
      "myself": 4458,
      "relaxed": 4459,
      "Rachel": 4460,
      "sandcastle": 4461,
      "skills": 4462,
      "invit": 4463,
      "Steve": 4464,
      "brain": 4465,
      "pastel": 4466,
      "spade": 4467,
      "moments": 4468,
      "----": 4469,
      "htray": 4470,
      "quiz": 4471,
      "Buzz": 4472,
      "gers": 4473,
      "ashtray": 4474,
      "Poppy": 4475,
      "received": 4476,
      "raise": 4477,
      "py": 4478,
      "bathrobe": 4479,
      "Its": 4480,
      "beamed": 4481,
      "Betsy": 4482,
      "snapped": 4483,
      "saving": 4484,
      "friger": 4485,
      "uggling": 4486,
      "frigerator": 4487,
      "offic": 4488,
      "someday": 4489,
      "wag": 4490,
      "oper": 4491,
      "Everyday": 4492,
      "refrigerator": 4493,
      "icing": 4494,
      "Yuck": 4495,
      "earlier": 4496,
      "weap": 4497,
      "harbor": 4498,
      "remove": 4499,
      "teaching": 4500,
      "perfor": 4501,
      "whist": 4502,
      "sparkling": 4503,
      "nce": 4504,
      "spots": 4505,
      "vanished": 4506,
      "supply": 4507,
      "Ready": 4508,
      "prepare": 4509,
      "insisted": 4510,
      "Penny": 4511,
      "boot": 4512,
      "bumped": 4513,
      "socks": 4514,
      "Frank": 4515,
      "surrender": 4516,
      "Abig": 4517,
      "replace": 4518,
      "blackboard": 4519,
      "dried": 4520,
      "Someone": 4521,
      "permission": 4522,
      "jail": 4523,
      "license": 4524,
      "Abigail": 4525,
      "jewels": 4526,
      "insect": 4527,
      "spending": 4528,
      "Je": 4529,
      "shot": 4530,
      "scattered": 4531,
      "settled": 4532,
      "Dav": 4533,
      "scooped": 4534,
      "sparkle": 4535,
      "snap": 4536,
      "mbers": 4537,
      "chy": 4538,
      "solved": 4539,
      "yawned": 4540,
      "achie": 4541,
      "destroyed": 4542,
      "tease": 4543,
      "tore": 4544,
      "balanc": 4545,
      "encouraged": 4546,
      "beans": 4547,
      "hardly": 4548,
      "dare": 4549,
      "antly": 4550,
      "disturb": 4551,
      "lemonade": 4552,
      "pride": 4553,
      "hanger": 4554,
      "sters": 4555,
      "pulling": 4556,
      "sits": 4557,
      "decorations": 4558,
      "dresses": 4559,
      "hate": 4560,
      "comp": 4561,
      "cuddled": 4562,
      "members": 4563,
      "respons": 4564,
      "vor": 4565,
      "izard": 4566,
      "Ma": 4567,
      "David": 4568,
      "daisy": 4569,
      "equ": 4570,
      "none": 4571,
      "praised": 4572,
      "punish": 4573,
      "ggy": 4574,
      "destination": 4575,
      "hits": 4576,
      "chirping": 4577,
      "proper": 4578,
      "dam": 4579,
      "suffer": 4580,
      "Mmm": 4581,
      "mention": 4582,
      "fastest": 4583,
      "buzzing": 4584,
      "Goodbye": 4585,
      "billboard": 4586,
      "patiently": 4587,
      "bleed": 4588,
      "cartoon": 4589,
      "rhy": 4590,
      "crun": 4591,
      "automobile": 4592,
      "nies": 4593,
      "appreciate": 4594,
      "poppy": 4595,
      "wizard": 4596,
      "nation": 4597,
      "taller": 4598,
      "hers": 4599,
      "mall": 4600,
      "wigg": 4601,
      "bab": 4602,
      "tour": 4603,
      "digg": 4604,
      "restore": 4605,
      "washing": 4606,
      "ium": 4607,
      "wine": 4608,
      "vy": 4609,
      "climbs": 4610,
      "bling": 4611,
      "Cat": 4612,
      "obey": 4613,
      "believed": 4614,
      "digging": 4615,
      "approached": 4616,
      "fied": 4617,
      "hesit": 4618,
      "nie": 4619,
      "score": 4620,
      "setting": 4621,
      "passport": 4622,
      "Ha": 4623,
      "deeper": 4624,
      "homes": 4625,
      "event": 4626,
      "heat": 4627,
      "chamber": 4628,
      "ef": 4629,
      "difference": 4630,
      "mitten": 4631,
      "poison": 4632,
      "sausage": 4633,
      "cobweb": 4634,
      "struggling": 4635,
      "tongue": 4636,
      "hurri": 4637,
      "hills": 4638,
      "provide": 4639,
      "pillows": 4640,
      "sneezed": 4641,
      "Spike": 4642,
      "infant": 4643,
      "tch": 4644,
      "upstairs": 4645,
      "thrilled": 4646,
      "\",": 4647,
      "panic": 4648,
      "universe": 4649,
      "twisted": 4650,
      "glowed": 4651,
      "ometer": 4652,
      "repeat": 4653,
      "vacation": 4654,
      "parts": 4655,
      "worse": 4656,
      "cin": 4657,
      "Exc": 4658,
      "versity": 4659,
      "ipping": 4660,
      "oh": 4661,
      "shooting": 4662,
      "examine": 4663,
      "plays": 4664,
      "airplane": 4665,
      "mometer": 4666,
      "remained": 4667,
      "hurricane": 4668,
      "thermometer": 4669,
      "ranch": 4670,
      "sparkles": 4671,
      "folded": 4672,
      "neighborhood": 4673,
      "orang": 4674,
      "chores": 4675,
      "oranges": 4676,
      "ST": 4677,
      "leak": 4678,
      "floated": 4679,
      "university": 4680,
      "collection": 4681,
      "ku": 4682,
      "weeks": 4683,
      "bun": 4684,
      "lets": 4685,
      "wre": 4686,
      "paints": 4687,
      "Ouch": 4688,
      "bites": 4689,
      "memory": 4690,
      "talent": 4691,
      "during": 4692,
      "floating": 4693,
      "ins": 4694,
      "adium": 4695,
      "fixing": 4696,
      "measured": 4697,
      "sip": 4698,
      "uses": 4699,
      "girls": 4700,
      "fut": 4701,
      "!'": 4702,
      "stadium": 4703,
      "grinned": 4704,
      "future": 4705,
      "thumb": 4706,
      "cherry": 4707,
      "osed": 4708,
      "!\",": 4709,
      "surrounded": 4710,
      "supposed": 4711,
      "toe": 4712,
      "paused": 4713,
      "Unfortunately": 4714,
      "rhyth": 4715,
      "lia": 4716,
      "massage": 4717,
      "brings": 4718,
      "chip": 4719,
      "gifts": 4720,
      "ues": 4721,
      "sprinkles": 4722,
      "scatter": 4723,
      "fas": 4724,
      "lick": 4725,
      "disco": 4726,
      "teaspo": 4727,
      "perm": 4728,
      "œIâ": 4729,
      "grey": 4730,
      "bbled": 4731,
      "signs": 4732,
      "actually": 4733,
      "jazz": 4734,
      "marbles": 4735,
      "Fro": 4736,
      "wisdom": 4737,
      "Ke": 4738,
      "wed": 4739,
      "Remember": 4740,
      "discovery": 4741,
      "flood": 4742,
      "lily": 4743,
      "unite": 4744,
      "tide": 4745,
      "vehicle": 4746,
      "For": 4747,
      "sunrise": 4748,
      "uggle": 4749,
      "Like": 4750,
      "palm": 4751,
      "stomach": 4752,
      "œThatâ": 4753,
      "meowed": 4754,
      "fy": 4755,
      "Mor": 4756,
      "exercise": 4757,
      "urge": 4758,
      "elephants": 4759,
      "rang": 4760,
      "Cla": 4761,
      "lugg": 4762,
      "zag": 4763,
      "mailman": 4764,
      "weapon": 4765,
      "Jam": 4766,
      "Mic": 4767,
      "chewed": 4768,
      "decision": 4769,
      "sore": 4770,
      "Zoom": 4771,
      "observe": 4772,
      "muscle": 4773,
      "Jan": 4774,
      "zipped": 4775,
      "ities": 4776,
      "luggage": 4777,
      "cartoons": 4778,
      "tomatoes": 4779,
      "fascin": 4780,
      "scur": 4781,
      "continue": 4782,
      "lest": 4783,
      "Spark": 4784,
      "curled": 4785,
      "oxy": 4786,
      "Remy": 4787,
      "sunlight": 4788,
      "iers": 4789,
      "beat": 4790,
      "melted": 4791,
      "chirped": 4792,
      "collecting": 4793,
      "spill": 4794,
      "network": 4795,
      "grape": 4796,
      "teaspoon": 4797,
      "bak": 4798,
      "mineral": 4799,
      "Sharing": 4800,
      "Luna": 4801,
      "problems": 4802,
      "manage": 4803,
      "tracks": 4804,
      "skipping": 4805,
      "jogging": 4806,
      "rhythm": 4807,
      "orts": 4808,
      "lip": 4809,
      "wherever": 4810,
      "agreement": 4811,
      "price": 4812,
      "sliding": 4813,
      "mountains": 4814,
      "ipment": 4815,
      "receive": 4816,
      "safar": 4817,
      "satis": 4818,
      "equipment": 4819,
      "laid": 4820,
      "Nina": 4821,
      "growl": 4822,
      "watered": 4823,
      "Thom": 4824,
      "admiring": 4825,
      "sla": 4826,
      "Sh": 4827,
      "bricks": 4828,
      "];": 4829,
      "unic": 4830,
      "patterns": 4831,
      "twigs": 4832,
      "kindly": 4833,
      "petted": 4834,
      "potatoes": 4835,
      "emer": 4836,
      "seats": 4837,
      "Uncle": 4838,
      "soldiers": 4839,
      "nes": 4840,
      "gloves": 4841,
      "IN": 4842,
      "joyed": 4843,
      "image": 4844,
      "copper": 4845,
      "quake": 4846,
      "ordered": 4847,
      "strangers": 4848,
      "rum": 4849,
      "Lu": 4850,
      "overjoyed": 4851,
      "watches": 4852,
      "gotten": 4853,
      "pigs": 4854,
      "works": 4855,
      "Thomas": 4856,
      "pets": 4857,
      "whistling": 4858,
      "ric": 4859,
      "flavor": 4860,
      "Beth": 4861,
      "operation": 4862,
      "stam": 4863,
      "beside": 4864,
      "œThank": 4865,
      "beg": 4866,
      "safari": 4867,
      "Gre": 4868,
      "kube": 4869,
      "prayed": 4870,
      "ddy": 4871,
      "Chlo": 4872,
      "company": 4873,
      "rr": 4874,
      "peered": 4875,
      "weight": 4876,
      "Moral": 4877,
      "invitation": 4878,
      "marching": 4879,
      "Sunny": 4880,
      "Julie": 4881,
      "glitter": 4882,
      "lips": 4883,
      "famil": 4884,
      "wooden": 4885,
      "Suzy": 4886,
      "earthquake": 4887,
      "attached": 4888,
      "igzag": 4889,
      "eagle": 4890,
      "Josh": 4891,
      "doggy": 4892,
      "grocery": 4893,
      "drinks": 4894,
      "AT": 4895,
      "navy": 4896,
      "acorns": 4897,
      "raised": 4898,
      "disagreed": 4899,
      "spike": 4900,
      "weren": 4901,
      "Yum": 4902,
      "release": 4903,
      "ux": 4904,
      "DI": 4905,
      "esca": 4906,
      "Chloe": 4907,
      "stom": 4908,
      "sidewalk": 4909,
      "inst": 4910,
      "burning": 4911,
      "Kay": 4912,
      "rested": 4913,
      "ffic": 4914,
      "mister": 4915,
      "onwards": 4916,
      "beha": 4917,
      "rust": 4918,
      "Chir": 4919,
      "brid": 4920,
      "racing": 4921,
      "happiest": 4922,
      "spoons": 4923,
      "crashed": 4924,
      "crunchy": 4925,
      "Mo": 4926,
      "exact": 4927,
      "Really": 4928,
      "=$": 4929,
      "history": 4930,
      "peanuts": 4931,
      "whistled": 4932,
      "Donâ": 4933,
      "pies": 4934,
      "==": 4935,
      "hurried": 4936,
      "prepared": 4937,
      "officer": 4938,
      "By": 4939,
      "brick": 4940,
      "freshed": 4941,
      "Nut": 4942,
      "refreshed": 4943,
      "Itâ": 4944,
      "bowed": 4945,
      "clearing": 4946,
      "scratched": 4947,
      "remembers": 4948,
      "escaped": 4949,
      "fireworks": 4950,
      "œWe": 4951,
      "menu": 4952,
      "bridges": 4953,
      "dinosaurs": 4954,
      "planted": 4955,
      "items": 4956,
      "easier": 4957,
      "buildings": 4958,
      "revealed": 4959,
      "comfy": 4960,
      "turning": 4961,
      "recognized": 4962,
      "brand": 4963,
      "olive": 4964,
      "screams": 4965,
      "Jamie": 4966,
      "style": 4967,
      "hated": 4968,
      "Ye": 4969,
      "selling": 4970,
      "accompl": 4971,
      "chat": 4972,
      "crept": 4973,
      "precious": 4974,
      "rained": 4975,
      "solut": 4976,
      "simp": 4977,
      "challen": 4978,
      "Sadly": 4979,
      "bones": 4980,
      "ends": 4981,
      "pupp": 4982,
      "Coco": 4983,
      "muddy": 4984,
      "drinking": 4985,
      "nails": 4986,
      "iggling": 4987,
      "beds": 4988,
      "waits": 4989,
      "settle": 4990,
      "sings": 4991,
      "Something": 4992,
      "osity": 4993,
      "spaceship": 4994,
      "reminder": 4995,
      "measuring": 4996,
      "slip": 4997,
      "Sunday": 4998,
      "herb": 4999,
      "vic": 5000,
      "fash": 5001,
      "Big": 5002,
      "lecture": 5003,
      "Hop": 5004,
      "perched": 5005,
      "shadows": 5006,
      "pops": 5007,
      "vers": 5008,
      "RE": 5009,
      "responsible": 5010,
      "zing": 5011,
      "wonders": 5012,
      "pitch": 5013,
      "voices": 5014,
      "œCan": 5015,
      "sages": 5016,
      "cuddle": 5017,
      "secrets": 5018,
      "pedal": 5019,
      "everyday": 5020,
      "comforted": 5021,
      "aren": 5022,
      "choo": 5023,
      "anytime": 5024,
      "succeeded": 5025,
      "circus": 5026,
      "cutting": 5027,
      "whatever": 5028,
      "soared": 5029,
      "swo": 5030,
      "trapped": 5031,
      "freeze": 5032,
      "zigzag": 5033,
      "disturbed": 5034,
      "peel": 5035,
      "loaded": 5036,
      "tastes": 5037,
      "landscape": 5038,
      "apologize": 5039,
      "shopping": 5040,
      "villag": 5041,
      "printer": 5042,
      "bene": 5043,
      "Anne": 5044,
      "velvet": 5045,
      "prints": 5046,
      "Hanna": 5047,
      "writ": 5048,
      "activ": 5049,
      "Rab": 5050,
      "simple": 5051,
      "traffic": 5052,
      "drag": 5053,
      "fashion": 5054,
      "steel": 5055,
      "practicing": 5056,
      "oats": 5057,
      "bringing": 5058,
      "exactly": 5059,
      "six": 5060,
      "sisters": 5061,
      "ising": 5062,
      "rescu": 5063,
      "fetch": 5064,
      "stro": 5065,
      "visiting": 5066,
      "stumes": 5067,
      "Lucky": 5068,
      "costumes": 5069,
      "answers": 5070,
      "breaking": 5071,
      "izing": 5072,
      "olives": 5073,
      "Fol": 5074,
      "brushed": 5075,
      "rul": 5076,
      "soak": 5077,
      "Follow": 5078,
      "mouths": 5079,
      "curiosity": 5080,
      "ky": 5081,
      "Claire": 5082,
      "neath": 5083,
      "ishes": 5084,
      "hoo": 5085,
      "owned": 5086,
      "waist": 5087,
      "rele": 5088,
      "encourage": 5089,
      "aded": 5090,
      "catching": 5091,
      "mare": 5092,
      "De": 5093,
      "knel": 5094,
      "fascinated": 5095,
      "knelt": 5096,
      "creation": 5097,
      "grandmother": 5098,
      "oxygen": 5099,
      "leather": 5100,
      "underground": 5101,
      "villagers": 5102,
      "beneath": 5103,
      "Watch": 5104,
      "waffles": 5105,
      "tune": 5106,
      "unicorn": 5107,
      "Rabbit": 5108,
      "recognize": 5109,
      "sadness": 5110,
      "Always": 5111,
      "rs": 5112,
      "Floppy": 5113,
      "inda": 5114,
      "unlocked": 5115,
      "sterday": 5116,
      "downstairs": 5117,
      "recommend": 5118,
      "fs": 5119,
      "tremble": 5120,
      "monsters": 5121,
      "Tiny": 5122,
      "Those": 5123,
      "instru": 5124,
      "Nutty": 5125,
      "ena": 5126,
      "eats": 5127,
      "iggy": 5128,
      "nightmare": 5129,
      "fail": 5130,
      "prov": 5131,
      "pupil": 5132,
      "bank": 5133,
      "caut": 5134,
      "wanting": 5135,
      "Betty": 5136,
      "Lul": 5137,
      "jogged": 5138,
      "lung": 5139,
      "stripes": 5140,
      "doctors": 5141,
      "ripped": 5142,
      "blueberry": 5143,
      "soaring": 5144,
      "lemons": 5145,
      "gained": 5146,
      "En": 5147,
      "struggled": 5148,
      "punished": 5149,
      "bleeding": 5150,
      "wondering": 5151,
      "Tilly": 5152,
      "wreck": 5153,
      "Jessie": 5154,
      "::": 5155,
      "Adam": 5156,
      "flags": 5157,
      "nicer": 5158,
      "examined": 5159,
      "guessed": 5160,
      "planned": 5161,
      "machines": 5162,
      "printed": 5163,
      "situ": 5164,
      "stealing": 5165,
      "bare": 5166,
      "piles": 5167,
      "area": 5168,
      "argued": 5169,
      "stirring": 5170,
      "Hannah": 5171,
      "Pr": 5172,
      "herbs": 5173,
      "Quack": 5174,
      "inch": 5175,
      "united": 5176,
      "fer": 5177,
      "Pip": 5178,
      "cert": 5179,
      "Aunt": 5180,
      "challenge": 5181,
      "victory": 5182,
      "properly": 5183,
      "west": 5184,
      "tugged": 5185,
      "studied": 5186,
      "firemen": 5187,
      "wagging": 5188,
      "wink": 5189,
      "zooming": 5190,
      "Leave": 5191,
      "satisfied": 5192,
      "accidents": 5193,
      "increase": 5194,
      "winning": 5195,
      "deser": 5196,
      "Lulu": 5197,
      "wid": 5198,
      "shivering": 5199,
      "zero": 5200,
      "bunnies": 5201,
      "gathering": 5202,
      "introduc": 5203,
      "Chirpy": 5204,
      "include": 5205,
      "mice": 5206,
      "letâ": 5207,
      "fully": 5208,
      "outdoors": 5209,
      "winner": 5210,
      "begin": 5211,
      "=\"": 5212,
      "result": 5213,
      "twirling": 5214,
      "firefight": 5215,
      "decorated": 5216,
      "teasing": 5217,
      "slapped": 5218,
      "Out": 5219,
      "aw": 5220,
      ".'": 5221,
      "supplies": 5222,
      "Abby": 5223,
      "yelling": 5224,
      "seag": 5225,
      "neighbourhood": 5226,
      "underneath": 5227,
      "seagull": 5228,
      "sights": 5229,
      "flutter": 5230,
      "tickets": 5231,
      "heel": 5232,
      "Susan": 5233,
      "lines": 5234,
      "rides": 5235,
      "brushes": 5236,
      "T_": 5237,
      "introduce": 5238,
      "pancakes": 5239,
      "Bubbles": 5240,
      "released": 5241,
      "uct": 5242,
      "pearl": 5243,
      "burrow": 5244,
      "sire": 5245,
      "struck": 5246,
      "mixing": 5247,
      "instructions": 5248,
      "siren": 5249,
      "peaches": 5250,
      "crum": 5251,
      "AR": 5252,
      "vow": 5253,
      "weighed": 5254,
      "permit": 5255,
      "grant": 5256,
      "sides": 5257,
      "loving": 5258,
      "draws": 5259,
      "cones": 5260,
      "confident": 5261,
      "sneaked": 5262,
      "stored": 5263,
      "local": 5264,
      "Mir": 5265,
      "rubbing": 5266,
      "baked": 5267,
      "realize": 5268,
      "indy": 5269,
      "youn": 5270,
      "rol": 5271,
      "lux": 5272,
      "luxu": 5273,
      "spiders": 5274,
      "muffins": 5275,
      "Get": 5276,
      "pinched": 5277,
      "fault": 5278,
      "budge": 5279,
      "competition": 5280,
      "studying": 5281,
      "ica": 5282,
      "pockets": 5283,
      "œLook": 5284,
      "Bir": 5285,
      "opin": 5286,
      "shoulders": 5287,
      "bunch": 5288,
      "frosting": 5289,
      "decides": 5290,
      "strike": 5291,
      "marks": 5292,
      "strip": 5293,
      "ults": 5294,
      "emergen": 5295,
      "stamps": 5296,
      "giggling": 5297,
      "ourselves": 5298,
      "EN": 5299,
      "stitch": 5300,
      "parked": 5301,
      "travell": 5302,
      "strings": 5303,
      "œHello": 5304,
      "prunes": 5305,
      "amb": 5306,
      "figured": 5307,
      "broom": 5308,
      "pears": 5309,
      "Carl": 5310,
      "scurried": 5311,
      "€”": 5312,
      "ruler": 5313,
      "Lou": 5314,
      "ago": 5315,
      "Mi": 5316,
      "repeated": 5317,
      "Wed": 5318,
      "Our": 5319,
      "Wednes": 5320,
      "hunt": 5321,
      "claps": 5322,
      "poking": 5323,
      "control": 5324,
      "ots": 5325,
      "ler": 5326,
      "ruin": 5327,
      "Put": 5328,
      "slim": 5329,
      "anta": 5330,
      "œThis": 5331,
      "Santa": 5332,
      "kicking": 5333,
      "stretching": 5334,
      "Bad": 5335,
      "hest": 5336,
      "pected": 5337,
      "protected": 5338,
      "copy": 5339,
      "motion": 5340,
      "demanded": 5341,
      "Both": 5342,
      "smar": 5343,
      "mentioned": 5344,
      "Linda": 5345,
      "flap": 5346,
      "neighbors": 5347,
      "keeps": 5348,
      "ib": 5349,
      "Luke": 5350,
      "goodnight": 5351,
      "touching": 5352,
      "Jeff": 5353,
      "Mon": 5354,
      "writes": 5355,
      "tonight": 5356,
      "DIR": 5357,
      "sweeties": 5358,
      "powers": 5359,
      "die": 5360,
      "expect": 5361,
      "youth": 5362,
      "beard": 5363,
      "fab": 5364,
      "Tues": 5365,
      "buckets": 5366,
      "ribbons": 5367,
      "Momo": 5368,
      "uctantly": 5369,
      "tiest": 5370,
      "prettiest": 5371,
      "soaked": 5372,
      "camping": 5373,
      "icky": 5374,
      "zie": 5375,
      "barely": 5376,
      "horns": 5377,
      "bouncy": 5378,
      "Kayla": 5379,
      "east": 5380,
      "discovering": 5381,
      "master": 5382,
      "acted": 5383,
      "sorting": 5384,
      "œDonâ": 5385,
      "nexpected": 5386,
      "ni": 5387,
      "vies": 5388,
      "twinkling": 5389,
      "surface": 5390,
      "rac": 5391,
      "Time": 5392,
      "tex": 5393,
      "Hoppy": 5394,
      "Fri": 5395,
      "stole": 5396,
      "ION": 5397,
      "œWhy": 5398,
      "gazed": 5399,
      "texture": 5400,
      "vowed": 5401,
      "weed": 5402,
      "gle": 5403,
      "babies": 5404,
      "expected": 5405,
      "purred": 5406,
      "ents": 5407,
      "movies": 5408,
      "stron": 5409,
      "guys": 5410,
      "Afterwards": 5411,
      "List": 5412,
      "eight": 5413,
      "rip": 5414,
      "steep": 5415,
      "cautious": 5416,
      "silence": 5417,
      "cub": 5418,
      "zen": 5419,
      "entire": 5420,
      "Lizzy": 5421,
      "Two": 5422,
      "applauded": 5423,
      "strum": 5424,
      "loose": 5425,
      "unexpected": 5426,
      "shock": 5427,
      "pebbles": 5428,
      "aster": 5429,
      "sports": 5430,
      "tickle": 5431,
      "guns": 5432,
      "urged": 5433,
      "dragons": 5434,
      "catches": 5435,
      "Uh": 5436,
      "completed": 5437,
      "luxury": 5438,
      "honk": 5439,
      "cky": 5440,
      "RO": 5441,
      "Keep": 5442,
      "dragged": 5443,
      "cot": 5444,
      "stem": 5445,
      "emergency": 5446,
      "shelves": 5447,
      "chewing": 5448,
      "rocking": 5449,
      "Wednesday": 5450,
      "mittens": 5451,
      "muscles": 5452,
      "Jenna": 5453,
      "dolphins": 5454,
      "Cindy": 5455,
      "hi": 5456,
      "fabric": 5457,
      "Listen": 5458,
      "curtains": 5459,
      "solution": 5460,
      "blink": 5461,
      "ladybug": 5462,
      "Wo": 5463,
      "direction": 5464,
      "[[": 5465,
      "introduced": 5466,
      "Suzie": 5467,
      "sorted": 5468,
      "patience": 5469,
      "chases": 5470,
      "ledge": 5471,
      "frozen": 5472,
      "Run": 5473,
      "chips": 5474,
      "season": 5475,
      "importance": 5476,
      "########": 5477,
      "flat": 5478,
      "reluctantly": 5479,
      "...": 5480,
      "wound": 5481,
      "highest": 5482,
      "ppers": 5483,
      "Lena": 5484,
      "shivered": 5485,
      "librarian": 5486,
      "contest": 5487,
      "rocked": 5488,
      "achieve": 5489,
      "Matt": 5490,
      "screaming": 5491,
      "Che": 5492,
      "Ja": 5493,
      "tar": 5494,
      "pouring": 5495,
      "Slow": 5496,
      "cough": 5497,
      "theirs": 5498,
      "sled": 5499,
      "Dolly": 5500,
      "aky": 5501,
      "hugging": 5502,
      "ads": 5503,
      "effort": 5504,
      "staring": 5505,
      "drives": 5506,
      "roaring": 5507,
      "rings": 5508,
      "œOh": 5509,
      "Mart": 5510,
      "mater": 5511,
      "youâ": 5512,
      "planets": 5513,
      "materi": 5514,
      "lied": 5515,
      "ien": 5516,
      "nect": 5517,
      "ki": 5518,
      "Jon": 5519,
      "haust": 5520,
      "Tuesday": 5521,
      "safer": 5522,
      "passing": 5523,
      "policeman": 5524,
      "}/": 5525,
      "curly": 5526,
      "situation": 5527,
      "foods": 5528,
      "matched": 5529,
      "awesome": 5530,
      "canâ": 5531,
      "rees": 5532,
      "sighs": 5533,
      "knowledge": 5534,
      "IL": 5535,
      "plent": 5536,
      "Sn": 5537,
      "irts": 5538,
      "balancing": 5539,
      "shined": 5540,
      "sen": 5541,
      "exhaust": 5542,
      "zookeeper": 5543,
      "dared": 5544,
      "Mira": 5545,
      "plenty": 5546,
      "towels": 5547,
      "source": 5548,
      "homework": 5549,
      "jects": 5550,
      "slimy": 5551,
      "bravery": 5552,
      "project": 5553,
      "Day": 5554,
      "truly": 5555,
      "pretends": 5556,
      "accomplish": 5557,
      "dies": 5558,
      "cheering": 5559,
      "Nothing": 5560,
      "worker": 5561,
      "wedding": 5562,
      "Ba": 5563,
      "Jacob": 5564,
      "goals": 5565,
      "arriage": 5566,
      "cuts": 5567,
      "rainbows": 5568,
      "swoop": 5569,
      "Pinky": 5570,
      "jamas": 5571,
      "Tara": 5572,
      "sausages": 5573,
      "threat": 5574,
      "resting": 5575,
      "packing": 5576,
      "rance": 5577,
      "caused": 5578,
      "patted": 5579,
      "boom": 5580,
      "colored": 5581,
      "reaching": 5582,
      "paintings": 5583,
      "tails": 5584,
      "student": 5585,
      "Excuse": 5586,
      "radishes": 5587,
      "arguing": 5588,
      "written": 5589,
      "tles": 5590,
      "sobb": 5591,
      "spraying": 5592,
      "growling": 5593,
      "blooming": 5594,
      "Lizz": 5595,
      "crumbs": 5596,
      "waiter": 5597,
      "Bird": 5598,
      "struggle": 5599,
      "exhausted": 5600,
      "included": 5601,
      "sweets": 5602,
      "vin": 5603,
      "Quick": 5604,
      "markers": 5605,
      "vanish": 5606,
      "sticking": 5607,
      "matching": 5608,
      "Lizzie": 5609,
      "pout": 5610,
      "ud": 5611,
      "mane": 5612,
      "kneeled": 5613,
      "paddled": 5614,
      "creating": 5615,
      "Jessica": 5616,
      "sway": 5617,
      "startled": 5618,
      "cubes": 5619,
      "nets": 5620,
      "rescued": 5621,
      "inviting": 5622,
      "guest": 5623,
      "dusty": 5624,
      "traveled": 5625,
      "bars": 5626,
      "Julia": 5627,
      "reveal": 5628,
      "pots": 5629,
      "roads": 5630,
      "bottles": 5631,
      "Take": 5632,
      "singer": 5633,
      "Pipp": 5634,
      "replaced": 5635,
      "dresser": 5636,
      "OR": 5637,
      "irm": 5638,
      "cost": 5639,
      "allo": 5640,
      "learns": 5641,
      "marriage": 5642,
      "logs": 5643,
      "princesses": 5644,
      "workers": 5645,
      "--------": 5646,
      "pite": 5647,
      "regretted": 5648,
      "removed": 5649,
      "bert": 5650,
      "leader": 5651,
      "bloomed": 5652,
      "Yeah": 5653,
      "recorded": 5654,
      "trembling": 5655,
      "ripe": 5656,
      "arrive": 5657,
      "isies": 5658,
      "Fox": 5659,
      "snail": 5660,
      "timer": 5661,
      "pencils": 5662,
      "chuck": 5663,
      "disagree": 5664,
      "tum": 5665,
      "faced": 5666,
      "observed": 5667,
      "char": 5668,
      "Enjoy": 5669,
      "daisies": 5670,
      "prayer": 5671,
      "ranny": 5672,
      "activities": 5673,
      "firm": 5674,
      "pajamas": 5675,
      "seesaw": 5676,
      "wires": 5677,
      "uggles": 5678,
      "darkness": 5679,
      "organizing": 5680,
      "worries": 5681,
      "ventured": 5682,
      "bend": 5683,
      "countryside": 5684,
      "stare": 5685,
      "ranger": 5686,
      "completely": 5687,
      "Fe": 5688,
      "Ah": 5689,
      "opening": 5690,
      "partic": 5691,
      "angled": 5692,
      "reply": 5693,
      "=\"$": 5694,
      "fairies": 5695,
      "wasted": 5696,
      "relief": 5697,
      "odd": 5698,
      "owners": 5699,
      "storekeeper": 5700,
      "remo": 5701,
      "belly": 5702,
      "agrees": 5703,
      "Johnson": 5704,
      "=$(": 5705,
      "folding": 5706,
      "usually": 5707,
      "rious": 5708,
      "polishing": 5709,
      "ME": 5710,
      "len": 5711,
      "quacked": 5712,
      "provided": 5713,
      "stern": 5714,
      "rubs": 5715,
      "Sque": 5716,
      "AN": 5717,
      "wow": 5718,
      "becoming": 5719,
      "mets": 5720,
      "gg": 5721,
      "Prin": 5722,
      "Slowly": 5723,
      "flames": 5724,
      "remote": 5725,
      "Being": 5726,
      "kites": 5727,
      "penguins": 5728,
      "poems": 5729,
      "applaud": 5730,
      "wasnâ": 5731,
      "VER": 5732,
      "everybody": 5733,
      "signed": 5734,
      "Larry": 5735,
      "slap": 5736,
      "melting": 5737,
      "rist": 5738,
      "version": 5739,
      "thro": 5740,
      "healed": 5741,
      "squealed": 5742,
      "scales": 5743,
      "coloured": 5744,
      "Doggy": 5745,
      "helmets": 5746,
      "Sur": 5747,
      "shaped": 5748,
      "Jones": 5749,
      "10": 5750,
      "scra": 5751,
      "marked": 5752,
      "crabs": 5753,
      "throat": 5754,
      "seems": 5755,
      "laying": 5756,
      "ility": 5757,
      "opinion": 5758,
      "robb": 5759,
      "tractor": 5760,
      "single": 5761,
      "crowd": 5762,
      "dipped": 5763,
      "twinkle": 5764,
      "lollipops": 5765,
      "cash": 5766,
      "teaches": 5767,
      "groceries": 5768,
      "polished": 5769,
      "knights": 5770,
      "cure": 5771,
      "warn": 5772,
      "rolls": 5773,
      "staying": 5774,
      "valued": 5775,
      "ker": 5776,
      "iding": 5777,
      "interested": 5778,
      "peeking": 5779,
      "dentist": 5780,
      "lamb": 5781,
      "snakes": 5782,
      "actions": 5783,
      "Christ": 5784,
      "Stay": 5785,
      "()": 5786,
      "June": 5787,
      "blows": 5788,
      "Many": 5789,
      "ware": 5790,
      "cautiously": 5791,
      "cracked": 5792,
      "wallow": 5793,
      "Sophia": 5794,
      "filling": 5795,
      "zes": 5796,
      "Lau": 5797,
      "particular": 5798,
      "faraway": 5799,
      "desert": 5800,
      "protecting": 5801,
      "misses": 5802,
      "winked": 5803,
      "freed": 5804,
      "swallow": 5805,
      "balanced": 5806,
      "Bess": 5807,
      "younger": 5808,
      "AS": 5809,
      "closes": 5810,
      "wandering": 5811,
      ")\"": 5812,
      "fuzzy": 5813,
      "listens": 5814,
      "cent": 5815,
      "iar": 5816,
      "chuckled": 5817,
      "Without": 5818,
      "Sim": 5819,
      "UB": 5820,
      "pastries": 5821,
      "directions": 5822,
      "ene": 5823,
      "beads": 5824,
      "familiar": 5825,
      "however": 5826,
      "crackers": 5827,
      "roses": 5828,
      "igi": 5829,
      "cous": 5830,
      "œMommy": 5831,
      "splashes": 5832,
      "froze": 5833,
      "naps": 5834,
      "rusty": 5835,
      "baker": 5836,
      "Abbie": 5837,
      "roots": 5838,
      "Mel": 5839,
      "itchy": 5840,
      "yesterday": 5841,
      "bi": 5842,
      "yum": 5843,
      "restored": 5844,
      "snowballs": 5845,
      "Jazz": 5846,
      "œWhatâ": 5847,
      "delivery": 5848,
      "Gigi": 5849,
      "fluttered": 5850,
      "hops": 5851,
      "Everybody": 5852,
      "gaze": 5853,
      "forehead": 5854,
      "lined": 5855,
      "||": 5856,
      "Boo": 5857,
      "swooped": 5858,
      "Laura": 5859,
      "suitcase": 5860,
      "wiggled": 5861,
      "Christmas": 5862,
      "date": 5863,
      "gar": 5864,
      "toss": 5865,
      "somebody": 5866,
      "refle": 5867,
      "Pam": 5868,
      "sweat": 5869,
      "bumpy": 5870,
      "Sparky": 5871,
      "swirl": 5872,
      "determin": 5873,
      "slam": 5874,
      "Mickey": 5875,
      "awake": 5876,
      "€˜": 5877,
      "photos": 5878,
      "pastels": 5879,
      "backed": 5880,
      "health": 5881,
      "mance": 5882,
      "celebration": 5883,
      "=\"${": 5884,
      "trips": 5885,
      "silent": 5886,
      "atches": 5887,
      "aut": 5888,
      "pedals": 5889,
      "Nick": 5890,
      "tallest": 5891,
      "yan": 5892,
      "ks": 5893,
      "sequ": 5894,
      "ences": 5895,
      "dev": 5896,
      "cashier": 5897,
      "secure": 5898,
      "Lic": 5899,
      "Chris": 5900,
      "determination": 5901,
      "darker": 5902,
      "nectar": 5903,
      "drif": 5904,
      "acting": 5905,
      "speaking": 5906,
      "Pandy": 5907,
      "Milo": 5908,
      "knees": 5909,
      "insist": 5910,
      "recording": 5911,
      "piggy": 5912,
      "complaining": 5913,
      "ata": 5914,
      "lies": 5915,
      "miles": 5916,
      "quid": 5917,
      "videos": 5918,
      "sneaky": 5919,
      "pleasure": 5920,
      "Zip": 5921,
      "Woof": 5922,
      "orted": 5923,
      "accomplishment": 5924,
      "Fine": 5925,
      "liquid": 5926,
      "entrance": 5927,
      "?\",": 5928,
      "shirts": 5929,
      "delivered": 5930,
      "sew": 5931,
      "rockets": 5932,
      "wears": 5933,
      "Emmy": 5934,
      "_P": 5935,
      "glee": 5936,
      "Jay": 5937,
      "pause": 5938,
      "opp": 5939,
      "Mikey": 5940,
      "itches": 5941,
      "tricked": 5942,
      "Roar": 5943,
      "Stella": 5944,
      "mesmer": 5945,
      "flake": 5946,
      "Squ": 5947,
      "burst": 5948,
      "afterwards": 5949,
      "beyond": 5950,
      "cheeks": 5951,
      "Wil": 5952,
      "instrum": 5953,
      "consequ": 5954,
      "Buzzy": 5955,
      "TE": 5956,
      "hissed": 5957,
      "stays": 5958,
      "insects": 5959,
      "fits": 5960,
      "bowls": 5961,
      "performance": 5962,
      "rule": 5963,
      "Excited": 5964,
      "seven": 5965,
      "joking": 5966,
      "ths": 5967,
      "deal": 5968,
      "farther": 5969,
      "tickled": 5970,
      "sobbed": 5971,
      "sense": 5972,
      "stolen": 5973,
      "attack": 5974,
      "affes": 5975,
      "Princess": 5976,
      "scaring": 5977,
      "tricky": 5978,
      "Days": 5979,
      "adding": 5980,
      "Rob": 5981,
      "sandcastles": 5982,
      "covers": 5983,
      "masks": 5984,
      "?'": 5985,
      "itor": 5986,
      "anger": 5987,
      "behavi": 5988,
      "œCome": 5989,
      "&&": 5990,
      "rect": 5991,
      "giraffes": 5992,
      "rever": 5993,
      "calmed": 5994,
      "talented": 5995,
      "handful": 5996,
      "Robbie": 5997,
      "Honey": 5998,
      "OU": 5999,
      "tangled": 6000,
      "indeed": 6001,
      "lower": 6002,
      "install": 6003,
      "candies": 6004,
      "//": 6005,
      "lett": 6006,
      "smarter": 6007,
      "scarves": 6008,
      "pered": 6009,
      "Bon": 6010,
      "ory": 6011,
      "Maya": 6012,
      "toed": 6013,
      "leading": 6014,
      "reads": 6015,
      "achieved": 6016,
      "choices": 6017,
      "third": 6018,
      "consequences": 6019,
      "bumps": 6020,
      "stain": 6021,
      "yourselves": 6022,
      "Water": 6023,
      "Olive": 6024,
      "ortun": 6025,
      "cker": 6026,
      "leaning": 6027,
      "badge": 6028,
      "batteries": 6029,
      "beginning": 6030,
      "impossible": 6031,
      "Robby": 6032,
      "hesitated": 6033,
      "behaved": 6034,
      "puppet": 6035,
      "wrist": 6036,
      "seconds": 6037,
      "Fire": 6038,
      "cans": 6039,
      "Shh": 6040,
      "Granny": 6041,
      "Mat": 6042,
      "paddle": 6043,
      "Ki": 6044,
      "mixture": 6045,
      "bows": 6046,
      "explorers": 6047,
      "darling": 6048,
      "magnets": 6049,
      "recommended": 6050,
      "ners": 6051,
      "kicks": 6052,
      "clowns": 6053,
      ";;": 6054,
      "Martha": 6055,
      "Mad": 6056,
      "outfit": 6057,
      "gracefully": 6058,
      "Karen": 6059,
      "weeping": 6060,
      "seeker": 6061,
      "Very": 6062,
      "Meow": 6063,
      "Robert": 6064,
      "œLet": 6065,
      "bakery": 6066,
      "firefighters": 6067,
      "guy": 6068,
      "Great": 6069,
      "Bee": 6070,
      "salty": 6071,
      "improved": 6072,
      "swept": 6073,
      "ition": 6074,
      "deserve": 6075,
      "objects": 6076,
      "stroked": 6077,
      "ply": 6078,
      "swims": 6079,
      "flapping": 6080,
      "wipes": 6081,
      "sniff": 6082,
      "Only": 6083,
      "Baa": 6084,
      "mushrooms": 6085,
      "complained": 6086,
      "Friends": 6087,
      "]];": 6088,
      "Ear": 6089,
      "hider": 6090,
      "Mine": 6091,
      "License": 6092,
      "Ryan": 6093,
      "dots": 6094,
      "conne": 6095,
      "config": 6096,
      "steer": 6097,
      "knocks": 6098,
      "thorn": 6099,
      "Snuggles": 6100,
      "ops": 6101,
      "teased": 6102,
      "Mabel": 6103,
      "heading": 6104,
      "parties": 6105,
      "Abi": 6106,
      "œDo": 6107,
      "travelled": 6108,
      "Vroom": 6109,
      "blings": 6110,
      "tigers": 6111,
      "hearing": 6112,
      "ounce": 6113,
      ">&": 6114,
      "tasks": 6115,
      "horiz": 6116,
      "ments": 6117,
      "cupcakes": 6118,
      "Surpr": 6119,
      "Nobody": 6120,
      "KUB": 6121,
      "œYouâ": 6122,
      "igning": 6123,
      "basement": 6124,
      "fever": 6125,
      "snuck": 6126,
      "Pre": 6127,
      "horizon": 6128,
      "ters": 6129,
      "marker": 6130,
      "iles": 6131,
      "siblings": 6132,
      "ude": 6133,
      "ana": 6134,
      "jackets": 6135,
      "Yummy": 6136,
      "Jacky": 6137,
      "hallway": 6138,
      "AL": 6139,
      "smiley": 6140,
      "lighter": 6141,
      "Fu": 6142,
      "snatched": 6143,
      "yells": 6144,
      "fluttering": 6145,
      "drums": 6146,
      "gems": 6147,
      "indro": 6148,
      "œHi": 6149,
      "Janie": 6150,
      "dip": 6151,
      "Finn": 6152,
      "Rover": 6153,
      "ruining": 6154,
      "urry": 6155,
      "wrapping": 6156,
      "neither": 6157,
      "ivity": 6158,
      "webs": 6159,
      "bedtime": 6160,
      "Along": 6161,
      "anno": 6162,
      "click": 6163,
      "wouldnâ": 6164,
      "raindro": 6165,
      "buying": 6166,
      "mies": 6167,
      "gued": 6168,
      "paying": 6169,
      "puppies": 6170,
      "lettuce": 6171,
      "scrubbed": 6172,
      "families": 6173,
      "annoy": 6174,
      "celebrating": 6175,
      "dollhouse": 6176,
      "œWow": 6177,
      "wins": 6178,
      "creamy": 6179,
      "ids": 6180,
      "rivers": 6181,
      "among": 6182,
      "rumble": 6183,
      "peacefully": 6184,
      "Ral": 6185,
      "scratches": 6186,
      "widened": 6187,
      "drifted": 6188,
      "wadd": 6189,
      "including": 6190,
      "Cra": 6191,
      "atur": 6192,
      "Try": 6193,
      "treehouse": 6194,
      "hides": 6195,
      "Dr": 6196,
      "Ralph": 6197,
      "mering": 6198,
      "players": 6199,
      "wonâ": 6200,
      "icked": 6201,
      "repa": 6202,
      "cond": 6203,
      "willing": 6204,
      "SION": 6205,
      "Any": 6206,
      "Gina": 6207,
      "cuddly": 6208,
      "losing": 6209,
      "Ali": 6210,
      "rewarded": 6211,
      "arrows": 6212,
      "Kiki": 6213,
      "squish": 6214,
      "Binky": 6215,
      "needles": 6216,
      "shrinking": 6217,
      "repaired": 6218,
      "seas": 6219,
      "creativity": 6220,
      "DE": 6221,
      "temper": 6222,
      "addie": 6223,
      "separated": 6224,
      "Whee": 6225,
      "Hoo": 6226,
      "shim": 6227,
      "Sadie": 6228,
      "Maddie": 6229,
      "Jackie": 6230,
      "inter": 6231,
      "haw": 6232,
      "hael": 6233,
      "ongrat": 6234,
      "tiptoed": 6235,
      "hog": 6236,
      "tapped": 6237,
      "printing": 6238,
      "visitor": 6239,
      "avoid": 6240,
      "creations": 6241,
      "grassy": 6242,
      "chefs": 6243,
      "ount": 6244,
      "rising": 6245,
      "minerals": 6246,
      "intri": 6247,
      "Ame": 6248,
      "granted": 6249,
      "issue": 6250,
      "sprinkled": 6251,
      "arran": 6252,
      "imagining": 6253,
      "Since": 6254,
      "chop": 6255,
      "gross": 6256,
      "Michael": 6257,
      "During": 6258,
      "earn": 6259,
      "ongratul": 6260,
      "tram": 6261,
      "chef": 6262,
      "fears": 6263,
      "item": 6264,
      "D_": 6265,
      "null": 6266,
      "Judy": 6267,
      "backwards": 6268,
      "pans": 6269,
      "Simon": 6270,
      "ans": 6271,
      "limes": 6272,
      "grabbing": 6273,
      "screwdriver": 6274,
      "stomped": 6275,
      "ouch": 6276,
      "Ca": 6277,
      "itude": 6278,
      "decorating": 6279,
      "pouted": 6280,
      "Star": 6281,
      "œMy": 6282,
      "CH": 6283,
      "dama": 6284,
      "damage": 6285,
      "forts": 6286,
      "hesitant": 6287,
      "peppers": 6288,
      "artist": 6289,
      "diving": 6290,
      "Thatâ": 6291,
      "todd": 6292,
      "stung": 6293,
      "wobb": 6294,
      "unpacked": 6295,
      "squares": 6296,
      "Beep": 6297,
      "Unt": 6298,
      "serving": 6299,
      "materials": 6300,
      "slower": 6301,
      "Until": 6302,
      "Squeaky": 6303,
      "planning": 6304,
      "center": 6305,
      "sale": 6306,
      "action": 6307,
      "Bluey": 6308,
      "onions": 6309,
      "beloved": 6310,
      "Earth": 6311,
      "Marie": 6312,
      "Todd": 6313,
      "suits": 6314,
      "Momma": 6315,
      "Que": 6316,
      "heavier": 6317,
      "cept": 6318,
      "Oli": 6319,
      "raindrops": 6320,
      "growls": 6321,
      "Cu": 6322,
      "...\"": 6323,
      "promises": 6324,
      "wrink": 6325,
      "audi": 6326,
      "trampol": 6327,
      "spice": 6328,
      "pointy": 6329,
      "TH": 6330,
      "correct": 6331,
      "type": 6332,
      "snowmen": 6333,
      "surroundings": 6334,
      "itched": 6335,
      "helpers": 6336,
      "Lia": 6337,
      "ido": 6338,
      "recipe": 6339,
      "forgiven": 6340,
      "itted": 6341,
      "curl": 6342,
      "designed": 6343,
      "audience": 6344,
      "cousin": 6345,
      "ford": 6346,
      "rustling": 6347,
      "Ew": 6348,
      "blocking": 6349,
      "neighbours": 6350,
      "ias": 6351,
      "ref": 6352,
      "Oops": 6353,
      "Bang": 6354,
      "tou": 6355,
      "slices": 6356,
      "gobbled": 6357,
      "snowball": 6358,
      "wiping": 6359,
      "temperature": 6360,
      "Back": 6361,
      "hedgehog": 6362,
      "trampoline": 6363,
      "Queen": 6364,
      "VERSION": 6365,
      "couple": 6366,
      "requested": 6367,
      "windy": 6368,
      "wobbled": 6369,
      "mate": 6370,
      "ush": 6371,
      "discussed": 6372,
      "woof": 6373,
      "pon": 6374,
      "express": 6375,
      "Zara": 6376,
      "ornaments": 6377,
      "nif": 6378,
      "dreamt": 6379,
      "stool": 6380,
      "noses": 6381,
      "corners": 6382,
      "output": 6383,
      "pose": 6384,
      "sailboat": 6385,
      "Hold": 6386,
      "hus": 6387,
      "moo": 6388,
      "Frog": 6389,
      "Li": 6390,
      "pecked": 6391,
      "slammed": 6392,
      ":-": 6393,
      "swans": 6394,
      "eted": 6395,
      "afford": 6396,
      "data": 6397,
      "iley": 6398,
      "hitting": 6399,
      "feast": 6400,
      "htt": 6401,
      "forks": 6402,
      "warnings": 6403,
      "streets": 6404,
      "Zoey": 6405,
      "tissue": 6406,
      "onge": 6407,
      "meals": 6408,
      "Love": 6409,
      "dads": 6410,
      "aside": 6411,
      "changing": 6412,
      "nine": 6413,
      "reason": 6414,
      "racco": 6415,
      "sponge": 6416,
      "sunflowers": 6417,
      "curiously": 6418,
      "snowflake": 6419,
      "vanilla": 6420,
      "reflection": 6421,
      "Although": 6422,
      "ora": 6423,
      "plug": 6424,
      "dances": 6425,
      "prett": 6426,
      "plans": 6427,
      "praying": 6428,
      "cons": 6429,
      "20": 6430,
      "Meg": 6431,
      "zipping": 6432,
      "command": 6433,
      "sparks": 6434,
      "least": 6435,
      "scor": 6436,
      "Des": 6437,
      "Fido": 6438,
      "dollars": 6439,
      "coloring": 6440,
      "Ash": 6441,
      "twice": 6442,
      "remembering": 6443,
      "adult": 6444,
      "screws": 6445,
      "breathed": 6446,
      "greeted": 6447,
      "chosen": 6448,
      "intrigued": 6449,
      "Amelia": 6450,
      "sation": 6451,
      "sim": 6452,
      "duckling": 6453,
      "spreading": 6454,
      "Am": 6455,
      "astron": 6456,
      "shops": 6457,
      "forgets": 6458,
      "thrown": 6459,
      "prettier": 6460,
      "hour": 6461,
      "tty": 6462,
      "ading": 6463,
      "tunnels": 6464,
      "antic": 6465,
      "counts": 6466,
      "raincoat": 6467,
      "rotted": 6468,
      "potion": 6469,
      "Under": 6470,
      "grandparents": 6471,
      "spat": 6472,
      "touches": 6473,
      "astronaut": 6474,
      "lings": 6475,
      "husband": 6476,
      "enthusias": 6477,
      "enthusiasm": 6478,
      "Farm": 6479,
      "charac": 6480,
      "sailors": 6481,
      "gardener": 6482,
      "endy": 6483,
      "shm": 6484,
      "spikes": 6485,
      "scam": 6486,
      "superheroes": 6487,
      "wishing": 6488,
      "wraps": 6489,
      "swords": 6490,
      "daring": 6491,
      "magician": 6492,
      "spoonful": 6493,
      "Davey": 6494,
      "shmallow": 6495,
      "skunk": 6496,
      "bras": 6497,
      "reass": 6498,
      "dod": 6499,
      "Nice": 6500,
      "borrowed": 6501,
      "steady": 6502,
      "courag": 6503,
      "rotten": 6504,
      "certain": 6505,
      "pens": 6506,
      "weekend": 6507,
      "int": 6508,
      "forgetting": 6509,
      "sever": 6510,
      "Squir": 6511,
      "ping": 6512,
      "bodies": 6513,
      "guests": 6514,
      "encourag": 6515,
      "flavors": 6516,
      "S_": 6517,
      "Too": 6518,
      "hopeful": 6519,
      "Sof": 6520,
      "neare": 6521,
      "rains": 6522,
      "heroes": 6523,
      "sending": 6524,
      "\":": 6525,
      "ounced": 6526,
      "snuggle": 6527,
      "tested": 6528,
      "mesmerized": 6529,
      "Wendy": 6530,
      "refresh": 6531,
      "bits": 6532,
      "stroke": 6533,
      "Mouse": 6534,
      "buzzed": 6535,
      "Rain": 6536,
      "grows": 6537,
      "neatly": 6538,
      "KUBE_": 6539,
      "tests": 6540,
      "Spl": 6541,
      "oni": 6542,
      "amed": 6543,
      "ades": 6544,
      "glim": 6545,
      "handsome": 6546,
      "feeding": 6547,
      "mints": 6548,
      "CON": 6549,
      "marshmallow": 6550,
      "Squirrel": 6551,
      "delivering": 6552,
      "raccoon": 6553,
      "ann": 6554,
      "dived": 6555,
      "antha": 6556,
      "foc": 6557,
      "Samantha": 6558,
      "rup": 6559,
      "thatâ": 6560,
      "flight": 6561,
      "misch": 6562,
      "politely": 6563,
      "zebras": 6564,
      "onward": 6565,
      "manag": 6566,
      "suffering": 6567,
      "alien": 6568,
      "ET": 6569,
      "napkins": 6570,
      "warmer": 6571,
      "Maddy": 6572,
      "Farmer": 6573,
      "grum": 6574,
      "rout": 6575,
      "stands": 6576,
      "Frosty": 6577,
      "OT": 6578,
      "sneezing": 6579,
      "baths": 6580,
      "honked": 6581,
      "Ruth": 6582,
      "Holly": 6583,
      "defe": 6584,
      "tempt": 6585,
      "Se": 6586,
      "Never": 6587,
      "rushing": 6588,
      "plucked": 6589,
      "crashing": 6590,
      "Bessie": 6591,
      "poster": 6592,
      "bage": 6593,
      "matters": 6594,
      "mp": 6595,
      "lifts": 6596,
      "container": 6597,
      "lungs": 6598,
      "Birthday": 6599,
      "bba": 6600,
      "crew": 6601,
      "refreshing": 6602,
      "thud": 6603,
      "unsure": 6604,
      "seaweed": 6605,
      "respond": 6606,
      "joining": 6607,
      "watering": 6608,
      "increased": 6609,
      "Choo": 6610,
      "students": 6611,
      "pad": 6612,
      "preparing": 6613,
      "toddler": 6614,
      "oatmeal": 6615,
      "ctl": 6616,
      "ATH": 6617,
      "swallowed": 6618,
      "Ray": 6619,
      "ropes": 6620,
      "Patch": 6621,
      "glued": 6622,
      "œBut": 6623,
      "Dani": 6624,
      "whispers": 6625,
      "œMom": 6626,
      "Up": 6627,
      "performed": 6628,
      "formed": 6629,
      "except": 6630,
      "loading": 6631,
      "toaster": 6632,
      "presses": 6633,
      "biting": 6634,
      "leads": 6635,
      "starfish": 6636,
      "confli": 6637,
      "smelling": 6638,
      "Owl": 6639,
      "trembled": 6640,
      "triangles": 6641,
      "obeyed": 6642,
      "wobbly": 6643,
      "grep": 6644,
      "lessons": 6645,
      "nu": 6646,
      "cushions": 6647,
      "NA": 6648,
      "postman": 6649,
      "Jod": 6650,
      "ists": 6651,
      "geese": 6652,
      "hawk": 6653,
      "œWell": 6654,
      "tables": 6655,
      "Dog": 6656,
      "dancers": 6657,
      "focused": 6658,
      "Spe": 6659,
      "Bubba": 6660,
      "resisted": 6661,
      "adults": 6662,
      "talks": 6663,
      "sniffs": 6664,
      "scraped": 6665,
      "Tuna": 6666,
      "merry": 6667,
      "panicked": 6668,
      "FIL": 6669,
      "freedom": 6670,
      "necklaces": 6671,
      "Megan": 6672,
      "slips": 6673,
      "softer": 6674,
      "blast": 6675,
      "firmly": 6676,
      "waddled": 6677,
      "puff": 6678,
      "oky": 6679,
      "Mina": 6680,
      "joyful": 6681,
      "Flops": 6682,
      "wri": 6683,
      "firefly": 6684,
      "worn": 6685,
      "ev": 6686,
      "encouraging": 6687,
      "behaving": 6688,
      "dropping": 6689,
      "œWhere": 6690,
      "drawers": 6691,
      "frowning": 6692,
      "Mean": 6693,
      "squeak": 6694,
      "iona": 6695,
      "wiggle": 6696,
      "lifting": 6697,
      "Sofia": 6698,
      "bash": 6699,
      "drivers": 6700,
      "Fuzzy": 6701,
      "nervously": 6702,
      "failed": 6703,
      "faded": 6704,
      "respected": 6705,
      "conver": 6706,
      "belts": 6707,
      "Freddie": 6708,
      "scampered": 6709,
      "00": 6710,
      "aven": 6711,
      "humans": 6712,
      "Fiona": 6713,
      "drawn": 6714,
      "Ph": 6715,
      "Flopsy": 6716,
      "ties": 6717,
      "elf": 6718,
      "appreciation": 6719,
      "bully": 6720,
      "spins": 6721,
      "target": 6722,
      "pours": 6723,
      "firefighter": 6724,
      "robber": 6725,
      "quarreling": 6726,
      "thoughts": 6727,
      "pennies": 6728,
      "throughout": 6729,
      "pigeons": 6730,
      "stacked": 6731,
      "twinkled": 6732,
      "tran": 6733,
      "leapt": 6734,
      "Mis": 6735,
      "fact": 6736,
      "Eva": 6737,
      "LI": 6738,
      "var": 6739,
      "scient": 6740,
      "waterfall": 6741,
      "paths": 6742,
      "Katy": 6743,
      "supported": 6744,
      "ease": 6745,
      "asing": 6746,
      "kings": 6747,
      "amount": 6748,
      "Spr": 6749,
      "Meanwhile": 6750,
      "months": 6751,
      "notes": 6752,
      "tricycle": 6753,
      "=${": 6754,
      "bravest": 6755,
      "results": 6756,
      "avocados": 6757,
      "strongest": 6758,
      "defin": 6759,
      "overcome": 6760,
      "Make": 6761,
      "polar": 6762,
      "files": 6763,
      "playtime": 6764,
      "cosy": 6765,
      "gonna": 6766,
      "\")": 6767,
      "bots": 6768,
      "prove": 6769,
      "ER_": 6770,
      "iment": 6771,
      "bably": 6772,
      "@]": 6773,
      "wept": 6774,
      "{{": 6775,
      "Mother": 6776,
      "nood": 6777,
      "munch": 6778,
      "garbage": 6779,
      "Ar": 6780,
      "[@]": 6781,
      "packages": 6782,
      "peck": 6783,
      "colder": 6784,
      "echoed": 6785,
      "Jonny": 6786,
      "Pretty": 6787,
      "scored": 6788,
      "probably": 6789,
      "wakes": 6790,
      "AG": 6791,
      "guide": 6792,
      "Start": 6793,
      "performing": 6794,
      "playroom": 6795,
      "Hope": 6796,
      "designs": 6797,
      "bells": 6798,
      "Mae": 6799,
      "Splash": 6800,
      "forgiving": 6801,
      "sank": 6802,
      "flown": 6803,
      "ironment": 6804,
      "://": 6805,
      "respon": 6806,
      "assm": 6807,
      "shown": 6808,
      "sweetest": 6809,
      "argum": 6810,
      "Jojo": 6811,
      "marshmallows": 6812,
      "blinking": 6813,
      "rent": 6814,
      "Yesterday": 6815,
      "Isn": 6816,
      "pumpkins": 6817,
      "robots": 6818,
      "explorer": 6819,
      "force": 6820,
      "squeezing": 6821,
      "causing": 6822,
      "tage": 6823,
      "œIf": 6824,
      "tossed": 6825,
      "response": 6826,
      "engers": 6827,
      "dred": 6828,
      "cobwebs": 6829,
      "Louise": 6830,
      "œOkay": 6831,
      "Despite": 6832,
      "congratul": 6833,
      "squishy": 6834,
      "Birdy": 6835,
      "environment": 6836,
      "healing": 6837,
      "passengers": 6838,
      "Curious": 6839,
      "spices": 6840,
      "til": 6841,
      "tighter": 6842,
      "angels": 6843,
      "yielded": 6844,
      "Green": 6845,
      "?!\"": 6846,
      "Moo": 6847,
      "distra": 6848,
      "tying": 6849,
      "napping": 6850,
      "reversed": 6851,
      "Alright": 6852,
      "=-": 6853,
      "pound": 6854,
      "ilda": 6855,
      "ais": 6856,
      "via": 6857,
      "compe": 6858,
      "Tam": 6859,
      "within": 6860,
      "Ally": 6861,
      "BU": 6862,
      "aimed": 6863,
      "ships": 6864,
      "Rocky": 6865,
      "Still": 6866,
      "cas": 6867,
      "sou": 6868,
      "nearly": 6869,
      "giggles": 6870,
      "La": 6871,
      "pays": 6872,
      "Maisy": 6873,
      "serv": 6874,
      "Bru": 6875,
      "Hallo": 6876,
      "Auntie": 6877,
      "kittens": 6878,
      "elle": 6879,
      "quie": 6880,
      "licking": 6881,
      "instruments": 6882,
      "conflict": 6883,
      "wider": 6884,
      "dump": 6885,
      "sadd": 6886,
      "sewing": 6887,
      "appreciated": 6888,
      "Halloween": 6889,
      "connected": 6890,
      "nuzz": 6891,
      "behavior": 6892,
      "doorway": 6893,
      "images": 6894,
      "clues": 6895,
      "paintbrush": 6896,
      "brushing": 6897,
      "blocked": 6898,
      "Surprise": 6899,
      "#!": 6900,
      "rrr": 6901,
      "Pippin": 6902,
      "pant": 6903,
      "evil": 6904,
      "HO": 6905,
      "breathing": 6906,
      "Ly": 6907,
      "passports": 6908,
      "cottage": 6909,
      "Pippa": 6910,
      "scurry": 6911,
      "heartbroken": 6912,
      "maker": 6913,
      "figures": 6914,
      "merma": 6915,
      "gaz": 6916,
      "testing": 6917,
      "slipping": 6918,
      "sweep": 6919,
      "ilder": 6920,
      "pins": 6921,
      "repeating": 6922,
      "soaking": 6923,
      "mailed": 6924,
      "correctly": 6925,
      "grandchild": 6926,
      "changes": 6927,
      "twisting": 6928,
      "Becky": 6929,
      "idey": 6930,
      "CK": 6931,
      "ider": 6932,
      "twisty": 6933,
      "rainy": 6934,
      "rather": 6935,
      "suffered": 6936,
      "damaged": 6937,
      "tuck": 6938,
      "Fight": 6939,
      "despite": 6940,
      "crossing": 6941,
      "surrend": 6942,
      "several": 6943,
      "puzzled": 6944,
      "€,": 6945,
      "hundred": 6946,
      "shovels": 6947,
      "Spidey": 6948,
      "buses": 6949,
      "accomplished": 6950,
      "noodles": 6951,
      "#!/": 6952,
      "roars": 6953,
      "final": 6954,
      "shrug": 6955,
      "Feel": 6956,
      "surfing": 6957,
      "responsib": 6958,
      "bracele": 6959,
      "stall": 6960,
      "finishing": 6961,
      "Poor": 6962,
      "risks": 6963,
      "bracelets": 6964,
      "luckily": 6965,
      "surrendered": 6966,
      "toward": 6967,
      "fleas": 6968,
      "Eliz": 6969,
      "Eliza": 6970,
      "lending": 6971,
      "œPlease": 6972,
      "Con": 6973,
      "Goodnight": 6974,
      "streamers": 6975,
      "kubectl": 6976,
      "itely": 6977,
      "cleaner": 6978,
      "humming": 6979,
      "ignoring": 6980,
      "Frankie": 6981,
      "Kids": 6982,
      "git": 6983,
      "byes": 6984,
      "whose": 6985,
      "Kelly": 6986,
      "shady": 6987,
      "oysters": 6988,
      "awoke": 6989,
      "quieter": 6990,
      "Ty": 6991,
      "goodbyes": 6992,
      "Janey": 6993,
      "œOf": 6994,
      "stitches": 6995,
      "rays": 6996,
      "Wally": 6997,
      "xy": 6998,
      "pod": 6999,
      "insp": 7000,
      "Pepper": 7001,
      "edges": 7002,
      "Fighting": 7003,
      "ponies": 7004,
      "tablet": 7005,
      "active": 7006,
      "fantastic": 7007,
      "labels": 7008,
      "Kevin": 7009,
      "cca": 7010,
      "cuddles": 7011,
      "tasting": 7012,
      "FI": 7013,
      "Does": 7014,
      "surfboard": 7015,
      "Bro": 7016,
      "stroll": 7017,
      "cloudy": 7018,
      "slither": 7019,
      "frowns": 7020,
      "erk": 7021,
      "symbols": 7022,
      "snowflakes": 7023,
      "handing": 7024,
      "presented": 7025,
      "locks": 7026,
      "afar": 7027,
      "=-=-": 7028,
      "ppies": 7029,
      "smal": 7030,
      "cotton": 7031,
      "sped": 7032,
      "uster": 7033,
      "drown": 7034,
      "hairdresser": 7035,
      "Froggy": 7036,
      "thorns": 7037,
      "definitely": 7038,
      "abby": 7039,
      "coral": 7040,
      "Duck": 7041,
      "Trust": 7042,
      "battle": 7043,
      "smallest": 7044,
      "OP": 7045,
      "gesture": 7046,
      "wisely": 7047,
      "vines": 7048,
      "custom": 7049,
      "reminding": 7050,
      "œNow": 7051,
      "lon": 7052,
      "deed": 7053,
      "driveway": 7054,
      "decisions": 7055,
      "peeled": 7056,
      "Bri": 7057,
      "rotting": 7058,
      "Bow": 7059,
      "newfound": 7060,
      "====": 7061,
      "simply": 7062,
      "Tig": 7063,
      "greet": 7064,
      "squeaked": 7065,
      "rior": 7066,
      "chopped": 7067,
      "swimsuit": 7068,
      "sharks": 7069,
      "prick": 7070,
      "Hurry": 7071,
      "}}": 7072,
      "usr": 7073,
      "grandson": 7074,
      "warrior": 7075,
      "UL": 7076,
      "export": 7077,
      "arranged": 7078,
      "Bounce": 7079,
      "weeds": 7080,
      "recor": 7081,
      "fishes": 7082,
      "Daniel": 7083,
      "Other": 7084,
      "ES": 7085,
      "stopping": 7086,
      "experien": 7087,
      "Jax": 7088,
      "granddaughter": 7089,
      "bandages": 7090,
      "ST_": 7091,
      "wobble": 7092,
      "exercises": 7093,
      "nasty": 7094,
      "code": 7095,
      "Fish": 7096,
      "################": 7097,
      "occas": 7098,
      "Say": 7099,
      "inspired": 7100,
      "tipped": 7101,
      "banged": 7102,
      "darlings": 7103,
      "boil": 7104,
      "Ana": 7105,
      "travels": 7106,
      "disturbing": 7107,
      "lent": 7108,
      "purr": 7109,
      "fills": 7110,
      "scri": 7111,
      "Stan": 7112,
      "covering": 7113,
      "Phil": 7114,
      "flipped": 7115,
      "Snowman": 7116,
      "_dir": 7117,
      "sess": 7118,
      "Roger": 7119,
      "œHey": 7120,
      "footsteps": 7121,
      "pedaled": 7122,
      "Dory": 7123,
      "birdhouse": 7124,
      "spits": 7125,
      "Gus": 7126,
      "windowsill": 7127,
      "travelling": 7128,
      "Open": 7129,
      "Elle": 7130,
      "belle": 7131,
      "scarecrow": 7132,
      "Man": 7133,
      "punishment": 7134,
      "sets": 7135,
      "cheers": 7136,
      "planting": 7137,
      "forests": 7138,
      "apologised": 7139,
      "Excitedly": 7140,
      "mered": 7141,
      "chocolates": 7142,
      "----------------": 7143,
      "Joan": 7144,
      "Right": 7145,
      "Feeling": 7146,
      "congratulated": 7147,
      "Playing": 7148,
      "ali": 7149,
      "ddie": 7150,
      "Patty": 7151,
      "ashed": 7152,
      "function": 7153,
      "believing": 7154,
      "trotted": 7155,
      "andas": 7156,
      "reassured": 7157,
      "reunited": 7158,
      "nodding": 7159,
      "encouragement": 7160,
      "docker": 7161,
      "poppies": 7162,
      "Lion": 7163,
      "ives": 7164,
      "essa": 7165,
      "focus": 7166,
      "solving": 7167,
      "Wor": 7168,
      "Nancy": 7169,
      "campfire": 7170,
      "magnif": 7171,
      "issa": 7172,
      "marve": 7173,
      "sails": 7174,
      "NAME": 7175,
      "officers": 7176,
      "terrified": 7177,
      "backpacks": 7178,
      "Amanda": 7179,
      "Elly": 7180,
      "clerk": 7181,
      "Magic": 7182,
      "knots": 7183,
      "surprising": 7184,
      "Sweet": 7185,
      "activity": 7186,
      "posit": 7187,
      "cour": 7188,
      "AB": 7189,
      "yelped": 7190,
      "expert": 7191,
      "wrinkled": 7192,
      "LO": 7193,
      "Woo": 7194,
      "grip": 7195,
      "concert": 7196,
      "mood": 7197,
      "masterpiece": 7198,
      "speeding": 7199,
      "imagin": 7200,
      "chilly": 7201,
      "spills": 7202,
      "MP": 7203,
      "delayed": 7204,
      "Jump": 7205,
      "Outside": 7206,
      "sniffing": 7207,
      "manager": 7208,
      "braver": 7209,
      "pleaded": 7210,
      "gears": 7211,
      "comforting": 7212,
      "Charlot": 7213,
      "Jean": 7214,
      "Startled": 7215,
      "treated": 7216,
      "Deal": 7217,
      "calmly": 7218,
      "acle": 7219,
      "osh": 7220,
      "bless": 7221,
      "Sir": 7222,
      "mermaid": 7223,
      "Charlotte": 7224,
      "Ava": 7225,
      "displayed": 7226,
      "suggestion": 7227,
      "Quackers": 7228,
      "aware": 7229,
      "stumble": 7230,
      "discussing": 7231,
      "OF": 7232,
      "height": 7233,
      "flowing": 7234,
      "jars": 7235,
      "acles": 7236,
      "<<": 7237,
      "worrying": 7238,
      "ka": 7239,
      "spies": 7240,
      "Anytime": 7241,
      "mischie": 7242,
      "although": 7243,
      "belongings": 7244,
      "seller": 7245,
      "magazines": 7246,
      "Carol": 7247,
      "bothering": 7248,
      "crowns": 7249,
      "CO": 7250,
      "understands": 7251,
      "scent": 7252,
      "mischievous": 7253,
      "puck": 7254,
      "Ang": 7255,
      "experienced": 7256,
      "burying": 7257,
      "refuse": 7258,
      "admiration": 7259,
      "efforts": 7260,
      "unfortunately": 7261,
      "Spring": 7262,
      "foxes": 7263,
      "emma": 7264,
      "classm": 7265,
      "Which": 7266,
      "dragonfly": 7267,
      "baskets": 7268,
      "buddy": 7269,
      "rier": 7270,
      "squaw": 7271,
      "toolbox": 7272,
      "argument": 7273,
      "bitten": 7274,
      "artwork": 7275,
      "Snowball": 7276,
      "dot": 7277,
      "Min": 7278,
      "Dear": 7279,
      "Eddie": 7280,
      "Lina": 7281,
      "Sk": 7282,
      "Youâ": 7283,
      "parted": 7284,
      "tweet": 7285,
      "Elsa": 7286,
      "Er": 7287,
      "loops": 7288,
      "Tess": 7289,
      "vehicles": 7290,
      "gazing": 7291,
      "fires": 7292,
      "jobs": 7293,
      "64": 7294,
      "pandas": 7295,
      "sheets": 7296,
      "Satur": 7297,
      "momma": 7298,
      "tumbled": 7299,
      "annoyed": 7300,
      "seashells": 7301,
      "rc": 7302,
      "lody": 7303,
      "ugging": 7304,
      "wealth": 7305,
      "œThe": 7306,
      "warmly": 7307,
      "NO": 7308,
      "Sasha": 7309,
      "address": 7310,
      "nibbled": 7311,
      "Care": 7312,
      "peas": 7313,
      "countered": 7314,
      "sunscreen": 7315,
      "desper": 7316,
      "Rudy": 7317,
      "opt": 7318,
      "business": 7319,
      "material": 7320,
      "aint": 7321,
      "creams": 7322,
      "purpose": 7323,
      "Butter": 7324,
      "insisting": 7325,
      "œSure": 7326,
      "collap": 7327,
      "Tammy": 7328,
      "encountered": 7329,
      "conqu": 7330,
      "coach": 7331,
      "permitted": 7332,
      "ROOT": 7333,
      "untied": 7334,
      "Helen": 7335,
      "prayers": 7336,
      "Jas": 7337,
      "conversation": 7338,
      "Y_": 7339,
      "races": 7340,
      "scram": 7341,
      "ppa": 7342,
      "checkout": 7343,
      "sewed": 7344,
      "joins": 7345,
      "current": 7346,
      "teachers": 7347,
      "scurrying": 7348,
      "Zero": 7349,
      "EL": 7350,
      "ilities": 7351,
      "aim": 7352,
      "whispering": 7353,
      "joked": 7354,
      "temp": 7355,
      "tilted": 7356,
      "Fortun": 7357,
      "Terry": 7358,
      "Twink": 7359,
      "loses": 7360,
      "orders": 7361,
      "hoops": 7362,
      "IP": 7363,
      "cowboy": 7364,
      "Fortunately": 7365,
      "jack": 7366,
      "genie": 7367,
      "airy": 7368,
      "troubles": 7369,
      "tment": 7370,
      "spooky": 7371,
      "Jason": 7372,
      "grandfather": 7373,
      "Per": 7374,
      "quarre": 7375,
      "slee": 7376,
      "Twinkle": 7377,
      "Im": 7378,
      "ening": 7379,
      "shall": 7380,
      "diamonds": 7381,
      "ching": 7382,
      "Stitch": 7383,
      "Saturday": 7384,
      "DAT": 7385,
      "iscu": 7386,
      "builder": 7387,
      "scientist": 7388,
      "pupils": 7389,
      "Isa": 7390,
      "burger": 7391,
      "anticip": 7392,
      "ansible": 7393,
      "whim": 7394,
      "error": 7395,
      "glittering": 7396,
      "Willi": 7397,
      "declar": 7398,
      "queens": 7399,
      "=\"$(": 7400,
      "turtles": 7401,
      "nearest": 7402,
      "Speedy": 7403,
      "trans": 7404,
      "Ka": 7405,
      "beaming": 7406,
      "characters": 7407,
      "tubes": 7408,
      "tapping": 7409,
      "Sleep": 7410,
      "œSee": 7411,
      "plugged": 7412,
      "charge": 7413,
      "Grand": 7414,
      "William": 7415,
      "Friend": 7416,
      "cd": 7417,
      "spells": 7418,
      "films": 7419,
      "visitors": 7420,
      "Izzy": 7421,
      "opportun": 7422,
      "A_": 7423,
      "untie": 7424,
      "cleared": 7425,
      "Gu": 7426,
      "dressing": 7427,
      "Nana": 7428,
      "fins": 7429,
      "vinced": 7430,
      "Ricky": 7431,
      "quet": 7432,
      "angle": 7433,
      "convinced": 7434,
      "',": 7435,
      "rely": 7436,
      "wasting": 7437,
      "Show": 7438,
      "rowed": 7439,
      "Seeing": 7440,
      "nurses": 7441,
      "customers": 7442,
      "Eric": 7443,
      "Bobbie": 7444,
      "hover": 7445,
      "hunters": 7446,
      "swollen": 7447,
      "wounds": 7448,
      "DO": 7449,
      "ift": 7450,
      "goats": 7451,
      "sweaty": 7452,
      "declared": 7453,
      "slowed": 7454,
      "Elsie": 7455,
      "osite": 7456,
      "donkey": 7457,
      "examining": 7458,
      "Taking": 7459,
      "buckled": 7460,
      "ww": 7461,
      "Andre": 7462,
      "Finny": 7463,
      "opposite": 7464,
      "checks": 7465,
      "mun": 7466,
      "bathing": 7467,
      "forgiveness": 7468,
      "tidied": 7469,
      "G_": 7470,
      "guessing": 7471,
      "tips": 7472,
      "spy": 7473,
      "sternly": 7474,
      "Ac": 7475,
      "peep": 7476,
      "goodies": 7477,
      "Rebe": 7478,
      "scratching": 7479,
      "youngest": 7480,
      "tops": 7481,
      "seagulls": 7482,
      "earned": 7483,
      "Pick": 7484,
      "signing": 7485,
      "beeped": 7486,
      "rescuing": 7487,
      "gener": 7488,
      "meowing": 7489,
      "Bongo": 7490,
      "]]": 7491,
      "questioned": 7492,
      "scrambled": 7493,
      "ration": 7494,
      "thanking": 7495,
      "service": 7496,
      "shin": 7497,
      "grat": 7498,
      "jud": 7499,
      "dripping": 7500,
      "Tessa": 7501,
      "range": 7502,
      "Peppa": 7503,
      "bou": 7504,
      "bouquet": 7505,
      "Chick": 7506,
      "drift": 7507,
      "anticipation": 7508,
      "Amber": 7509,
      "hike": 7510,
      "common": 7511,
      "picnics": 7512,
      "nibble": 7513,
      "responded": 7514,
      "FILE": 7515,
      "aisle": 7516,
      "responsibility": 7517,
      "floors": 7518,
      "\\\"": 7519,
      "smashed": 7520,
      "knocking": 7521,
      "attacked": 7522,
      "''": 7523,
      "explains": 7524,
      "tires": 7525,
      "emerged": 7526,
      "ative": 7527,
      "discoveries": 7528,
      "lipstick": 7529,
      "Brian": 7530,
      "Ice": 7531,
      "gratitude": 7532,
      "œWho": 7533,
      "Step": 7534,
      "conv": 7535,
      "vibr": 7536,
      "$(": 7537,
      "Ni": 7538,
      "zooms": 7539,
      "decoration": 7540,
      "status": 7541,
      "manners": 7542,
      "classmates": 7543,
      "vive": 7544,
      "Mam": 7545,
      "pip": 7546,
      "sprout": 7547,
      "Robo": 7548,
      "poses": 7549,
      "visits": 7550,
      "Pene": 7551,
      "Win": 7552,
      "ippy": 7553,
      "aeroplanes": 7554,
      "girlâ": 7555,
      "AD": 7556,
      "tho": 7557,
      "survive": 7558,
      "twists": 7559,
      "Gary": 7560,
      "SE": 7561,
      "inchworm": 7562,
      "Rebecca": 7563,
      "types": 7564,
      "Ele": 7565,
      "ability": 7566,
      "instantly": 7567,
      "oken": 7568,
      "wiggly": 7569,
      "Penelope": 7570,
      "munk": 7571,
      "seals": 7572,
      "Matilda": 7573,
      "script": 7574,
      "breaths": 7575,
      "Sparkle": 7576,
      "system": 7577,
      "Zoomy": 7578,
      "increasing": 7579,
      "rumbling": 7580,
      "Olivia": 7581,
      "sill": 7582,
      "voy": 7583,
      "shrunk": 7584,
      "brightest": 7585,
      "Behind": 7586,
      "elbow": 7587,
      "beehive": 7588,
      "munched": 7589,
      "Ri": 7590,
      "bond": 7591,
      "repo": 7592,
      "Au": 7593,
      "purrs": 7594,
      "test_": 7595,
      "flaps": 7596,
      "shimmering": 7597,
      "idence": 7598,
      "user": 7599,
      "winding": 7600,
      "Crabby": 7601,
      "seashell": 7602,
      "lowered": 7603,
      "flips": 7604,
      "Angel": 7605,
      "movements": 7606,
      "swaying": 7607,
      "cracks": 7608,
      "honking": 7609,
      "ittered": 7610,
      "aliens": 7611,
      "ssss": 7612,
      "whoever": 7613,
      "athan": 7614,
      "chipmunk": 7615,
      "TI": 7616,
      "doorbell": 7617,
      "custo": 7618,
      "prevented": 7619,
      "Feli": 7620,
      "[@]}\"": 7621,
      "announced": 7622,
      "spec": 7623,
      "switched": 7624,
      "œGood": 7625,
      "ource": 7626,
      "beaver": 7627,
      "rows": 7628,
      "Over": 7629,
      "Shelly": 7630,
      "taped": 7631,
      "mosquitoes": 7632,
      "chea": 7633,
      "@\"": 7634,
      "intent": 7635,
      "wrigg": 7636,
      "EX": 7637,
      "Jilly": 7638,
      "assert": 7639,
      "Ashley": 7640,
      "offering": 7641,
      "example": 7642,
      "Ever": 7643,
      "Hoot": 7644,
      "nuzzled": 7645,
      "Arrr": 7646,
      "Fre": 7647,
      "chant": 7648,
      "prickly": 7649,
      "million": 7650,
      "swap": 7651,
      "swayed": 7652,
      "aret": 7653,
      "stetho": 7654,
      "gues": 7655,
      "destroying": 7656,
      "cares": 7657,
      "designing": 7658,
      "minds": 7659,
      "gasp": 7660,
      "shines": 7661,
      "badger": 7662,
      "server": 7663,
      "erosity": 7664,
      "rats": 7665,
      "ec": 7666,
      "dodged": 7667,
      "racie": 7668,
      "crawls": 7669,
      "glimmering": 7670,
      "whistles": 7671,
      "Gracie": 7672,
      "smelt": 7673,
      "observing": 7674,
      "crops": 7675,
      "supplied": 7676,
      "**": 7677,
      "beautifully": 7678,
      "beating": 7679,
      "dangers": 7680,
      "knives": 7681,
      "stamped": 7682,
      "exploded": 7683,
      "facts": 7684,
      "languages": 7685,
      "snaps": 7686,
      "Quickly": 7687,
      "recorder": 7688,
      "scolds": 7689,
      "Cara": 7690,
      "yl": 7691,
      "scooters": 7692,
      "generosity": 7693,
      "customer": 7694,
      "soo": 7695,
      "scen": 7696,
      "hopper": 7697,
      "groan": 7698,
      "honesty": 7699,
      "AP": 7700,
      "acy": 7701,
      "closing": 7702,
      "germs": 7703,
      "expecting": 7704,
      "Bert": 7705,
      "RC": 7706,
      "haven": 7707,
      "iff": 7708,
      "tummies": 7709,
      "stethoscope": 7710,
      "lin": 7711,
      "robbers": 7712,
      "paddling": 7713,
      "Bonnie": 7714,
      "ific": 7715,
      "drowned": 7716,
      "clicked": 7717,
      "burgers": 7718,
      "Nora": 7719,
      "laptop": 7720,
      "tmp": 7721,
      "routine": 7722,
      "adds": 7723,
      "dryer": 7724,
      "whatâ": 7725,
      "ruff": 7726,
      "Gabby": 7727,
      "Peggy": 7728,
      "ushed": 7729,
      "whoosh": 7730,
      "Prince": 7731,
      "astronauts": 7732,
      "orter": 7733,
      "ggies": 7734,
      "veggies": 7735,
      "court": 7736,
      "Candy": 7737,
      "tidying": 7738,
      "direc": 7739,
      "dears": 7740,
      "opy": 7741,
      "cupcake": 7742,
      "steering": 7743,
      "pea": 7744,
      "unpacking": 7745,
      "wenty": 7746,
      "scul": 7747,
      "novels": 7748,
      "œMaybe": 7749,
      "cafe": 7750,
      "particularly": 7751,
      "statues": 7752,
      "cocoon": 7753,
      "conduc": 7754,
      "uddles": 7755,
      "chatted": 7756,
      "ID": 7757,
      "Belle": 7758,
      "BAS": 7759,
      "\"$(": 7760,
      "\"$@\"": 7761,
      "reminds": 7762,
      "appla": 7763,
      "cope": 7764,
      "ita": 7765,
      "dollar": 7766,
      "Tyler": 7767,
      "conductor": 7768,
      "Rudolph": 7769,
      "shorts": 7770,
      "dock": 7771,
      "hardest": 7772,
      "bats": 7773,
      "checking": 7774,
      "Use": 7775,
      "https": 7776,
      "Oink": 7777,
      "Zack": 7778,
      "stretches": 7779,
      "ghosts": 7780,
      "healthier": 7781,
      "matey": 7782,
      "applause": 7783,
      "tin": 7784,
      "wiser": 7785,
      "floats": 7786,
      "ENV": 7787,
      "Fairy": 7788,
      "nother": 7789,
      "cutter": 7790,
      "Riley": 7791,
      "Apr": 7792,
      "Achoo": 7793,
      "Another": 7794,
      "TION": 7795,
      "elect": 7796,
      "Ky": 7797,
      "Sup": 7798,
      "heaven": 7799,
      "awful": 7800,
      "Brad": 7801,
      "nch": 7802,
      "UR": 7803,
      "minded": 7804,
      "Andrew": 7805,
      "April": 7806,
      "LE": 7807,
      "plat": 7808,
      "sculpt": 7809,
      "Pu": 7810,
      "wildflowers": 7811,
      "du": 7812,
      "cock": 7813,
      "Carla": 7814,
      "Whatâ": 7815,
      "overhead": 7816,
      "idnight": 7817,
      "traded": 7818,
      "llas": 7819,
      "squished": 7820,
      "burnt": 7821,
      "carries": 7822,
      "combed": 7823,
      "beast": 7824,
      "Again": 7825,
      "syrup": 7826,
      "nests": 7827,
      "opinions": 7828,
      "gger": 7829,
      "gap": 7830,
      "killed": 7831,
      "inted": 7832,
      "bothered": 7833,
      "snug": 7834,
      "fascinating": 7835,
      "vari": 7836,
      "phones": 7837,
      "returning": 7838,
      "ashes": 7839,
      "ister": 7840,
      "faint": 7841,
      "experiences": 7842,
      "nights": 7843,
      "Rosa": 7844,
      "sprays": 7845,
      "providing": 7846,
      "shorter": 7847,
      "umbrellas": 7848,
      "Paula": 7849,
      "deserved": 7850,
      "Flora": 7851,
      "unable": 7852,
      "instrument": 7853,
      "plo": 7854,
      "pleas": 7855,
      "necess": 7856,
      "flashing": 7857,
      "Immediately": 7858,
      "born": 7859,
      "œOk": 7860,
      "Liam": 7861,
      "sculpture": 7862,
      "flashed": 7863,
      "weapons": 7864,
      "papa": 7865,
      "tearing": 7866,
      "Life": 7867,
      "lopes": 7868,
      "Annabelle": 7869,
      "teles": 7870,
      "./": 7871,
      "Foxy": 7872,
      "cidents": 7873,
      "bounces": 7874,
      "defeated": 7875,
      "Dino": 7876,
      "burns": 7877,
      "Melissa": 7878,
      "hotter": 7879,
      "sprinkle": 7880,
      "pos": 7881,
      "compan": 7882,
      "confidence": 7883,
      "inches": 7884,
      "Sw": 7885,
      "Sand": 7886,
      "faith": 7887,
      "farmers": 7888,
      "glided": 7889,
      "grumbled": 7890,
      "thump": 7891,
      "Mila": 7892,
      "get_": 7893,
      "Accidents": 7894,
      "GO": 7895,
      "Sal": 7896,
      "details": 7897,
      "fus": 7898,
      "stals": 7899,
      "grily": 7900,
      "dia": 7901,
      "telescope": 7902,
      "level": 7903,
      "Mu": 7904,
      "Sky": 7905,
      "Wooly": 7906,
      "lor": 7907,
      "sadder": 7908,
      "Wigg": 7909,
      "hiss": 7910,
      "twenty": 7911,
      "concent": 7912,
      "trusting": 7913,
      "clip": 7914,
      "applauding": 7915,
      "Rufus": 7916,
      "Whoever": 7917,
      "convince": 7918,
      "Tiger": 7919,
      "cheated": 7920,
      "gardens": 7921,
      "vast": 7922,
      "asers": 7923,
      "netdata": 7924,
      "bluebird": 7925,
      "Liza": 7926,
      "awhile": 7927,
      "necks": 7928,
      "robin": 7929,
      "crystals": 7930,
      "dee": 7931,
      "raising": 7932,
      "Boys": 7933,
      "Shar": 7934,
      "json": 7935,
      "Barry": 7936,
      "cubs": 7937,
      "chall": 7938,
      "resource": 7939,
      "€¦": 7940,
      "teams": 7941,
      "possess": 7942,
      "blown": 7943,
      "petting": 7944,
      "flip": 7945,
      "Sparkles": 7946,
      "OUT": 7947,
      "platform": 7948,
      "args": 7949,
      "craf": 7950,
      "collapsed": 7951,
      "extraordinary": 7952,
      "condition": 7953,
      "ramp": 7954,
      "insepar": 7955,
      "vault": 7956,
      "inseparable": 7957,
      "ial": 7958,
      "forgives": 7959,
      "sirens": 7960,
      "challeng": 7961,
      "behaviour": 7962,
      "fet": 7963,
      "munching": 7964,
      "GI": 7965,
      "natur": 7966,
      "soapy": 7967,
      "Lenny": 7968,
      "œBe": 7969,
      "abra": 7970,
      "trigger": 7971,
      "Da": 7972,
      "shat": 7973,
      "AC": 7974,
      "lib": 7975,
      "concer": 7976,
      "imaginary": 7977,
      "biscu": 7978,
      "Mona": 7979,
      "scrub": 7980,
      "prizes": 7981,
      "mk": 7982,
      "rowing": 7983,
      "meows": 7984,
      "toise": 7985,
      "ify": 7986,
      "expression": 7987,
      "directory": 7988,
      "tempted": 7989,
      "Pl": 7990,
      "bom": 7991,
      "singers": 7992,
      "waters": 7993,
      "bicycles": 7994,
      "waded": 7995,
      "necessary": 7996,
      "storms": 7997,
      "hunting": 7998,
      "Bar": 7999,
      "momâ": 8000,
      "sprang": 8001,
      "cooper": 8002,
      "acing": 8003,
      "gith": 8004,
      "ern": 8005,
      "illie": 8006,
      "Jose": 8007,
      "upside": 8008,
      "salon": 8009,
      "peeped": 8010,
      "flav": 8011,
      "opportunity": 8012,
      "exploration": 8013,
      "traveling": 8014,
      "adabra": 8015,
      "attitude": 8016,
      "longest": 8017,
      "ribut": 8018,
      "conquered": 8019,
      "SC": 8020,
      "ml": 8021,
      "Monkey": 8022,
      "distracted": 8023,
      "Willy": 8024,
      "adually": 8025,
      "bride": 8026,
      "sandy": 8027,
      "Jody": 8028,
      "realizes": 8029,
      "Gray": 8030,
      "cheat": 8031,
      "cheaper": 8032,
      "gul": 8033,
      "ix": 8034,
      "IS": 8035,
      "Vers": 8036,
      "enem": 8037,
      "enemies": 8038,
      "pills": 8039,
      "wriggled": 8040,
      "coolest": 8041,
      "sweaters": 8042,
      "mommies": 8043,
      "/$": 8044,
      "blank": 8045,
      "engines": 8046,
      "Midnight": 8047,
      "flock": 8048,
      "envelopes": 8049,
      "getic": 8050,
      "src": 8051,
      "otters": 8052,
      "Elephant": 8053,
      "Could": 8054,
      "moat": 8055,
      "clearly": 8056,
      "Gra": 8057,
      "successfully": 8058,
      "http": 8059,
      "NET": 8060,
      "discouraged": 8061,
      "Zee": 8062,
      "Oliver": 8063,
      "swimmer": 8064,
      "patches": 8065,
      "passes": 8066,
      "whel": 8067,
      "whales": 8068,
      "compete": 8069,
      "reappeared": 8070,
      "Jennie": 8071,
      "github": 8072,
      "alse": 8073,
      "chatting": 8074,
      "Stri": 8075,
      "grasshopper": 8076,
      "chin": 8077,
      "prof": 8078,
      "countries": 8079,
      "quacking": 8080,
      "Cre": 8081,
      "glittered": 8082,
      "sometime": 8083,
      "Capt": 8084,
      "overwhel": 8085,
      "Te": 8086,
      "boards": 8087,
      "annoying": 8088,
      "Mamma": 8089,
      "Ed": 8090,
      "Light": 8091,
      "Looking": 8092,
      "Martin": 8093,
      "Sa": 8094,
      "baa": 8095,
      "mattered": 8096,
      "Share": 8097,
      "_file": 8098,
      "strips": 8099,
      "spilling": 8100,
      "inger": 8101,
      "enjoyable": 8102,
      "servant": 8103,
      "crowded": 8104,
      "IT": 8105,
      "gallo": 8106,
      "arch": 8107,
      "shallow": 8108,
      "tortoise": 8109,
      "Janet": 8110,
      "MA": 8111,
      "oks": 8112,
      "prod": 8113,
      "marking": 8114,
      "relaxing": 8115,
      "approach": 8116,
      "whined": 8117,
      "Captain": 8118,
      "lyn": 8119,
      "Version": 8120,
      "Hmm": 8121,
      "ingo": 8122,
      "treas": 8123,
      "thicker": 8124,
      "12": 8125,
      "erg": 8126,
      "snor": 8127,
      "yawning": 8128,
      "uniforms": 8129,
      "invent": 8130,
      "Joanna": 8131,
      "soundly": 8132,
      "surely": 8133,
      "cheerfully": 8134,
      "companion": 8135,
      "hangers": 8136,
      "formation": 8137,
      "runner": 8138,
      "natural": 8139,
      "becomes": 8140,
      "Through": 8141,
      "setup": 8142,
      "fond": 8143,
      "TEST_": 8144,
      ">/": 8145,
      "backs": 8146,
      "skies": 8147,
      "THE": 8148,
      "BUIL": 8149,
      "Super": 8150,
      "Smo": 8151,
      "stur": 8152,
      "bound": 8153,
      "orrow": 8154,
      "outfits": 8155,
      "washes": 8156,
      "beetles": 8157,
      "treasured": 8158,
      "lers": 8159,
      "inj": 8160,
      "noticing": 8161,
      "squeaky": 8162,
      "BunBun": 8163,
      "Vel": 8164,
      "aboard": 8165,
      "md": 8166,
      "ared": 8167,
      "Leah": 8168,
      "bubbly": 8169,
      "vibrant": 8170,
      "_S": 8171,
      "airplanes": 8172,
      "../": 8173,
      "repairman": 8174,
      "section": 8175,
      "weighing": 8176,
      "rick": 8177,
      "_PATH": 8178,
      "moonlight": 8179,
      "freezing": 8180,
      "Velvet": 8181,
      "leap": 8182,
      "Alf": 8183,
      "process": 8184,
      "ALL": 8185,
      "Fo": 8186,
      "Rat": 8187,
      "exchange": 8188,
      "iggie": 8189,
      "haircuts": 8190,
      "scrun": 8191,
      "melody": 8192,
      "swirls": 8193,
      "timid": 8194,
      "Gold": 8195,
      "sincere": 8196,
      "Com": 8197,
      "Ginger": 8198,
      "PU": 8199,
      "coug": 8200,
      "onde": 8201,
      "newspapers": 8202,
      "uggy": 8203,
      "erase": 8204,
      "blonde": 8205,
      "mugs": 8206,
      "LE_": 8207,
      "miracle": 8208,
      "hummed": 8209,
      "messes": 8210,
      "scattering": 8211,
      "Cathy": 8212,
      "cowboys": 8213,
      "sneezes": 8214,
      "pepperoni": 8215,
      "communic": 8216,
      "Tomorrow": 8217,
      "faction": 8218,
      "clut": 8219,
      "Johny": 8220,
      "satisfaction": 8221,
      "positive": 8222,
      "lump": 8223,
      "ARG": 8224,
      "Danger": 8225,
      "Fif": 8226,
      "rink": 8227,
      "calmer": 8228,
      "compliment": 8229,
      "œYay": 8230,
      "squinted": 8231,
      "Avery": 8232,
      "models": 8233,
      "Ken": 8234,
      "roller": 8235,
      "blushed": 8236,
      "camel": 8237,
      "sipped": 8238,
      "ime": 8239,
      "neys": 8240,
      "venir": 8241,
      "clue": 8242,
      "leaking": 8243,
      "cherish": 8244,
      "possib": 8245,
      "occasion": 8246,
      "Tree": 8247,
      "compar": 8248,
      "situations": 8249,
      "ketch": 8250,
      "Sunshine": 8251,
      "More": 8252,
      "souvenir": 8253,
      "venture": 8254,
      "joyfully": 8255,
      "pressing": 8256,
      "coughed": 8257,
      "Har": 8258,
      "brake": 8259,
      "Jasmine": 8260,
      "uing": 8261,
      "concentr": 8262,
      "Math": 8263,
      "glittery": 8264,
      "meatballs": 8265,
      "Abra": 8266,
      "bruises": 8267,
      "weighs": 8268,
      "smartest": 8269,
      "explaining": 8270,
      "scenery": 8271,
      "dou": 8272,
      "bulbs": 8273,
      "alley": 8274,
      "tickling": 8275,
      "rin": 8276,
      "answering": 8277,
      "messages": 8278,
      "pinching": 8279,
      ":\"": 8280,
      "unfair": 8281,
      "welcoming": 8282,
      "snowy": 8283,
      "scares": 8284,
      "Should": 8285,
      "chill": 8286,
      "rewards": 8287,
      "Isabel": 8288,
      "cages": 8289,
      "storing": 8290,
      "risk": 8291,
      "talents": 8292,
      "amboo": 8293,
      "Hootie": 8294,
      "shattered": 8295,
      "inspe": 8296,
      "roast": 8297,
      "rewarding": 8298,
      "Cook": 8299,
      "hisses": 8300,
      "cleans": 8301,
      "rubbish": 8302,
      "traps": 8303,
      "melons": 8304,
      "pantry": 8305,
      "Tell": 8306,
      "default": 8307,
      "scow": 8308,
      "Chickie": 8309,
      "tale": 8310,
      "ips": 8311,
      "practised": 8312,
      "crocodiles": 8313,
      "Want": 8314,
      "node": 8315,
      "acts": 8316,
      "teapot": 8317,
      "digs": 8318,
      "Steven": 8319,
      "Girl": 8320,
      "binoc": 8321,
      "ULT_": 8322,
      "intently": 8323,
      "anny": 8324,
      "ying": 8325,
      "Nate": 8326,
      "PATH": 8327,
      "endant": 8328,
      "sturdy": 8329,
      "pilots": 8330,
      "UN": 8331,
      "Bruce": 8332,
      "groaned": 8333,
      "Thankfully": 8334,
      "Chirp": 8335,
      "Birdie": 8336,
      "Blo": 8337,
      "ighty": 8338,
      "olf": 8339,
      "cells": 8340,
      "marveled": 8341,
      "pipes": 8342,
      "baller": 8343,
      "groups": 8344,
      "umble": 8345,
      "tunes": 8346,
      "limb": 8347,
      "Weâ": 8348,
      "hoy": 8349,
      "dete": 8350,
      "horri": 8351,
      "bends": 8352,
      "weâ": 8353,
      "guards": 8354,
      "angrily": 8355,
      "finishes": 8356,
      "stuffing": 8357,
      "apology": 8358,
      "bomb": 8359,
      "smoking": 8360,
      "goodness": 8361,
      "cris": 8362,
      "styles": 8363,
      "unfamiliar": 8364,
      "sandpit": 8365,
      "ketchup": 8366,
      "Lots": 8367,
      "consider": 8368,
      "tow": 8369,
      "doorstep": 8370,
      "fireflies": 8371,
      "bubbling": 8372,
      "croaked": 8373,
      "Clo": 8374,
      "Pin": 8375,
      "bobb": 8376,
      "invites": 8377,
      "Play": 8378,
      "tentacles": 8379,
      "client": 8380,
      "energetic": 8381,
      "Felix": 8382,
      "lookout": 8383,
      "meadows": 8384,
      "microwave": 8385,
      "Ahoy": 8386,
      "PRO": 8387,
      "!'.": 8388,
      "ey": 8389,
      "sweeter": 8390,
      "tugging": 8391,
      "hew": 8392,
      "month": 8393,
      "shyly": 8394,
      "spoiling": 8395,
      "AULT_": 8396,
      "Mighty": 8397,
      "chews": 8398,
      "œWeâ": 8399,
      "ats": 8400,
      "gress": 8401,
      "crou": 8402,
      "protection": 8403,
      "Turn": 8404,
      "avi": 8405,
      "slapping": 8406,
      "Fifi": 8407,
      "false": 8408,
      "org": 8409,
      "stepping": 8410,
      "latest": 8411,
      "cs": 8412,
      "Using": 8413,
      "strolled": 8414,
      "overwhelmed": 8415,
      "stun": 8416,
      "moons": 8417,
      "shrank": 8418,
      "ication": 8419,
      "Randy": 8420,
      "napped": 8421,
      "cheating": 8422,
      "certainly": 8423,
      "Vio": 8424,
      "_name": 8425,
      "hesitation": 8426,
      "caterpillars": 8427,
      "chopping": 8428,
      "complet": 8429,
      "ulars": 8430,
      "scribb": 8431,
      "gasps": 8432,
      "defeat": 8433,
      "obst": 8434,
      "jets": 8435,
      "inju": 8436,
      "Ra": 8437,
      "popsic": 8438,
      "Gemma": 8439,
      "fade": 8440,
      "Josie": 8441,
      "circl": 8442,
      "RAN": 8443,
      "Climb": 8444,
      "Oscar": 8445,
      "underwater": 8446,
      "juic": 8447,
      "bold": 8448,
      "foam": 8449,
      "thon": 8450,
      "utter": 8451,
      "rips": 8452,
      "aston": 8453,
      "bbling": 8454,
      "shares": 8455,
      "pleasant": 8456,
      "Ms": 8457,
      "binoculars": 8458,
      "thor": 8459,
      "playhouse": 8460,
      "demanding": 8461,
      "_DIR": 8462,
      "pouch": 8463,
      "meaning": 8464,
      "cotch": 8465,
      "hopscotch": 8466,
      "ballerina": 8467,
      "crouched": 8468,
      "Close": 8469,
      "slithered": 8470,
      "lou": 8471,
      "Sum": 8472,
      "cadabra": 8473,
      "thie": 8474,
      "bbit": 8475,
      "fishy": 8476,
      "differently": 8477,
      "Was": 8478,
      "Jackâ": 8479,
      "loyalty": 8480,
      "bamboo": 8481,
      "stores": 8482,
      "tx": 8483,
      "Minnie": 8484,
      "SER": 8485,
      "gates": 8486,
      "ites": 8487,
      "def": 8488,
      "Patrick": 8489,
      "Find": 8490,
      "pounced": 8491,
      "transformed": 8492,
      "Ger": 8493,
      "caw": 8494,
      "solute": 8495,
      "recess": 8496,
      "disappointment": 8497,
      "ls": 8498,
      "unwrapped": 8499,
      "riverbank": 8500,
      "Ribbit": 8501,
      "shh": 8502,
      "Chuck": 8503,
      "squeezes": 8504,
      "electri": 8505,
      "Sandra": 8506,
      "cases": 8507,
      "landing": 8508,
      "Fa": 8509,
      "playdate": 8510,
      "Peep": 8511,
      "Allie": 8512,
      "Boun": 8513,
      "amused": 8514,
      "ankle": 8515,
      "snar": 8516,
      "Violet": 8517,
      "raking": 8518,
      "spare": 8519,
      "sweetly": 8520,
      "pokes": 8521,
      "Ravi": 8522,
      "Stre": 8523,
      "erup": 8524,
      "god": 8525,
      "fries": 8526,
      "nightmares": 8527,
      "cherished": 8528,
      "Tears": 8529,
      "lever": 8530,
      "aling": 8531,
      "cia": 8532,
      "actor": 8533,
      "whimpered": 8534,
      "NETDAT": 8535,
      "txt": 8536,
      "teamwork": 8537,
      "__": 8538,
      "snorted": 8539,
      "lull": 8540,
      "thrill": 8541,
      "birdy": 8542,
      "update": 8543,
      "Ber": 8544,
      "Marley": 8545,
      "judges": 8546,
      "curity": 8547,
      "oma": 8548,
      "mayor": 8549,
      "Claus": 8550,
      "blades": 8551,
      "crickets": 8552,
      "Pur": 8553,
      "œHow": 8554,
      "maje": 8555,
      "HOME": 8556,
      "))": 8557,
      "Wis": 8558,
      "keepers": 8559,
      "risky": 8560,
      "thest": 8561,
      "sacks": 8562,
      "unless": 8563,
      "elace": 8564,
      "shoelace": 8565,
      "cracker": 8566,
      "experiment": 8567,
      "Jere": 8568,
      "Wilbur": 8569,
      "Rita": 8570,
      "leans": 8571,
      "tickles": 8572,
      "injured": 8573,
      "watermelon": 8574,
      "craft": 8575,
      "snapping": 8576,
      "centre": 8577,
      "œDon": 8578,
      "mysteries": 8579,
      "thieves": 8580,
      "Peanut": 8581,
      "Stanley": 8582,
      "loads": 8583,
      "lumberjack": 8584,
      "peacock": 8585,
      "_VERSION": 8586,
      "whir": 8587,
      "miller": 8588,
      "anie": 8589,
      "distribut": 8590,
      "temptation": 8591,
      "tant": 8592,
      "}'": 8593,
      "warmed": 8594,
      "Mumma": 8595,
      "choosing": 8596,
      "enemy": 8597,
      "structures": 8598,
      "keyhole": 8599,
      "\"!": 8600,
      "intelligence": 8601,
      "Guess": 8602,
      "joys": 8603,
      "frustration": 8604,
      "hundreds": 8605,
      ",'": 8606,
      "stew": 8607,
      "Dot": 8608,
      "EOF": 8609,
      "teen": 8610,
      "scene": 8611,
      "Kenny": 8612,
      "ams": 8613,
      "valid": 8614,
      "ambi": 8615,
      "auntie": 8616,
      "supporting": 8617,
      "heels": 8618,
      "25": 8619,
      "Bambi": 8620,
      "sleeps": 8621,
      "Things": 8622,
      "descri": 8623,
      "banging": 8624,
      "seasons": 8625,
      "skirts": 8626,
      "trusty": 8627,
      "communicate": 8628,
      "Abracadabra": 8629,
      "Gw": 8630,
      "spi": 8631,
      "swimsuits": 8632,
      "Pink": 8633,
      "ently": 8634,
      "computers": 8635,
      "CONFI": 8636,
      "liar": 8637,
      "benches": 8638,
      "=(": 8639,
      "weaker": 8640,
      "Jodie": 8641,
      "tantrum": 8642,
      "hollow": 8643,
      "visible": 8644,
      "Imag": 8645,
      "wiggling": 8646,
      "levers": 8647,
      "stantly": 8648,
      "textures": 8649,
      "Jonathan": 8650,
      "Wake": 8651,
      "Wisdom": 8652,
      "enger": 8653,
      "hissing": 8654,
      "speople": 8655,
      "cting": 8656,
      "nicest": 8657,
      "Thump": 8658,
      "trading": 8659,
      "Ziggy": 8660,
      "umbs": 8661,
      "townspeople": 8662,
      "variable": 8663,
      "electricity": 8664,
      "Cho": 8665,
      "ige": 8666,
      "luckiest": 8667,
      "shinier": 8668,
      "Fly": 8669,
      "SI": 8670,
      "lush": 8671,
      "alongside": 8672,
      "tling": 8673,
      "spears": 8674,
      "writer": 8675,
      "Din": 8676,
      "SP": 8677,
      "security": 8678,
      "Colin": 8679,
      "othy": 8680,
      "pedaling": 8681,
      "reversing": 8682,
      "Bra": 8683,
      "thumbs": 8684,
      "pples": 8685,
      "trusts": 8686,
      "quarreled": 8687,
      "Gwen": 8688,
      "prank": 8689,
      "softened": 8690,
      "knobs": 8691,
      "Name": 8692,
      "hudd": 8693,
      "Toys": 8694,
      "awk": 8695,
      "magnifying": 8696,
      "Jeremy": 8697,
      "Yog": 8698,
      "Near": 8699,
      "kneeling": 8700,
      "mooed": 8701,
      "Kyle": 8702,
      "!=": 8703,
      "CD": 8704,
      "cluster": 8705,
      "foggy": 8706,
      "linux": 8707,
      "Dra": 8708,
      "whine": 8709,
      "progress": 8710,
      "toothbrush": 8711,
      "cops": 8712,
      "disappearing": 8713,
      "compared": 8714,
      "mie": 8715,
      "rebuild": 8716,
      "anced": 8717,
      "continuing": 8718,
      "harvest": 8719,
      "astonished": 8720,
      "limp": 8721,
      "scree": 8722,
      "binary": 8723,
      "ARCH": 8724,
      "character": 8725,
      "Bark": 8726,
      "ala": 8727,
      "Three": 8728,
      "fetched": 8729,
      "elif": 8730,
      "wee": 8731,
      "guarding": 8732,
      "Hopper": 8733,
      "kube_": 8734,
      "Carefully": 8735,
      "Hank": 8736,
      "Sing": 8737,
      "groom": 8738,
      "habit": 8739,
      "shift": 8740,
      "Rainbow": 8741,
      "boiling": 8742,
      "worst": 8743,
      "api": 8744,
      "solutely": 8745,
      "Test": 8746,
      "udged": 8747,
      "Summer": 8748,
      "OL": 8749,
      "yml": 8750,
      "zel": 8751,
      "amps": 8752,
      "oldest": 8753,
      "usty": 8754,
      "Skip": 8755,
      "Buster": 8756,
      "Buggy": 8757,
      "pk": 8758,
      "access": 8759,
      "Pop": 8760,
      "Son": 8761,
      "Books": 8762,
      "Alan": 8763,
      "Cheese": 8764,
      "sus": 8765,
      "magically": 8766,
      "output_": 8767,
      "concerned": 8768,
      "thew": 8769,
      "zips": 8770,
      "tempts": 8771,
      "Jelly": 8772,
      "funn": 8773,
      "speaker": 8774,
      "motorcycles": 8775,
      "creep": 8776,
      "Tre": 8777,
      "attempts": 8778,
      "Lucas": 8779,
      "bowing": 8780,
      "Down": 8781,
      "connect": 8782,
      "improving": 8783,
      "Mais": 8784,
      "revealing": 8785,
      "Sc": 8786,
      "wil": 8787,
      "œA": 8788,
      "otherwise": 8789,
      "sensation": 8790,
      "fif": 8791,
      "œThanks": 8792,
      "rex": 8793,
      "popping": 8794,
      "kangaroos": 8795,
      "Libby": 8796,
      "=-=-=-=-": 8797,
      "allowing": 8798,
      "cupboards": 8799,
      "hooks": 8800,
      "poisonous": 8801,
      "lullaby": 8802,
      "wheelbar": 8803,
      "cuddling": 8804,
      "doesnâ": 8805,
      "pest": 8806,
      "peak": 8807,
      "vas": 8808,
      "owns": 8809,
      "bushy": 8810,
      "Clare": 8811,
      "brains": 8812,
      "Maisie": 8813,
      "JoJo": 8814,
      "state": 8815,
      "facing": 8816,
      "blade": 8817,
      "embarrassing": 8818,
      "wrench": 8819,
      "pedall": 8820,
      "cooled": 8821,
      "journeys": 8822,
      "Patches": 8823,
      "whirl": 8824,
      "soothing": 8825,
      "aloud": 8826,
      "larger": 8827,
      "guardian": 8828,
      "format": 8829,
      "appearance": 8830,
      "shoots": 8831,
      "puppets": 8832,
      "drying": 8833,
      "Thumper": 8834,
      "realise": 8835,
      "narrow": 8836,
      "sneaks": 8837,
      "bud": 8838,
      "thunderstorm": 8839,
      "invitations": 8840,
      "Tru": 8841,
      "coughing": 8842,
      "Copy": 8843,
      "Ria": 8844,
      "œWelcome": 8845,
      "Doctor": 8846,
      "ibly": 8847,
      "BIN": 8848,
      "unity": 8849,
      "usion": 8850,
      "allerg": 8851,
      "canvas": 8852,
      "ption": 8853,
      "courageous": 8854,
      "Eat": 8855,
      "Greg": 8856,
      "cru": 8857,
      "lowers": 8858,
      "Smoke": 8859,
      "Silly": 8860,
      "Toto": 8861,
      "mindful": 8862,
      "deeply": 8863,
      "circled": 8864,
      "till": 8865,
      "mest": 8866,
      "quired": 8867,
      "disaster": 8868,
      "Jennif": 8869,
      "heavily": 8870,
      "dashed": 8871,
      "copied": 8872,
      "bundle": 8873,
      "sleds": 8874,
      "Lightning": 8875,
      "Jennifer": 8876,
      "roo": 8877,
      "angrier": 8878,
      "mast": 8879,
      "bernet": 8880,
      "mustered": 8881,
      "knit": 8882,
      "bernetes": 8883,
      "caps": 8884,
      "Ant": 8885,
      "nearer": 8886,
      "Ooh": 8887,
      "quilt": 8888,
      "blooms": 8889,
      "property": 8890,
      "mkdir": 8891,
      "\"\"": 8892,
      "sobbing": 8893,
      "costs": 8894,
      "SH": 8895,
      "honks": 8896,
      "completing": 8897,
      "Bug": 8898,
      "aa": 8899,
      "role": 8900,
      "atest": 8901,
      "Moon": 8902,
      "skate": 8903,
      "medals": 8904,
      "cousins": 8905,
      "OURC": 8906,
      "wheelbarrow": 8907,
      "proto": 8908,
      "Bea": 8909,
      "shrugs": 8910,
      "}.": 8911,
      "realizing": 8912,
      "daily": 8913,
      "hangs": 8914,
      "repeats": 8915,
      "Bruno": 8916,
      "mold": 8917,
      "wolves": 8918,
      "run_": 8919,
      "piled": 8920,
      "striches": 8921,
      "scoops": 8922,
      "hips": 8923,
      "contented": 8924,
      "throne": 8925,
      "consul": 8926,
      "TIONS": 8927,
      "loudest": 8928,
      ">>": 8929,
      "ering": 8930,
      "whipped": 8931,
      "warmest": 8932,
      "flashes": 8933,
      "repairing": 8934,
      "licen": 8935,
      "wrapper": 8936,
      "lizards": 8937,
      "Pinchy": 8938,
      "lava": 8939,
      "plopped": 8940,
      "cooperate": 8941,
      "information": 8942,
      "Rock": 8943,
      "cp": 8944,
      "rails": 8945,
      "Matthew": 8946,
      "Imagine": 8947,
      "='": 8948,
      "tock": 8949,
      "waking": 8950,
      "antern": 8951,
      "Robin": 8952,
      "laws": 8953,
      "Brother": 8954,
      "heâ": 8955,
      "ande": 8956,
      "claw": 8957,
      "tions": 8958,
      "winds": 8959,
      "disobey": 8960,
      "XX": 8961,
      "sooner": 8962,
      "Got": 8963,
      "partment": 8964,
      "harmony": 8965,
      "capture": 8966,
      "spiky": 8967,
      "Jes": 8968,
      "Mac": 8969,
      "dozed": 8970,
      "rrrr": 8971,
      "achievement": 8972,
      "========": 8973,
      "lantern": 8974,
      "savor": 8975,
      "manâ": 8976,
      "preschool": 8977,
      "fights": 8978,
      "footprints": 8979,
      "flooded": 8980,
      "Ratty": 8981,
      "Fru": 8982,
      "coop": 8983,
      "maps": 8984,
      "trim": 8985,
      "allowance": 8986,
      "INST": 8987,
      "œThere": 8988,
      "glared": 8989,
      "kayaking": 8990,
      "interrup": 8991,
      "huddled": 8992,
      "calming": 8993,
      "lunchtime": 8994,
      "Off": 8995,
      "theat": 8996,
      "minding": 8997,
      "incredibly": 8998,
      "isnâ": 8999,
      "Tri": 9000,
      "juiciest": 9001,
      "Nur": 9002,
      "ticking": 9003,
      "tempting": 9004,
      "Dis": 9005,
      "shave": 9006,
      "œOK": 9007,
      "hooves": 9008,
      "strokes": 9009,
      "aming": 9010,
      "foreshadow": 9011,
      "gratefully": 9012,
      "cig": 9013,
      "œWould": 9014,
      "aroma": 9015,
      "disagreement": 9016,
      "_assert": 9017,
      "owls": 9018,
      "hatched": 9019,
      "pled": 9020,
      "swapped": 9021,
      "springing": 9022,
      "Otherwise": 9023,
      "Ron": 9024,
      "glistening": 9025,
      "jing": 9026,
      "soda": 9027,
      "movement": 9028,
      "woodcutter": 9029,
      "dirname": 9030,
      "bellies": 9031,
      "seriously": 9032,
      "Flutter": 9033,
      "eq": 9034,
      "paste": 9035,
      "Freya": 9036,
      "Nurse": 9037,
      "Sitting": 9038,
      "seatbelt": 9039,
      "Missy": 9040,
      "spar": 9041,
      "absolutely": 9042,
      "grump": 9043,
      "bbi": 9044,
      "speaks": 9045,
      "ggles": 9046,
      "device": 9047,
      "challenges": 9048,
      "cigaret": 9049,
      "Ami": 9050,
      "ands": 9051,
      "sele": 9052,
      "isted": 9053,
      "lifeguard": 9054,
      "route": 9055,
      ".*": 9056,
      "quacks": 9057,
      "caution": 9058,
      "theatre": 9059,
      "Father": 9060,
      "iments": 9061,
      "persistence": 9062,
      "possibilities": 9063,
      "output_message": 9064,
      "OS": 9065,
      "Old": 9066,
      "Wolf": 9067,
      "cience": 9068,
      "Johnâ": 9069,
      "oceans": 9070,
      "admit": 9071,
      "chanted": 9072,
      "leng": 9073,
      "glanced": 9074,
      "bathed": 9075,
      "leys": 9076,
      "rocky": 9077,
      "sniffled": 9078,
      "Nicky": 9079,
      "option": 9080,
      "bumping": 9081,
      "lasted": 9082,
      "iled": 9083,
      "blur": 9084,
      "Kar": 9085,
      "_C": 9086,
      "limit": 9087,
      "python": 9088,
      "Rick": 9089,
      "_version": 9090,
      "hack": 9091,
      "musicians": 9092,
      "KUBE_ROOT": 9093,
      "VAULT_": 9094,
      "œAre": 9095,
      "ppings": 9096,
      "etc": 9097,
      "smoothly": 9098,
      "values": 9099,
      "Muffin": 9100,
      "ald": 9101,
      "iring": 9102,
      "blamed": 9103,
      "strated": 9104,
      "printf": 9105,
      "energ": 9106,
      "babys": 9107,
      "magnific": 9108,
      "LU": 9109,
      "rinse": 9110,
      "goggles": 9111,
      "exist": 9112,
      "ssy": 9113,
      "URL": 9114,
      "stirs": 9115,
      "stomp": 9116,
      "charged": 9117,
      "retri": 9118,
      "uncovered": 9119,
      "springtime": 9120,
      "imaginations": 9121,
      "wrig": 9122,
      "hy": 9123,
      "pollen": 9124,
      "folds": 9125,
      "desperately": 9126,
      "Pru": 9127,
      "cmd": 9128,
      "wax": 9129,
      "racer": 9130,
      "chatter": 9131,
      "floppy": 9132,
      "booth": 9133,
      "desks": 9134,
      "bolt": 9135,
      "mers": 9136,
      "stacking": 9137,
      "stains": 9138,
      "sac": 9139,
      "dolly": 9140,
      "deciding": 9141,
      "passenger": 9142,
      "vinegar": 9143,
      "chains": 9144,
      "mesmerised": 9145,
      "pounds": 9146,
      "Joseph": 9147,
      "Olly": 9148,
      "poop": 9149,
      "Bouncy": 9150,
      "oray": 9151,
      "cluck": 9152,
      "chili": 9153,
      "cloths": 9154,
      "static": 9155,
      "Carly": 9156,
      "roamed": 9157,
      "ulous": 9158,
      "BUILD_": 9159,
      "messed": 9160,
      "recommendation": 9161,
      "introducing": 9162,
      "cutest": 9163,
      "iana": 9164,
      "laces": 9165,
      "Cow": 9166,
      "Pear": 9167,
      "hatch": 9168,
      "parks": 9169,
      "options": 9170,
      "Puppy": 9171,
      "/${": 9172,
      "debug": 9173,
      "Noah": 9174,
      "disobeyed": 9175,
      "fooled": 9176,
      "cooed": 9177,
      "Squeak": 9178,
      "yumm": 9179,
      "desperate": 9180,
      "_path": 9181,
      "ns": 9182,
      "report": 9183,
      "umed": 9184,
      "obediently": 9185,
      "amongst": 9186,
      "ani": 9187,
      "undone": 9188,
      "anten": 9189,
      "pecks": 9190,
      "conut": 9191,
      "confusion": 9192,
      "differences": 9193,
      "Sean": 9194,
      "babysitter": 9195,
      "Years": 9196,
      "adv": 9197,
      "Boy": 9198,
      "kinder": 9199,
      "flavour": 9200,
      "yummiest": 9201,
      "Panda": 9202,
      "Juli": 9203,
      "shooed": 9204,
      "hovering": 9205,
      "allergic": 9206,
      "magnificent": 9207,
      "wig": 9208,
      "hoses": 9209,
      "Gogo": 9210,
      "champ": 9211,
      "kissing": 9212,
      "desserts": 9213,
      "yuck": 9214,
      "purring": 9215,
      "aprons": 9216,
      "Ned": 9217,
      "Boom": 9218,
      "Black": 9219,
      "clubs": 9220,
      "alligators": 9221,
      "distributed": 9222,
      "aml": 9223,
      "widely": 9224,
      "sleigh": 9225,
      "gulped": 9226,
      "MM": 9227,
      "non": 9228,
      "coconut": 9229,
      "batch": 9230,
      "incts": 9231,
      "Yoga": 9232,
      "Raven": 9233,
      "wanna": 9234,
      "hamster": 9235,
      "hadnâ": 9236,
      "instincts": 9237,
      "11": 9238,
      "sno": 9239,
      "scut": 9240,
      "pres": 9241,
      "swat": 9242,
      "cuc": 9243,
      "token": 9244,
      "listener": 9245,
      "silently": 9246,
      "Stu": 9247,
      "bly": 9248,
      "err": 9249,
      "asp": 9250,
      "greatest": 9251,
      "Faith": 9252,
      "M_": 9253,
      "untangle": 9254,
      "comets": 9255,
      "Doll": 9256,
      "rinsed": 9257,
      "Rory": 9258,
      "envoy": 9259,
      "compromise": 9260,
      "Instantly": 9261,
      "scratchy": 9262,
      "Nature": 9263,
      "ja": 9264,
      "rack": 9265,
      "liest": 9266,
      "Eve": 9267,
      "TMP": 9268,
      "ostriches": 9269,
      "retrie": 9270,
      "fived": 9271,
      ":?": 9272,
      "nibbling": 9273,
      "\";": 9274,
      "lish": 9275,
      "los": 9276,
      "arning": 9277,
      "valleys": 9278,
      "Rich": 9279,
      "inny": 9280,
      "army": 9281,
      "cies": 9282,
      "doggie": 9283,
      "ria": 9284,
      "creak": 9285,
      "handy": 9286,
      "slur": 9287,
      "headache": 9288,
      "drill": 9289,
      "depths": 9290,
      "performers": 9291,
      "Move": 9292,
      "IC": 9293,
      "doves": 9294,
      "borrowing": 9295,
      "globe": 9296,
      "halves": 9297,
      "gladly": 9298,
      "snoring": 9299,
      "length": 9300,
      "royal": 9301,
      "squirted": 9302,
      "biscuit": 9303,
      "Fay": 9304,
      "bait": 9305,
      "connection": 9306,
      "Lydia": 9307,
      "Billie": 9308,
      "lil": 9309,
      "learner": 9310,
      "Tay": 9311,
      "mult": 9312,
      "mustn": 9313,
      "Thunder": 9314,
      "croak": 9315,
      "Bless": 9316,
      "Doug": 9317,
      "Piggy": 9318,
      "Rusty": 9319,
      "TO": 9320,
      "motions": 9321,
      "hippos": 9322,
      "challenged": 9323,
      "Puddles": 9324,
      "gummy": 9325,
      "indoors": 9326,
      "disable": 9327,
      "pkg": 9328,
      "?!": 9329,
      "ridge": 9330,
      "riddle": 9331,
      "carton": 9332,
      "gradually": 9333,
      "confidently": 9334,
      "Fran": 9335,
      "PO": 9336,
      "cine": 9337,
      "yaml": 9338,
      "aly": 9339,
      "ality": 9340,
      "keen": 9341,
      "icated": 9342,
      "oey": 9343,
      "8s": 9344,
      "pizzas": 9345,
      "DOCK": 9346,
      "Mint": 9347,
      "idi": 9348,
      "licenses": 9349,
      "gooey": 9350,
      "playbook": 9351,
      "towns": 9352,
      "lunchbox": 9353,
      "FOR": 9354,
      "PE": 9355,
      "Roo": 9356,
      "Snap": 9357,
      "lling": 9358,
      ":-}\"": 9359,
      "\"/": 9360,
      "*)": 9361,
      "lur": 9362,
      "drip": 9363,
      "addition": 9364,
      "stacks": 9365,
      "Cro": 9366,
      "poles": 9367,
      "softest": 9368,
      "bloss": 9369,
      "Grumpy": 9370,
      "shoelaces": 9371,
      "caroni": 9372,
      "ollie": 9373,
      "clam": 9374,
      "kube_flags": 9375,
      "sudo": 9376,
      "Congratul": 9377,
      "TR": 9378,
      "Turt": 9379,
      "dumb": 9380,
      "toppings": 9381,
      "stings": 9382,
      "galloped": 9383,
      "Copyright": 9384,
      "ousy": 9385,
      "Though": 9386,
      "sharpen": 9387,
      "Congratulations": 9388,
      "Biggie": 9389,
      "Hu": 9390,
      "Tia": 9391,
      "tiring": 9392,
      "password": 9393,
      "Stand": 9394,
      "sends": 9395,
      "closure": 9396,
      "NETDATA_": 9397,
      "k8s": 9398,
      "link": 9399,
      "tend": 9400,
      "ilar": 9401,
      "steered": 9402,
      "jq": 9403,
      "sys": 9404,
      "niece": 9405,
      "boiled": 9406,
      "Wr": 9407,
      "sinking": 9408,
      "shots": 9409,
      "tastiest": 9410,
      "whether": 9411,
      "Shall": 9412,
      "dled": 9413,
      "dele": 9414,
      "Jimbo": 9415,
      "freely": 9416,
      "fuss": 9417,
      "unicorns": 9418,
      "Goo": 9419,
      "mur": 9420,
      "œWill": 9421,
      "required": 9422,
      "enjoys": 9423,
      "enclosure": 9424,
      "ics": 9425,
      "ribbit": 9426,
      "ING": 9427,
      "crafts": 9428,
      "science": 9429,
      "peacefulness": 9430,
      "Dre": 9431,
      "boyâ": 9432,
      "scrubbing": 9433,
[...]
